{"[PAD]":0,"[UNK]":1,"!":2,"\"":3,"#":4,"$":5,"%":6,"&":7,"'":8,"(":9,")":10,"*":11,"+":12,",":13,"-":14,".":15,"/":16,"0":17,"1":18,"2":19,"3":20,"4":21,"5":22,"6":23,"7":24,"8":25,"9":26,":":27,";":28,"<":29,"=":30,">":31,"?":32,"@":33,"[":34,"\\":35,"]":36,"^":37,"_":38,"`":39,"a":40,"b":41,"c":42,"d":43,"e":44,"f":45,"g":46,"h":47,"i":48,"j":49,"k":50,"l":51,"m":52,"n":53,"o":54,"p":55,"q":56,"r":57,"s":58,"t":59,"u":60,"v":61,"w":62,"x":63,"y":64,"z":65,"{":66,"|":67,"}":68,"~":69,"¡":70,"¢":71,"£":72,"¤":73,"¥":74,"§":75,"©":76,"«":77,"¬":78,"®":79,"°":80,"±":81,"²":82,"³":83,"´":84,"µ":85,"¶":86,"·":87,"¹":88,"º":89,"»":90,"¼":91,"½":92,"¾":93,"¿":94,"×":95,"ß":96,"à":97,"á":98,"â":99,"ã":100,"ä":101,"å":102,"æ":103,"ç":104,"è":105,"é":106,"ê":107,"ë":108,"ì":109,"í":110,"î":111,"ï":112,"ð":113,"ñ":114,"ò":115,"ó":116,"ô":117,"õ":118,"ö":119,"÷":120,"ø":121,"ù":122,"ú":123,"û":124,"ü":125,"ý":126,"þ":127,"ÿ":128,"ā":129,"ă":130,"ą":131,"ć":132,"č":133,"đ":134,"ē":135,"ė":136,"ę":137,"ě":138,"ğ":139,"ġ":140,"ħ":141,"ĩ":142,"ī":143,"ı":144,"ľ":145,"ł":146,"ń":147,"ņ":148,"ň":149,"ŋ":150,"ō":151,"ŏ":152,"ő":153,"œ":154,"ř":155,"ś":156,"ş":157,"š":158,"ţ":159,"ť":160,"ũ":161,"ū":162,"ŭ":163,"ů":164,"ų":165,"ŵ":166,"ŷ":167,"ź":168,"ż":169,"ž":170,"ƒ":171,"ơ":172,"ư":173,"ǎ":174,"ǐ":175,"ǒ":176,"ǔ":177,"ǫ":178,"ș":179,"ț":180,"ɐ":181,"ɑ":182,"ɒ":183,"ɔ":184,"ɕ":185,"ɖ":186,"ə":187,"ɛ":188,"ɜ":189,"ɟ":190,"ɡ":191,"ɣ":192,"ɨ":193,"ɪ":194,"ɫ":195,"ɬ":196,"ɯ":197,"ɲ":198,"ɾ":199,"ʀ":200,"ʁ":201,"ʂ":202,"ʃ":203,"ʊ":204,"ʋ":205,"ʌ":206,"ʒ":207,"ʔ":208,"ʕ":209,"ʰ":210,"ʲ":211,"ʷ":212,"ʻ":213,"ʼ":214,"ʾ":215,"ʿ":216,"ˀ":217,"ˈ":218,"ˌ":219,"ː":220,"˚":221,"ˠ":222,"ˤ":223,"́":224,"̃":225,"̄":226,"̆":227,"̇":228,"̈":229,"̊":230,"̍":231,"̝":232,"̞":233,"̠":234,"̥":235,"̧":236,"̩":237,"̪":238,"̯":239,"͡":240,"ά":241,"έ":242,"ή":243,"ί":244,"α":245,"β":246,"γ":247,"δ":248,"ε":249,"ζ":250,"η":251,"θ":252,"ι":253,"κ":254,"λ":255,"μ":256,"ν":257,"ξ":258,"ο":259,"π":260,"ρ":261,"ς":262,"σ":263,"τ":264,"υ":265,"φ":266,"χ":267,"ψ":268,"ω":269,"ό":270,"ύ":271,"ώ":272,"ϕ":273,"а":274,"б":275,"в":276,"г":277,"д":278,"е":279,"ж":280,"з":281,"и":282,"й":283,"к":284,"л":285,"м":286,"н":287,"о":288,"п":289,"р":290,"с":291,"т":292,"у":293,"ф":294,"х":295,"ц":296,"ч":297,"ш":298,"щ":299,"ъ":300,"ы":301,"ь":302,"э":303,"ю":304,"я":305,"ё":306,"і":307,"ј":308,"ћ":309,"ա":310,"բ":311,"գ":312,"դ":313,"ե":314,"թ":315,"ի":316,"լ":317,"կ":318,"հ":319,"ղ":320,"մ":321,"յ":322,"ն":323,"ո":324,"պ":325,"ս":326,"վ":327,"տ":328,"ր":329,"ց":330,"ւ":331,"ք":332,"ְ":333,"ִ":334,"ֵ":335,"ֶ":336,"ַ":337,"ָ":338,"ֹ":339,"ּ":340,"א":341,"ב":342,"ג":343,"ד":344,"ה":345,"ו":346,"ז":347,"ח":348,"ט":349,"י":350,"כ":351,"ל":352,"ם":353,"מ":354,"ן":355,"נ":356,"ס":357,"ע":358,"פ":359,"צ":360,"ק":361,"ר":362,"ש":363,"ת":364,"ء":365,"أ":366,"إ":367,"ئ":368,"ا":369,"ب":370,"ة":371,"ت":372,"ث":373,"ج":374,"ح":375,"خ":376,"د":377,"ذ":378,"ر":379,"ز":380,"س":381,"ش":382,"ص":383,"ض":384,"ط":385,"ع":386,"غ":387,"ف":388,"ق":389,"ك":390,"ل":391,"م":392,"ن":393,"ه":394,"و":395,"ى":396,"ي":397,"َ":398,"ُ":399,"ِ":400,"ّ":401,"ْ":402,"ک":403,"ی":404,"ं":405,"अ":406,"क":407,"ग":408,"च":409,"ज":410,"ट":411,"ण":412,"त":413,"द":414,"ध":415,"न":416,"प":417,"ब":418,"भ":419,"म":420,"य":421,"र":422,"ल":423,"व":424,"श":425,"ष":426,"स":427,"ह":428,"ा":429,"ि":430,"ी":431,"ु":432,"ू":433,"ृ":434,"े":435,"ो":436,"्":437,"ক":438,"ল":439,"া":440,"্":441,"க":442,"ம":443,"ர":444,"ா":445,"ி":446,"்":447,"ก":448,"ข":449,"ง":450,"จ":451,"ช":452,"ด":453,"ต":454,"ท":455,"น":456,"บ":457,"ป":458,"พ":459,"ม":460,"ย":461,"ร":462,"ล":463,"ว":464,"ศ":465,"ส":466,"ห":467,"อ":468,"ะ":469,"ั":470,"า":471,"ิ":472,"ี":473,"ุ":474,"ู":475,"เ":476,"แ":477,"่":478,"้":479,"์":480,"་":481,"င":482,"ဆ":483,"န":484,"ပ":485,"ရ":486,"်":487,"ြ":488,"ა":489,"დ":490,"ე":491,"ვ":492,"ი":493,"ლ":494,"მ":495,"ნ":496,"რ":497,"ს":498,"უ":499,"ხ":500,"ក":501,"ត":502,"ន":503,"ព":504,"ម":505,"រ":506,"ស":507,"ា":508,"្":509,"ᵻ":510,"ḍ":511,"ḥ":512,"ḷ":513,"ḻ":514,"ṃ":515,"ṅ":516,"ṇ":517,"ṉ":518,"ṛ":519,"ṣ":520,"ṭ":521,"ạ":522,"ả":523,"ấ":524,"ầ":525,"ẩ":526,"ậ":527,"ắ":528,"ẵ":529,"ế":530,"ễ":531,"ệ":532,"ị":533,"ọ":534,"ố":535,"ồ":536,"ổ":537,"ỗ":538,"ộ":539,"ớ":540,"ờ":541,"ở":542,"ợ":543,"ụ":544,"ủ":545,"ứ":546,"ử":547,"ữ":548,"ự":549,"ỳ":550,"ỹ":551,"ἀ":552,"ἄ":553,"ἐ":554,"ἔ":555,"ἰ":556,"ἱ":557,"ὁ":558,"ὐ":559,"ὑ":560,"ὴ":561,"ὶ":562,"ὸ":563,"ᾶ":564,"ῆ":565,"ῖ":566,"ῥ":567,"ῦ":568,"ῶ":569,"‐":570,"‑":571,"–":572,"—":573,"―":574,"‘":575,"’":576,"“":577,"”":578,"„":579,"†":580,"‡":581,"•":582,"…":583,"‰":584,"′":585,"″":586,"※":587,"⁄":588,"₂":589,"₣":590,"₤":591,"₩":592,"€":593,"₱":594,"₹":595,"ℓ":596,"№":597,"⅓":598,"⅔":599,"←":600,"↑":601,"→":602,"↓":603,"⇌":604,"⇒":605,"∂":606,"∈":607,"∑":608,"−":609,"∗":610,"∙":611,"√":612,"∞":613,"∩":614,"∴":615,"≈":616,"≠":617,"≡":618,"≤":619,"≥":620,"⊕":621,"⊗":622,"⊙":623,"⋅":624,"─":625,"│":626,"█":627,"▲":628,"►":629,"◄":630,"◊":631,"○":632,"◦":633,"☆":634,"☉":635,"☠":636,"☮":637,"♀":638,"♂":639,"♠":640,"♣":641,"♥":642,"♦":643,"♪":644,"♭":645,"♯":646,"⟨":647,"⟩":648,"ⴰ":649,"、":650,"〈":651,"〉":652,"「":653,"」":654,"〜":655,"あ":656,"い":657,"う":658,"え":659,"お":660,"か":661,"が":662,"き":663,"く":664,"ぐ":665,"け":666,"こ":667,"さ":668,"し":669,"じ":670,"す":671,"せ":672,"た":673,"だ":674,"ち":675,"っ":676,"つ":677,"て":678,"で":679,"と":680,"ど":681,"な":682,"に":683,"の":684,"は":685,"ば":686,"ひ":687,"ふ":688,"へ":689,"ぽ":690,"ま":691,"み":692,"め":693,"も":694,"ゃ":695,"や":696,"ゆ":697,"よ":698,"ら":699,"り":700,"る":701,"れ":702,"を":703,"ん":704,"ァ":705,"ア":706,"ィ":707,"イ":708,"ウ":709,"ェ":710,"エ":711,"ォ":712,"オ":713,"カ":714,"ガ":715,"キ":716,"ギ":717,"ク":718,"グ":719,"ケ":720,"ゲ":721,"コ":722,"ゴ":723,"サ":724,"ザ":725,"シ":726,"ジ":727,"ス":728,"ズ":729,"セ":730,"ゼ":731,"ソ":732,"タ":733,"ダ":734,"チ":735,"ッ":736,"ツ":737,"テ":738,"デ":739,"ト":740,"ド":741,"ナ":742,"ニ":743,"ネ":744,"ノ":745,"ハ":746,"バ":747,"パ":748,"ヒ":749,"ビ":750,"ピ":751,"フ":752,"ブ":753,"プ":754,"ベ":755,"ペ":756,"ホ":757,"ボ":758,"ポ":759,"マ":760,"ミ":761,"ム":762,"メ":763,"モ":764,"ャ":765,"ヤ":766,"ュ":767,"ユ":768,"ョ":769,"ラ":770,"リ":771,"ル":772,"レ":773,"ロ":774,"ワ":775,"ン":776,"ヴ":777,"・":778,"ー":779,"一":780,"三":781,"上":782,"下":783,"不":784,"世":785,"个":786,"中":787,"丸":788,"主":789,"之":790,"事":791,"二":792,"五":793,"井":794,"京":795,"人":796,"代":797,"伊":798,"会":799,"伝":800,"作":801,"僕":802,"元":803,"光":804,"全":805,"八":806,"公":807,"六":808,"内":809,"写":810,"前":811,"剣":812,"劉":813,"動":814,"北":815,"十":816,"千":817,"华":818,"南":819,"印":820,"原":821,"古":822,"台":823,"史":824,"司":825,"合":826,"同":827,"名":828,"君":829,"周":830,"和":831,"四":832,"国":833,"國":834,"園":835,"在":836,"地":837,"型":838,"城":839,"堂":840,"場":841,"塊":842,"士":843,"夏":844,"外":845,"夜":846,"夢":847,"大":848,"天":849,"太":850,"女":851,"子":852,"字":853,"学":854,"守":855,"安":856,"宗":857,"宝":858,"宮":859,"家":860,"寺":861,"小":862,"少":863,"山":864,"島":865,"川":866,"州":867,"市":868,"師":869,"平":870,"年":871,"式":872,"張":873,"後":874,"心":875,"思":876,"恋":877,"愛":878,"成":879,"我":880,"戦":881,"所":882,"手":883,"政":884,"教":885,"文":886,"新":887,"方":888,"旋":889,"日":890,"明":891,"星":892,"春":893,"時":894,"書":895,"月":896,"有":897,"朝":898,"木":899,"本":900,"李":901,"村":902,"来":903,"東":904,"松":905,"林":906,"校":907,"機":908,"歌":909,"正":910,"武":911,"殿":912,"氏":913,"民":914,"水":915,"永":916,"泉":917,"法":918,"流":919,"海":920,"火":921,"無":922,"物":923,"狗":924,"王":925,"生":926,"田":927,"界":928,"白":929,"百":930,"的":931,"皇":932,"真":933,"眼":934,"石":935,"社":936,"神":937,"祭":938,"秋":939,"空":940,"第":941,"紅":942,"編":943,"美":944,"者":945,"聖":946,"能":947,"艦":948,"良":949,"色":950,"花":951,"草":952,"華":953,"葉":954,"藤":955,"行":956,"術":957,"西":958,"見":959,"記":960,"詩":961,"語":962,"説":963,"議":964,"谷":965,"賦":966,"赤":967,"路":968,"軍":969,"転":970,"遁":971,"道":972,"郎":973,"部":974,"里":975,"野":976,"金":977,"銀":978,"長":979,"門":980,"院":981,"集":982,"雪":983,"雲":984,"青":985,"音":986,"風":987,"香":988,"馬":989,"高":990,"鬼":991,"魂":992,"魔":993,"黄":994,"鼓":995,"龍":996,"ﬁ":997,"ﬂ":998,"！":999,"～":1000,"￼":1001,"g</w>":1002,"r</w>":1003,"x</w>":1004,"u</w>":1005,"1</w>":1006,"n</w>":1007,"s</w>":1008,"e</w>":1009,"a</w>":1010,"4</w>":1011,"l</w>":1012,"i</w>":1013,"h</w>":1014,"d</w>":1015,"v</w>":1016,"8</w>":1017,"m</w>":1018,"5</w>":1019,"0</w>":1020,"®</w>":1021,"2</w>":1022,"o</w>":1023,"ν</w>":1024,"c</w>":1025,"y</w>":1026,"7</w>":1027,"ð</w>":1028,"t</w>":1029,"9</w>":1030,"z</w>":1031,"j</w>":1032,"3</w>":1033,"f</w>":1034,"о</w>":1035,"p</w>":1036,"ɪ</w>":1037,"ი</w>":1038,"k</w>":1039,"6</w>":1040,"ō</w>":1041,"é</w>":1042,"ó</w>":1043,"ة</w>":1044,"ق</w>":1045,"м</w>":1046,"十</w>":1047,"й</w>":1048,"म</w>":1049,"÷</w>":1050,"b</w>":1051,"ル</w>":1052,"ū</w>":1053,"w</w>":1054,"ə</w>":1055,"ς</w>":1056,"に</w>":1057,"е</w>":1058,"ร</w>":1059,"φ</w>":1060,"ス</w>":1061,"à</w>":1062,"̃</w>":1063,"ǔ</w>":1064,"¡</w>":1065,"ث</w>":1066,"ē</w>":1067,"ί</w>":1068,"ė</w>":1069,"и</w>":1070,"―</w>":1071,"í</w>":1072,"ü</w>":1073,"ô</w>":1074,"μ</w>":1075,"ő</w>":1076,"い</w>":1077,"ā</w>":1078,"υ</w>":1079,"â</w>":1080,"î</w>":1081,"ग</w>":1082,"ア</w>":1083,"ǎ</w>":1084,"©</w>":1085,"ל</w>":1086,"а</w>":1087,"ː</w>":1088,"ć</w>":1089,"ı</w>":1090,"ù</w>":1091,"ת</w>":1092,"q</w>":1093,"◦</w>":1094,"स</w>":1095,"æ</w>":1096,"か</w>":1097,"č</w>":1098,"λ</w>":1099,"ћ</w>":1100,"}</w>":1101,"ь</w>":1102,"к</w>":1103,"¢</w>":1104,"ा</w>":1105,"น</w>":1106,"т</w>":1107,"á</w>":1108,"ś</w>":1109,"र</w>":1110,"д</w>":1111,"γ</w>":1112,"ク</w>":1113,"ŋ</w>":1114,"ن</w>":1115,"ן</w>":1116,"ط</w>":1117,"ー</w>":1118,"♥</w>":1119,"ī</w>":1120,"α</w>":1121,"ή</w>":1122,"կ</w>":1123,"ン</w>":1124,"ɐ</w>":1125,"ক</w>":1126,"ï</w>":1127,"ḥ</w>":1128,"χ</w>":1129,"ú</w>":1130,"ɛ</w>":1131,"ա</w>":1132,"л</w>":1133,"￼</w>":1134,"ו</w>":1135,"ὴ</w>":1136,"る</w>":1137,"đ</w>":1138,"˚</w>":1139,"ה</w>":1140,"š</w>":1141,"ʊ</w>":1142,"▲</w>":1143,"в</w>":1144,"ジ</w>":1145,"ト</w>":1146,"し</w>":1147,"時</w>":1148,"و</w>":1149,"ウ</w>":1150,"ه</w>":1151,"ę</w>":1152,"ら</w>":1153,"г</w>":1154,"°</w>":1155,"は</w>":1156,"華</w>":1157,"さ</w>":1158,"å</w>":1159,"ø</w>":1160,"ˠ</w>":1161,"ы</w>":1162,";</w>":1163,"ी</w>":1164,"ּ</w>":1165,"ん</w>":1166,"ズ</w>":1167,"ß</w>":1168,"☆</w>":1169,"オ</w>":1170,"ë</w>":1171,"グ</w>":1172,"の</w>":1173,"→</w>":1174,"ä</w>":1175,"è</w>":1176,"り</w>":1177,"眼</w>":1178,"ם</w>":1179,"能</w>":1180,"ر</w>":1181,"ξ</w>":1182,"х</w>":1183,"ω</w>":1184,"і</w>":1185,"イ</w>":1186,"ŭ</w>":1187,"ド</w>":1188,"с</w>":1189,"ی</w>":1190,"ʲ</w>":1191,"р</w>":1192,"я</w>":1193,"ʷ</w>":1194,"η</w>":1195,"ի</w>":1196,"ι</w>":1197,"ò</w>":1198,"ʃ</w>":1199,"न</w>":1200,"な</w>":1201,"ل</w>":1202,"•</w>":1203,"σ</w>":1204,"ɜ</w>":1205,"ɬ</w>":1206,"י</w>":1207,"ナ</w>":1208,"></w>":1209,"が</w>":1210,"も</w>":1211,"្</w>":1212,"ր</w>":1213,"ą</w>":1214,"บ</w>":1215,"こ</w>":1216,"フ</w>":1217,"प</w>":1218,"դ</w>":1219,"ų</w>":1220,"ʿ</w>":1221,"ギ</w>":1222,"ュ</w>":1223,"م</w>":1224,"た</w>":1225,"գ</w>":1226,"ê</w>":1227,"ă</w>":1228,"少</w>":1229,"⊙</w>":1230,"ё</w>":1231,"ا</w>":1232,"€</w>":1233,"⟨</w>":1234,"у</w>":1235,"ツ</w>":1236,"¥</w>":1237,"テ</w>":1238,"ɣ</w>":1239,"א</w>":1240,"ɡ</w>":1241,"ダ</w>":1242,"н</w>":1243,"ʁ</w>":1244,"ラ</w>":1245,"ц</w>":1246,"ỹ</w>":1247,"ј</w>":1248,"ʰ</w>":1249,"ロ</w>":1250,"×</w>":1251,"¬</w>":1252,"プ</w>":1253,"ɾ</w>":1254,"ş</w>":1255,"ħ</w>":1256,"ʀ</w>":1257,"β</w>":1258,"ì</w>":1259,"ψ</w>":1260,"ह</w>":1261,"ב</w>":1262,"ृ</w>":1263,"≥</w>":1264,"ʼ</w>":1265,"տ</w>":1266,"भ</w>":1267,"ö</w>":1268,"յ</w>":1269,"め</w>":1270,"す</w>":1271,"†</w>":1272,"ม</w>":1273,"ब</w>":1274,"ג</w>":1275,"ç</w>":1276,"ي</w>":1277,"س</w>":1278,"ย</w>":1279,"ר</w>":1280,"夏</w>":1281,"ɕ</w>":1282,"中</w>":1283,"ち</w>":1284,"ș</w>":1285,"ά</w>":1286,"ន</w>":1287,"ე</w>":1288,"ケ</w>":1289,"ն</w>":1290,"ネ</w>":1291,"ण</w>":1292,"國</w>":1293,"新</w>":1294,"ɑ</w>":1295,"ὸ</w>":1296,"£</w>":1297,"ń</w>":1298,"ت</w>":1299,"ק</w>":1300,"ʾ</w>":1301,"小</w>":1302,".</w>":1303,"院</w>":1304,"ο</w>":1305,"見</w>":1306,"π</w>":1307,"د</w>":1308,"ρ</w>":1309,"ა</w>":1310,"ต</w>":1311,"क</w>":1312,"民</w>":1313,"δ</w>":1314,"ɟ</w>":1315,"त</w>":1316,"ě</w>":1317,"ε</w>":1318,"う</w>":1319,"θ</w>":1320,"ł</w>":1321,"ɲ</w>":1322,"ム</w>":1323,"朝</w>":1324,"ч</w>":1325,"ż</w>":1326,"○</w>":1327,"з</w>":1328,"色</w>":1329,"ệ</w>":1330,"レ</w>":1331,"ğ</w>":1332,"ã</w>":1333,"ด</w>":1334,"ブ</w>":1335,"ň</w>":1336,"ɔ</w>":1337,"せ</w>":1338,"星</w>":1339,"ש</w>":1340,"ὶ</w>":1341,"チ</w>":1342,"ɫ</w>":1343,"ử</w>":1344,"☠</w>":1345,"ว</w>":1346,"塊</w>":1347,"ע</w>":1348,"ガ</w>":1349,"ボ</w>":1350,"遁</w>":1351,"ล</w>":1352,"夜</w>":1353,"宗</w>":1354,"ɯ</w>":1355,"ج</w>":1356,"き</w>":1357,"野</w>":1358,"█</w>":1359,"五</w>":1360,"ं</w>":1361,"ம</w>":1362,"カ</w>":1363,"♠</w>":1364,"ṃ</w>":1365,"≤</w>":1366,"ท</w>":1367,"を</w>":1368,"ข</w>":1369,"\"</w>":1370,"э</w>":1371,"ʒ</w>":1372,"ե</w>":1373,"よ</w>":1374,"ष</w>":1375,"く</w>":1376,"ш</w>":1377,"ṣ</w>":1378,"ミ</w>":1379,"τ</w>":1380,"社</w>":1381,"ʔ</w>":1382,"ب</w>":1383,"ǐ</w>":1384,"व</w>":1385,"ो</w>":1386,"ट</w>":1387,"ד</w>":1388,"メ</w>":1389,"え</w>":1390,"タ</w>":1391,"∙</w>":1392,"ւ</w>":1393,"ạ</w>":1394,"ž</w>":1395,"バ</w>":1396,"≈</w>":1397,"ध</w>":1398,"ǒ</w>":1399,"º</w>":1400,"で</w>":1401,"ォ</w>":1402,"[</w>":1403,"õ</w>":1404,"מ</w>":1405,"ַ</w>":1406,"ъ</w>":1407,"ี</w>":1408,"美</w>":1409,"₤</w>":1410,"ῦ</w>":1411,"ζ</w>":1412,"κ</w>":1413,"ُ</w>":1414,"ɨ</w>":1415,"ế</w>":1416,"ნ</w>":1417,"ἰ</w>":1418,"ど</w>":1419,"と</w>":1420,"ổ</w>":1421,"ى</w>":1422,"前</w>":1423,"◄</w>":1424,"ु</w>":1425,"ِ</w>":1426,"б</w>":1427,"李</w>":1428,"ि</w>":1429,"ý</w>":1430,"#</w>":1431,"ゲ</w>":1432,"य</w>":1433,"ủ</w>":1434,"ម</w>":1435,"ز</w>":1436,"エ</w>":1437,"ṇ</w>":1438,"古</w>":1439,"@</w>":1440,"ง</w>":1441,"า</w>":1442,"ح</w>":1443,"ビ</w>":1444,"̝</w>":1445,"マ</w>":1446,"ヤ</w>":1447,"司</w>":1448,"や</w>":1449,"ก</w>":1450,"っ</w>":1451,"お</w>":1452,"青</w>":1453,"ǫ</w>":1454,"̇</w>":1455,"ˤ</w>":1456,"~</w>":1457,"軍</w>":1458,"द</w>":1459,"ĩ</w>":1460,"ल</w>":1461,"キ</w>":1462,"̪</w>":1463,"ˀ</w>":1464,"君</w>":1465,"ء</w>":1466,"ワ</w>":1467,"ṭ</w>":1468,"₩</w>":1469,"া</w>":1470,"ʕ</w>":1471,"香</w>":1472,"̍</w>":1473,"ж</w>":1474,"ひ</w>":1475,"高</w>":1476,"れ</w>":1477,"之</w>":1478,"つ</w>":1479,"₂</w>":1480,"我</w>":1481,"∴</w>":1482,"ក</w>":1483,"代</w>":1484,"ϕ</w>":1485,"全</w>":1486,"ิ</w>":1487,"ك</w>":1488,"リ</w>":1489,"հ</w>":1490,"श</w>":1491,"田</w>":1492,"♭</w>":1493,"င</w>":1494,"ñ</w>":1495,"け</w>":1496,"ź</w>":1497,"下</w>":1498,"ύ</w>":1499,"黄</w>":1500,"̩</w>":1501,"ḍ</w>":1502,"ئ</w>":1503,"þ</w>":1504,"園</w>":1505,"’</w>":1506,"ứ</w>":1507,"て</w>":1508,"転</w>":1509,"₣</w>":1510,"ィ</w>":1511,"¤</w>":1512,"⅓</w>":1513,"千</w>":1514,"ֹ</w>":1515,"̊</w>":1516,"ց</w>":1517,"原</w>":1518,"œ</w>":1519,"↑</w>":1520,"式</w>":1521,"ャ</w>":1522,"方</w>":1523,"ộ</w>":1524,"ま</w>":1525,"♀</w>":1526,"ס</w>":1527,"ត</w>":1528,"ả</w>":1529,"լ</w>":1530,"►</w>":1531,"خ</w>":1532,"п</w>":1533,"ό</w>":1534,"ṉ</w>":1535,"ユ</w>":1536,"̈</w>":1537,"ọ</w>":1538,"ġ</w>":1539,"ห</w>":1540,"დ</w>":1541,"神</w>":1542,"ព</w>":1543,"祭</w>":1544,"ᾶ</w>":1545,"̥</w>":1546,"−</w>":1547,"َ</w>":1548,"※</w>":1549,"ع</w>":1550,"ぽ</w>":1551,"ḻ</w>":1552,"ט</w>":1553,"シ</w>":1554,"მ</w>":1555,"რ</w>":1556,"/</w>":1557,"բ</w>":1558,"京</w>":1559,"み</w>":1560,"্</w>":1561,"ụ</w>":1562,"有</w>":1563,"だ</w>":1564,"უ</w>":1565,"ῶ</w>":1566,"₱</w>":1567,"事</w>":1568,"ช</w>":1569,"泉</w>":1570,"„</w>":1571,"щ</w>":1572,"′</w>":1573,"ش</w>":1574,"藤</w>":1575,"ŷ</w>":1576,"ხ</w>":1577,"ض</w>":1578,"的</w>":1579,"モ</w>":1580,"西</w>":1581,"路</w>":1582,"へ</w>":1583,"一</w>":1584,"ば</w>":1585,"ữ</w>":1586,"န</w>":1587,"同</w>":1588,"♪</w>":1589,"年</w>":1590,"մ</w>":1591,"内</w>":1592,"ู</w>":1593,"ស</w>":1594,"龍</w>":1595,"石</w>":1596,"じ</w>":1597,"∩</w>":1598,"<</w>":1599,"行</w>":1600,"サ</w>":1601,"?</w>":1602,"华</w>":1603,"ू</w>":1604,"ف</w>":1605,"、</w>":1606,"े</w>":1607,"έ</w>":1608,"ˌ</w>":1609,"デ</w>":1610,"火</w>":1611,"法</w>":1612,"三</w>":1613,"∞</w>":1614,"正</w>":1615,"်</w>":1616,"☮</w>":1617,"│</w>":1618,"ল</w>":1619,"û</w>":1620,"`</w>":1621,"க</w>":1622,"王</w>":1623,"賦</w>":1624,"ゆ</w>":1625,"安</w>":1626,"ḷ</w>":1627,"‘</w>":1628,"ポ</w>":1629,"ி</w>":1630,"³</w>":1631,"ص</w>":1632,"ř</w>":1633,"剣</w>":1634,"ח</w>":1635,"ា</w>":1636,"ज</w>":1637,"≠</w>":1638,"ヴ</w>":1639,"་</w>":1640,"ƒ</w>":1641,"僕</w>":1642,"ゼ</w>":1643,"ỗ</w>":1644,"ț</w>":1645,"⟩</w>":1646,"コ</w>":1647,"ю</w>":1648,")</w>":1649,"⊕</w>":1650,"ị</w>":1651,"ự</w>":1652,"ʌ</w>":1653,"↓</w>":1654,"雪</w>":1655,"ῆ</w>":1656,"♣</w>":1657,"ţ</w>":1658,"∑</w>":1659,"ք</w>":1660,"∈</w>":1661,"ぐ</w>":1662,"ἱ</w>":1663,"ァ</w>":1664,"ů</w>":1665,"ÿ</w>":1666,"∗</w>":1667,"ป</w>":1668,"艦</w>":1669,"旋</w>":1670,"ノ</w>":1671,"ْ</w>":1672,"ヒ</w>":1673,"ս</w>":1674,"魔</w>":1675,"ホ</w>":1676,"界</w>":1677,"վ</w>":1678,"ர</w>":1679,"»</w>":1680,"村</w>":1681,"ʻ</w>":1682,"恋</w>":1683,"்</w>":1684,"ո</w>":1685,"₹</w>":1686,"場</w>":1687,"長</w>":1688,"=</w>":1689,"‐</w>":1690,"士</w>":1691,"ザ</w>":1692,"«</w>":1693,"ղ</w>":1694,"ّ</w>":1695,"µ</w>":1696,"ư</w>":1697,"〜</w>":1698,"字</w>":1699,"光</w>":1700,"้</w>":1701,"ơ</w>":1702,"門</w>":1703,"ť</w>":1704,"ェ</w>":1705,"ศ</w>":1706,"第</w>":1707,"明</w>":1708,"ז</w>":1709,"ベ</w>":1710,"–</w>":1711,"史</w>":1712,"四</w>":1713,"¾</w>":1714,"“</w>":1715,"+</w>":1716,"ф</w>":1717,"ョ</w>":1718,"ố</w>":1719,"ώ</w>":1720,"～</w>":1721,"ะ</w>":1722,"六</w>":1723,"♯</w>":1724,"(</w>":1725,"ṛ</w>":1726,"⋅</w>":1727,"´</w>":1728,"鼓</w>":1729,"♂</w>":1730,"±</w>":1731,"ľ</w>":1732,"ʂ</w>":1733,"日</w>":1734,"国</w>":1735,"生</w>":1736,"市</w>":1737,"堂</w>":1738,"動</w>":1739,"ハ</w>":1740,"-</w>":1741,"会</w>":1742,"ლ</w>":1743,"井</w>":1744,"者</w>":1745,"大</w>":1746,"赤</w>":1747,"雲</w>":1748,"◊</w>":1749,"ở</w>":1750,"議</w>":1751,"ℓ</w>":1752,"ذ</w>":1753,"編</w>":1754,"狗</w>":1755,"歌</w>":1756,"ʋ</w>":1757,",</w>":1758,"̧</w>":1759,"寺</w>":1760,"ồ</w>":1761,"&</w>":1762,"春</w>":1763,"·</w>":1764,"劉</w>":1765,"教</w>":1766,"文</w>":1767,"伝</w>":1768,"พ</w>":1769,"'</w>":1770,"心</w>":1771,"ั</w>":1772,"$</w>":1773,"נ</w>":1774,"ũ</w>":1775,"草</w>":1776,"木</w>":1777,"ŏ</w>":1778,"²</w>":1779,":</w>":1780,"所</w>":1781,"ɒ</w>":1782,"戦</w>":1783,"書</w>":1784,"伊</w>":1785,"]</w>":1786,"里</w>":1787,"詩</w>":1788,"学</w>":1789,"作</w>":1790,"|</w>":1791,"̞</w>":1792,"天</w>":1793,"白</w>":1794,"語</w>":1795,"*</w>":1796,"魂</w>":1797,"谷</w>":1798,"公</w>":1799,"्</w>":1800,"─</w>":1801,"名</w>":1802,"地</w>":1803,"½</w>":1804,"百</w>":1805,"花</w>":1806,"世</w>":1807,"រ</w>":1808,"山</w>":1809,"ს</w>":1810,"空</w>":1811,"「</w>":1812,"南</w>":1813,"外</w>":1814,"\\</w>":1815,"≡</w>":1816,"̆</w>":1817,"́</w>":1818,"北</w>":1819,"պ</w>":1820,"%</w>":1821,"不</w>":1822,"←</w>":1823,"ニ</w>":1824,"¼</w>":1825,"成</w>":1826,"在</w>":1827,"⁄</w>":1828,"ֵ</w>":1829,"銀</w>":1830,"⇌</w>":1831,"⊗</w>":1832,"ἀ</w>":1833,"流</w>":1834,"च</w>":1835,"¹</w>":1836,"غ</w>":1837,"風</w>":1838,"〉</w>":1839,"№</w>":1840,"ா</w>":1841,"写</w>":1842,"集</w>":1843,"—</w>":1844,"！</w>":1845,"女</w>":1846,"音</w>":1847,"ⴰ</w>":1848,"ὁ</w>":1849,"州</w>":1850,"政</w>":1851,"説</w>":1852,"☉</w>":1853,"太</w>":1854,"主</w>":1855,"月</w>":1856,"郎</w>":1857,"金</w>":1858,"♦</w>":1859,"宮</w>":1860,"葉</w>":1861,"〈</w>":1862,"ک</w>":1863,"聖</w>":1864,"真</w>":1865,"印</w>":1866,"!</w>":1867,"和</w>":1868,"ရ</w>":1869,"^</w>":1870,"̄</w>":1871,"丸</w>":1872,"∂</w>":1873,"・</w>":1874,"″</w>":1875,"{</w>":1876,"͡</w>":1877,"人</w>":1878,"่</w>":1879,"ֶ</w>":1880,"ส</w>":1881,"ふ</w>":1882,"後</w>":1883,"上</w>":1884,"夢</w>":1885,"殿</w>":1886,"์</w>":1887,"機</w>":1888,"記</w>":1889,"水</w>":1890,"林</w>":1891,"ッ</w>":1892,"⇒</w>":1893,"‑</w>":1894,"个</w>":1895,"家</w>":1896,"จ</w>":1897,"_</w>":1898,"合</w>":1899,"ợ</w>":1900,"武</w>":1901,"¿</w>":1902,"来</w>":1903,"元</w>":1904,"術</w>":1905,"紅</w>":1906,"型</w>":1907,"」</w>":1908,"平</w>":1909,"城</w>":1910,"秋</w>":1911,"思</w>":1912,"愛</w>":1913,"皇</w>":1914,"八</w>":1915,"道</w>":1916,"守</w>":1917,"ვ</w>":1918,"周</w>":1919,"ỳ</w>":1920,"ɖ</w>":1921,"松</w>":1922,"¶</w>":1923,"…</w>":1924,"部</w>":1925,"ゴ</w>":1926,"台</w>":1927,"氏</w>":1928,"̠</w>":1929,"島</w>":1930,"子</w>":1931,"張</w>":1932,"校</w>":1933,"‡</w>":1934,"§</w>":1935,"永</w>":1936,"本</w>":1937,"ソ</w>":1938,"師</w>":1939,"東</w>":1940,"ᵻ</w>":1941,"物</w>":1942,"良</w>":1943,"馬</w>":1944,"手</w>":1945,"⅔</w>":1946,"二</w>":1947,"‰</w>":1948,"ῖ</w>":1949,"海</w>":1950,"√</w>":1951,"ˈ</w>":1952,"”</w>":1953,"無</w>":1954,"鬼</w>":1955,"̯</w>":1956,"川</w>":1957,"宝</w>":1958,"th":1959,"in":1960,"the</w>":1961,"er":1962,"an":1963,"on</w>":1964,"ar":1965,"re":1966,"st":1967,"at":1968,"ing</w>":1969,"it":1970,"er</w>":1971,"ro":1972,"or":1973,"of</w>":1974,"en":1975,"ed</w>":1976,"in</w>":1977,"al":1978,"and</w>":1979,"on":1980,"es</w>":1981,"ou":1982,"per":1983,"ac":1984,"il":1985,"son</w>":1986,"or</w>":1987,"to</w>":1988,"ic":1989,"person</w>":1990,"ho":1991,"ion</w>":1992,"de":1993,"an</w>":1994,"ra":1995,"at</w>":1996,"co":1997,"lo":1998,"is</w>":1999,"al</w>":2000,"le":2001,"as</w>":2002,"ch":2003,"ur":2004,"as":2005,"is":2006,"ig":2007,"un":2008,"le</w>":2009,"be":2010,"am":2011,"ir":2012,"to":2013,"se":2014,"wit":2015,"ag":2016,"with</w>":2017,"ri":2018,"en</w>":2019,"for</w>":2020,"im":2021,"wh":2022,"st</w>":2023,"lu":2024,"ts</w>":2025,"ation</w>":2026,"li":2027,"ne":2028,"sh":2029,"we":2030,"bo":2031,"ap":2032,"ad":2033,"po":2034,"ve</w>":2035,"mo":2036,"te":2037,"si":2038,"di":2039,"ly</w>":2040,"la":2041,"se</w>":2042,"ct":2043,"sp":2044,"bu":2045,"by</w>":2046,"con":2047,"str":2048,"ent</w>":2049,"ers</w>":2050,"ar</w>":2051,"me":2052,"it</w>":2053,"ay</w>":2054,"ti":2055,"su":2056,"all</w>":2057,"ve":2058,"ds</w>":2059,"ab":2060,"ol":2061,"oc":2062,"vi":2063,"fro":2064,"ding</w>":2065,"int":2066,"com":2067,"ak":2068,"the":2069,"el":2070,"qu":2071,"igh":2072,"no":2073,"do":2074,"pho":2075,"pro":2076,"au":2077,"ce</w>":2078,"was</w>":2079,"sc":2080,"20":2081,"ha":2082,"ss</w>":2083,"fe":2084,"ver":2085,"par":2086,"th</w>":2087,"oun":2088,"age</w>":2089,"for":2090,"that</w>":2091,"from</w>":2092,"ent":2093,"et</w>":2094,"pl":2095,"sig":2096,"ch</w>":2097,"illu":2098,"me</w>":2099,"ion":2100,"illustr":2101,"ph":2102,"wor":2103,"roo":2104,"ere</w>":2105,"car":2106,"ce":2107,"ing":2108,"illustration</w>":2109,"gra":2110,"de</w>":2111,"oo":2112,"ure</w>":2113,"ter</w>":2114,"ack":2115,"art</w>":2116,"tr":2117,"ate</w>":2118,"ic</w>":2119,"ver</w>":2120,"this</w>":2121,"col":2122,"ty</w>":2123,"ine</w>":2124,"ex":2125,"ite</w>":2126,"cu":2127,"one</w>":2128,"pre":2129,"pe":2130,"ity</w>":2131,"man</w>":2132,"gro":2133,"sho":2134,"fu":2135,"are</w>":2136,"desig":2137,"ock</w>":2138,"ack</w>":2139,"br":2140,"ir</w>":2141,"our</w>":2142,"ss":2143,"du":2144,"ree</w>":2145,"room</w>":2146,"stock</w>":2147,"he":2148,"day</w>":2149,"ge</w>":2150,"ated</w>":2151,"ther</w>":2152,"bl":2153,"19":2154,"ight</w>":2155,"so":2156,"tra":2157,"mu":2158,"201":2159,"ta":2160,"ad</w>":2161,"ld</w>":2162,"ff":2163,"mb":2164,"red</w>":2165,"ter":2166,"wn</w>":2167,"all":2168,"ace</w>":2169,"ies</w>":2170,"hou":2171,"photo":2172,"mar":2173,"pa":2174,"man":2175,"ma":2176,"pu":2177,"cre":2178,"ment</w>":2179,"gre":2180,"gu":2181,"out</w>":2182,"por":2183,"te</w>":2184,"und</w>":2185,"his</w>":2186,"ci":2187,"las":2188,"af":2189,"and":2190,"ru":2191,"back":2192,"ge":2193,"ation":2194,"yo":2195,"tu":2196,"ice</w>":2197,"design</w>":2198,"ple</w>":2199,"be</w>":2200,"ks</w>":2201,"dre":2202,"up</w>":2203,"av":2204,"white</w>":2205,"ting</w>":2206,"pla":2207,"ard</w>":2208,"pr":2209,"ke":2210,"cor":2211,"its</w>":2212,"ground</w>":2213,"king</w>":2214,"der":2215,"ant</w>":2216,"der</w>":2217,"ser":2218,"ood</w>":2219,"ame</w>":2220,"new</w>":2221,"he</w>":2222,"hi":2223,"dra":2224,"ke</w>":2225,"pic":2226,"able</w>":2227,"dis":2228,"you</w>":2229,"graph":2230,"ings</w>":2231,"ted</w>":2232,"photo</w>":2233,"ary</w>":2234,"mon":2235,"low":2236,"ake</w>":2237,"min":2238,"ive</w>":2239,"ill":2240,"ctor</w>":2241,"stor":2242,"wat":2243,"background</w>":2244,"our":2245,"ster</w>":2246,"ich</w>":2247,"ents</w>":2248,"ba":2249,"sty":2250,"go":2251,"les</w>":2252,"ll</w>":2253,"am</w>":2254,"house</w>":2255,"ong</w>":2256,"tim":2257,"ill</w>":2258,"vie":2259,"fir":2260,"ev":2261,"uring</w>":2262,"buil":2263,"mor":2264,"res</w>":2265,"tw":2266,"mi":2267,"ok</w>":2268,"ps</w>":2269,"ish</w>":2270,"wed":2271,"stu":2272,"ction</w>":2273,"ft</w>":2274,"ms</w>":2275,"ded</w>":2276,"free</w>":2277,"wo":2278,"ys</w>":2279,"shir":2280,"land</w>":2281,"ck</w>":2282,"ste":2283,"sk":2284,"den</w>":2285,"inter":2286,"ol</w>":2287,"old</w>":2288,"ving</w>":2289,"us":2290,"ach</w>":2291,"fi":2292,"which</w>":2293,"ful</w>":2294,"als</w>":2295,"out":2296,"ang":2297,"pp":2298,"ye":2299,"black</w>":2300,"ju":2301,"roy":2302,"so</w>":2303,"vector</w>":2304,"ons</w>":2305,"sa":2306,"her</w>":2307,"my</w>":2308,"je":2309,"wedding</w>":2310,"were</w>":2311,"ile</w>":2312,"ine":2313,"ast</w>":2314,"eng":2315,"mber</w>":2316,"ally</w>":2317,"ash":2318,"fin":2319,"fl":2320,"act":2321,"ct</w>":2322,"ll":2323,"spe":2324,"men</w>":2325,"home</w>":2326,"rou":2327,"gar":2328,"clo":2329,"photograph":2330,"ars</w>":2331,"ade</w>":2332,"int</w>":2333,"clu":2334,"ors</w>":2335,"gh</w>":2336,"ous</w>":2337,"sm":2338,"che":2339,"ren":2340,"your</w>":2341,"ran":2342,"ical</w>":2343,"gi":2344,"cent":2345,"shirt</w>":2346,"bi":2347,"wing</w>":2348,"world</w>":2349,"have</w>":2350,"two</w>":2351,"way</w>":2352,"side</w>":2353,"us</w>":2354,"view</w>":2355,"il</w>":2356,"ry</w>":2357,"pat":2358,"during</w>":2359,"go</w>":2360,"op":2361,"ide":2362,"um</w>":2363,"has</w>":2364,"shi":2365,"ence</w>":2366,"their</w>":2367,"first</w>":2368,"ist</w>":2369,"line</w>":2370,"not</w>":2371,"but</w>":2372,"char":2373,"gir":2374,"att":2375,"ale</w>":2376,"ning</w>":2377,"ian</w>":2378,"ws</w>":2379,"ns</w>":2380,"can":2381,"el</w>":2382,"pi":2383,"air":2384,"nu":2385,"off":2386,"ages</w>":2387,"anim":2388,"ture</w>":2389,"ele":2390,"ia</w>":2391,"style</w>":2392,"low</w>":2393,"other</w>":2394,"loc":2395,"bas":2396,"set</w>":2397,"had</w>":2398,"mat":2399,"nor":2400,"00</w>":2401,"lar":2402,"tt":2403,"aper</w>":2404,"sy":2405,"art":2406,"jo":2407,"alty</w>":2408,"after</w>":2409,"dit":2410,"blu":2411,"pos":2412,"image</w>":2413,"ans</w>":2414,"ations</w>":2415,"beau":2416,"sic</w>":2417,"wi":2418,"can</w>":2419,"war":2420,"ould</w>":2421,"ls</w>":2422,"coun":2423,"no</w>":2424,"time</w>":2425,"hu":2426,"loo":2427,"ying</w>":2428,"paper</w>":2429,"photography</w>":2430,"royalty</w>":2431,"ound</w>":2432,"comp":2433,"over</w>":2434,"fash":2435,"paint":2436,"tri":2437,"bri":2438,"bir":2439,"building</w>":2440,"city</w>":2441,"wall":2442,"ins</w>":2443,"id</w>":2444,"tat":2445,"pe</w>":2446,"ance</w>":2447,"clas":2448,"ast":2449,"mp":2450,"they</w>":2451,"ved</w>":2452,"stre":2453,"bro":2454,"fashion</w>":2455,"fo":2456,"top</w>":2457,"lit":2458,"tel</w>":2459,"tion</w>":2460,"comm":2461,"sou":2462,"ial</w>":2463,"amer":2464,"cro":2465,"tur":2466,"more</w>":2467,"atu":2468,"game</w>":2469,"blue</w>":2470,"into</w>":2471,"flow":2472,"carto":2473,"best</w>":2474,"vis":2475,"ating</w>":2476,"ideas</w>":2477,"win":2478,"ily</w>":2479,"fe</w>":2480,"wall</w>":2481,"ant":2482,"ble</w>":2483,"rit":2484,"bre":2485,"who</w>":2486,"cep":2487,"some</w>":2488,"dy</w>":2489,"cas":2490,"rist":2491,"ff</w>":2492,"ral</w>":2493,"ational</w>":2494,"dec":2495,"photos</w>":2496,"ber":2497,"mer</w>":2498,"end</w>":2499,"hotel</w>":2500,"cra":2501,"200":2502,"wal":2503,"ses</w>":2504,"ball</w>":2505,"ric":2506,"ck":2507,"made</w>":2508,"ink</w>":2509,"tatto":2510,"ish":2511,"ach":2512,"ior</w>":2513,"where</w>":2514,"also</w>":2515,"ear":2516,"cartoon</w>":2517,"fam":2518,"ner</w>":2519,"girl</w>":2520,"most</w>":2521,"bed</w>":2522,"aga":2523,"sur":2524,"ates</w>":2525,"colle":2526,"wa":2527,"ul":2528,"ned</w>":2529,"vel</w>":2530,"ron":2531,"about</w>":2532,"fil":2533,"scho":2534,"christ":2535,"when</w>":2536,"gen":2537,"gh":2538,"hel":2539,"tre":2540,"beauti":2541,"cl":2542,"sun":2543,"sto":2544,"any</w>":2545,"water</w>":2546,"images</w>":2547,"are":2548,"table</w>":2549,"iz":2550,"wood</w>":2551,"ative</w>":2552,"ens</w>":2553,"plan":2554,"air</w>":2555,"ves</w>":2556,"ort</w>":2557,"ick":2558,"ands</w>":2559,"work</w>":2560,"beautiful</w>":2561,"mas</w>":2562,"woman</w>":2563,"tes</w>":2564,"will</w>":2565,"now</w>":2566,"ween</w>":2567,"book</w>":2568,"itch":2569,"year</w>":2570,"lar</w>":2571,"ny</w>":2572,"don</w>":2573,"os</w>":2574,"tain</w>":2575,"play":2576,"20</w>":2577,"indi":2578,"da":2579,"cur":2580,"produ":2581,"chil":2582,"americ":2583,"been</w>":2584,"dress</w>":2585,"pen":2586,"dge</w>":2587,"fun":2588,"inclu":2589,"tro":2590,"car</w>":2591,"bur":2592,"est":2593,"vint":2594,"throu":2595,"vintage</w>":2596,"ni":2597,"very</w>":2598,"wer</w>":2599,"ate":2600,"ces</w>":2601,"sil":2602,"life</w>":2603,"how</w>":2604,"she</w>":2605,"igh</w>":2606,"back</w>":2607,"ship</w>":2608,"bet":2609,"we</w>":2610,"sim":2611,"beach</w>":2612,"sion</w>":2613,"xt</w>":2614,"stru":2615,"mer":2616,"ki":2617,"small</w>":2618,"movi":2619,"ions</w>":2620,"like</w>":2621,"arch":2622,"peo":2623,"fron":2624,"ics</w>":2625,"lon":2626,"love</w>":2627,"ining</w>":2628,"ise</w>":2629,"har":2630,"ton</w>":2631,"these</w>":2632,"people</w>":2633,"school</w>":2634,"tor":2635,"fri":2636,"christmas</w>":2637,"door</w>":2638,"flo":2639,"national</w>":2640,"make</w>":2641,"hand</w>":2642,"may</w>":2643,"ments</w>":2644,"cho":2645,"moder":2646,"mes</w>":2647,"cap":2648,"form":2649,"uni":2650,"bed":2651,"park</w>":2652,"story</w>":2653,"glas":2654,"high</w>":2655,"gr":2656,"gs</w>":2657,"kitch":2658,"hor":2659,"pri":2660,"mil":2661,"ited</w>":2662,"dar":2663,"tle</w>":2664,"mak":2665,"light</w>":2666,"bar":2667,"color</w>":2668,"ther":2669,"ite":2670,"ze</w>":2671,"ney</w>":2672,"wallpaper</w>":2673,"18":2674,"moun":2675,"10</w>":2676,"green</w>":2677,"amp":2678,"do</w>":2679,"cer":2680,"print</w>":2681,"face</w>":2682,"hol":2683,"front</w>":2684,"re</w>":2685,"garden</w>":2686,"thing</w>":2687,"there</w>":2688,"tru":2689,"painting</w>":2690,"thou":2691,"logo</w>":2692,"woo":2693,"hal":2694,"quo":2695,"boo":2696,"modern</w>":2697,"ater</w>":2698,"her":2699,"bus":2700,"app":2701,"ep":2702,"night</w>":2703,"long</w>":2704,"get</w>":2705,"while</w>":2706,"living</w>":2707,"tree</w>":2708,"through</w>":2709,"bor":2710,"drawing</w>":2711,"tures</w>":2712,"res":2713,"poster</w>":2714,"tem":2715,"ffe":2716,"tran":2717,"what</w>":2718,"tic</w>":2719,"ury</w>":2720,"asy</w>":2721,"food</w>":2722,"women</w>":2723,"ery</w>":2724,"ather</w>":2725,"sses</w>":2726,"three</w>":2727,"kitchen</w>":2728,"sum":2729,"ass":2730,"cts</w>":2731,"family</w>":2732,"ick</w>":2733,"pes</w>":2734,"youn":2735,"try</w>":2736,"den":2737,"dog</w>":2738,"sta":2739,"que</w>":2740,"only</w>":2741,"ty":2742,"lin":2743,"foo":2744,"many</w>":2745,"led</w>":2746,"stic</w>":2747,"pres":2748,"off</w>":2749,"act</w>":2750,"orig":2751,"des</w>":2752,"cau":2753,"ked</w>":2754,"ring</w>":2755,"ail":2756,"reci":2757,"patter":2758,"street</w>":2759,"concep":2760,"north</w>":2761,"ek</w>":2762,"part</w>":2763,"would</w>":2764,"lic</w>":2765,"decor":2766,"ligh":2767,"ape</w>":2768,"cou":2769,"ban":2770,"ames</w>":2771,"party</w>":2772,"fur":2773,"sea</w>":2774,"tal</w>":2775,"music</w>":2776,"log":2777,"fore</w>":2778,"team</w>":2779,"ten":2780,"than</w>":2781,"2019</w>":2782,"little</w>":2783,"pol":2784,"ature</w>":2785,"great</w>":2786,"located</w>":2787,"sing":2788,"pan":2789,"stri":2790,"used</w>":2791,"serv":2792,"road</w>":2793,"board</w>":2794,"cute</w>":2795,"sts</w>":2796,"young</w>":2797,"fore":2798,"ue</w>":2799,"less</w>":2800,"busine":2801,"land":2802,"large</w>":2803,"ious</w>":2804,"fol":2805,"place</w>":2806,"baby</w>":2807,"writ":2808,"tho":2809,"son":2810,"wil":2811,"ats</w>":2812,"mode":2813,"ities</w>":2814,"film</w>":2815,"ced</w>":2816,"around</w>":2817,"between</w>":2818,"cted</w>":2819,"et":2820,"bedroom</w>":2821,"cle":2822,"river</w>":2823,"ition</w>":2824,"sle":2825,"ten</w>":2826,"before</w>":2827,"vo":2828,"eld</w>":2829,"origin":2830,"port</w>":2831,"bal":2832,"under</w>":2833,"ason</w>":2834,"hair</w>":2835,"just</w>":2836,"val":2837,"fer":2838,"ca":2839,"american</w>":2840,"sal":2841,"down</w>":2842,"ven":2843,"tin":2844,"medi":2845,"insp":2846,"number</w>":2847,"tak":2848,"pictures</w>":2849,"ire</w>":2850,"ined</w>":2851,"fac":2852,"interior</w>":2853,"prin":2854,"area</w>":2855,"squ":2856,"ches</w>":2857,"space</w>":2858,"sit":2859,"inst</w>":2860,"against</w>":2861,"sup":2862,"dark</w>":2863,"charac":2864,"kids</w>":2865,"lan":2866,"cy":2867,"swe":2868,"cam":2869,"show</w>":2870,"concept</w>":2871,"cour":2872,"movie</w>":2873,"plac":2874,"sel":2875,"dent</w>":2876,"ster":2877,"london</w>":2878,"bra":2879,"head</w>":2880,"ssi":2881,"look</w>":2882,"chan":2883,"isol":2884,"ley</w>":2885,"stan":2886,"bath":2887,"cture</w>":2888,"ep</w>":2889,"diff":2890,"far":2891,"az":2892,"read":2893,"portra":2894,"sco":2895,"est</w>":2896,"acti":2897,"cake</w>":2898,"birth":2899,"let</w>":2900,"ory</w>":2901,"tattoo</w>":2902,"picture</w>":2903,"classic</w>":2904,"val</w>":2905,"cess</w>":2906,"secon":2907,"ket</w>":2908,"leas":2909,"mas":2910,"years</w>":2911,"kno":2912,"outf":2913,"decor</w>":2914,"south</w>":2915,"west</w>":2916,"pal":2917,"nam":2918,"cele":2919,"play</w>":2920,"near</w>":2921,"aring</w>":2922,"archite":2923,"funny</w>":2924,"isolated</w>":2925,"gold</w>":2926,"star</w>":2927,"season</w>":2928,"series</w>":2929,"vers":2930,"quotes</w>":2931,"birthday</w>":2932,"well</w>":2933,"pur":2934,"glass</w>":2935,"mis":2936,"fra":2937,"flowers</w>":2938,"good</w>":2939,"jun":2940,"them</w>":2941,"collection</w>":2942,"happ":2943,"ak</w>":2944,"cess":2945,"character</w>":2946,"soc":2947,"199":2948,"use</w>":2949,"summer</w>":2950,"nit":2951,"fic":2952,"heal":2953,"ore</w>":2954,"over":2955,"part":2956,"ling</w>":2957,"ket":2958,"ward</w>":2959,"ven</w>":2960,"proje":2961,"field</w>":2962,"right</w>":2963,"pink</w>":2964,"office</w>":2965,"animals</w>":2966,"dr":2967,"town</w>":2968,"gol":2969,"ber</w>":2970,"sted</w>":2971,"inter</w>":2972,"with":2973,"business</w>":2974,"designs</w>":2975,"dd":2976,"eu":2977,"high":2978,"if</w>":2979,"ital</w>":2980,"speci":2981,"being</w>":2982,"rel":2983,"premi":2984,"him</w>":2985,"phone</w>":2986,"ional</w>":2987,"es":2988,"ese</w>":2989,"gener":2990,"uary</w>":2991,"run":2992,"ger":2993,"scri":2994,"celebr":2995,"size</w>":2996,"ath</w>":2997,"sli":2998,"full</w>":2999,"sw":3000,"sub":3001,"beg":3002,"call":3003,"up":3004,"pattern</w>":3005,"looking</w>":3006,"sky</w>":3007,"ished</w>":3008,"comple":3009,"brit":3010,"form</w>":3011,"hoo":3012,"history</w>":3013,"hand":3014,"end":3015,"flower</w>":3016,"travel</w>":3017,"cars</w>":3018,"big</w>":3019,"landsc":3020,"cover</w>":3021,"jack":3022,"group</w>":3023,"coo":3024,"ger</w>":3025,"la</w>":3026,"each</w>":3027,"second</w>":3028,"key</w>":3029,"come</w>":3030,"state</w>":3031,"din":3032,"bathroom</w>":3033,"war</w>":3034,"disney</w>":3035,"dresses</w>":3036,"box</w>":3037,"dition</w>":3038,"sale</w>":3039,"craft</w>":3040,"ind</w>":3041,"fla":3042,"wn":3043,"offic":3044,"four</w>":3045,"original</w>":3046,"ey":3047,"floor</w>":3048,"sen":3049,"water":3050,"differ":3051,"united</w>":3052,"childre":3053,"tattoos</w>":3054,"vide":3055,"male</w>":3056,"winter</w>":3057,"appe":3058,"cir":3059,"ob":3060,"tit":3061,"recor":3062,"ina</w>":3063,"shop</w>":3064,"12</w>":3065,"text</w>":3066,"event</w>":3067,"var":3068,"velo":3069,"000</w>":3070,"boy</w>":3071,"cal":3072,"releas":3073,"ming</w>":3074,"0s</w>":3075,"dri":3076,"wel":3077,"gan":3078,"sh</w>":3079,"left</w>":3080,"fran":3081,"ght</w>":3082,"cat</w>":3083,"austr":3084,"jap":3085,"da</w>":3086,"happy</w>":3087,"star":3088,"sign</w>":3089,"lake</w>":3090,"self</w>":3091,"foot":3092,"austral":3093,"children</w>":3094,"ga":3095,"windo":3096,"both</w>":3097,"mag":3098,"custo":3099,"portrait</w>":3100,"fre":3101,"games</w>":3102,"dire":3103,"wooden</w>":3104,"scen":3105,"cle</w>":3106,"studi":3107,"ening</w>":3108,"costu":3109,"center</w>":3110,"came</w>":3111,"here</w>":3112,"2018</w>":3113,"ellow</w>":3114,"ma</w>":3115,"spor":3116,"beds</w>":3117,"heart</w>":3118,"apart":3119,"vill":3120,"color":3121,"sym":3122,"then</w>":3123,"adv":3124,"close</w>":3125,"later</w>":3126,"na":3127,"island</w>":3128,"co</w>":3129,"50</w>":3130,"ford</w>":3131,"dic":3132,"syste":3133,"ko":3134,"ph</w>":3135,"eg":3136,"lish</w>":3137,"scre":3138,"outdoor</w>":3139,"sive</w>":3140,"develo":3141,"qui":3142,"sed</w>":3143,"cy</w>":3144,"ker</w>":3145,"see</w>":3146,"holding</w>":3147,"ness</w>":3148,"wear</w>":3149,"tter":3150,"peri":3151,"cel":3152,"tter</w>":3153,"whe":3154,"fle":3155,"dro":3156,"pie":3157,"follow":3158,"iling</w>":3159,"inv":3160,"15</w>":3161,"she":3162,"3d</w>":3163,"recipes</w>":3164,"map</w>":3165,"ie":3166,"such</w>":3167,"atures</w>":3168,"architecture</w>":3169,"wards</w>":3170,"ben":3171,"30</w>":3172,"animal</w>":3173,"case</w>":3174,"eve</w>":3175,"med</w>":3176,"spo":3177,"along</w>":3178,"model</w>":3179,"ines</w>":3180,"under":3181,"styles</w>":3182,"sti":3183,"ga</w>":3184,"fts</w>":3185,"furnit":3186,"furniture</w>":3187,"take</w>":3188,"yellow</w>":3189,"easy</w>":3190,"cul":3191,"card</w>":3192,"tal":3193,"mbers</w>":3194,"11</w>":3195,"known</w>":3196,"2020</w>":3197,"iso":3198,"ered</w>":3199,"bag</w>":3200,"mill":3201,"ey</w>":3202,"popu":3203,"dig":3204,"wl</w>":3205,"body</w>":3206,"sters</w>":3207,"country</w>":3208,"last</w>":3209,"company</w>":3210,"cause</w>":3211,"pool</w>":3212,"avy</w>":3213,"next</w>":3214,"batt":3215,"though</w>":3216,"fire</w>":3217,"open</w>":3218,"rock</w>":3219,"ement</w>":3220,"sever":3221,"ffee</w>":3222,"main</w>":3223,"creative</w>":3224,"port":3225,"dents</w>":3226,"cast":3227,"resta":3228,"restaur":3229,"198":3230,"stra":3231,"bs</w>":3232,"onal</w>":3233,"ond</w>":3234,"forest</w>":3235,"leg":3236,"tting</w>":3237,"ssed</w>":3238,"cru":3239,"reg":3240,"emp":3241,"ets</w>":3242,"bridge</w>":3243,"ital":3244,"rench</w>":3245,"lux":3246,"cla":3247,"coffee</w>":3248,"icon</w>":3249,"shoes</w>":3250,"cli":3251,"another</w>":3252,"organ":3253,"pers</w>":3254,"early</w>":3255,"video</w>":3256,"including</w>":3257,"dol":3258,"perfe":3259,"prote":3260,"fig":3261,"using</w>":3262,"albu":3263,"ium</w>":3264,"sul":3265,"afric":3266,"club</w>":3267,"ain</w>":3268,"oper":3269,"fall</w>":3270,"tex":3271,"rooms</w>":3272,"feat":3273,"196":3274,"featuring</w>":3275,"hun":3276,"lead":3277,"stone</w>":3278,"elect":3279,"champ":3280,"io</w>":3281,"days</w>":3282,"some":3283,"vil":3284,"contin":3285,"inspir":3286,"sitting</w>":3287,"chur":3288,"ism</w>":3289,"sing</w>":3290,"em":3291,"lam":3292,"ide</w>":3293,"different</w>":3294,"simple</w>":3295,"yard</w>":3296,"wearing</w>":3297,"ath":3298,"indian</w>":3299,"british</w>":3300,"pped</w>":3301,"metal</w>":3302,"hon":3303,"ways</w>":3304,"ends</w>":3305,"197":3306,"cks</w>":3307,"cr":3308,"sci":3309,"lad":3310,"ne</w>":3311,"tan":3312,"ase</w>":3313,"plate</w>":3314,"cool</w>":3315,"symbo":3316,"march</w>":3317,"shel":3318,"england</w>":3319,"outfits</w>":3320,"band</w>":3321,"row</w>":3322,"holi":3323,"vision</w>":3324,"century</w>":3325,"develop":3326,"cab":3327,"logy</w>":3328,"nature</w>":3329,"sin":3330,"pping</w>":3331,"ette</w>":3332,"inst":3333,"mountain</w>":3334,"tains</w>":3335,"ditional</w>":3336,"fish</w>":3337,"hy":3338,"suc":3339,"stick":3340,"commun":3341,"sep":3342,"ric</w>":3343,"lim":3344,"ment":3345,"landscape</w>":3346,"ices</w>":3347,"sting</w>":3348,"bb":3349,"inside</w>":3350,"natu":3351,"french</w>":3352,"could</w>":3353,"girls</w>":3354,"consi":3355,"euro":3356,"find</w>":3357,"fit</w>":3358,"natural</w>":3359,"head":3360,"times</w>":3361,"bat":3362,"bar</w>":3363,"action</w>":3364,"break":3365,"ril</w>":3366,"mal":3367,"del":3368,"ality</w>":3369,"dan":3370,"sat":3371,"ean</w>":3372,"ones</w>":3373,"standing</w>":3374,"short</w>":3375,"system</w>":3376,"wings</w>":3377,"2017</w>":3378,"ils</w>":3379,"april</w>":3380,"site</w>":3381,"ual</w>":3382,"tail</w>":3383,"mother</w>":3384,"song</w>":3385,"pub":3386,"states</w>":3387,"fast</w>":3388,"na</w>":3389,"constru":3390,"flat</w>":3391,"ders</w>":3392,"25</w>":3393,"aves</w>":3394,"human</w>":3395,"restaurant</w>":3396,"els</w>":3397,"ler</w>":3398,"pet</w>":3399,"public</w>":3400,"que":3401,"trees</w>":3402,"blo":3403,"live</w>":3404,"ie</w>":3405,"ator</w>":3406,"tech":3407,"enti":3408,"spring</w>":3409,"ility</w>":3410,"episo":3411,"force</w>":3412,"pper</w>":3413,"muse":3414,"perfect</w>":3415,"my":3416,"mic":3417,"fant":3418,"several</w>":3419,"week</w>":3420,"16</w>":3421,"ap</w>":3422,"colors</w>":3423,"said</w>":3424,"because</w>":3425,"18</w>":3426,"same</w>":3427,"who":3428,"thy</w>":3429,"ed":3430,"cup</w>":3431,"leather</w>":3432,"bride</w>":3433,"graph</w>":3434,"cover":3435,"ised</w>":3436,"perfor":3437,"festi":3438,"provi":3439,"shot</w>":3440,"lear":3441,"rece":3442,"fantasy</w>":3443,"online</w>":3444,"album</w>":3445,"super":3446,"brown</w>":3447,"vic":3448,"dou":3449,"church</w>":3450,"ange</w>":3451,"silver</w>":3452,"royal</w>":3453,"new":3454,"13</w>":3455,"14</w>":3456,"tv</w>":3457,"every</w>":3458,"shows</w>":3459,"trans":3460,"milit":3461,"june</w>":3462,"india</w>":3463,"july</w>":3464,"boat</w>":3465,"did</w>":3466,"books</w>":3467,"zz":3468,"ii</w>":3469,"dings</w>":3470,"ering</w>":3471,"augu":3472,"10":3473,"gal":3474,"sket":3475,"indu":3476,"rac":3477,"found</w>":3478,"down":3479,"called</w>":3480,"jacket</w>":3481,"couple</w>":3482,"museum</w>":3483,"cer</w>":3484,"ters</w>":3485,"ca</w>":3486,"anci":3487,"plu":3488,"east</w>":3489,"resi":3490,"tro</w>":3491,"fun</w>":3492,"ssion</w>":3493,"tab":3494,"gover":3495,"sol":3496,"2016</w>":3497,"exam":3498,"univers":3499,"oul":3500,"name</w>":3501,"canad":3502,"lace</w>":3503,"thern</w>":3504,"plant</w>":3505,"jan":3506,"seen</w>":3507,"own</w>":3508,"194":3509,"premiere</w>":3510,"ici":3511,"football</w>":3512,"power</w>":3513,"still</w>":3514,"final</w>":3515,"ized</w>":3516,"arch</w>":3517,"half</w>":3518,"retur":3519,"bun":3520,"real</w>":3521,"point</w>":3522,"things</w>":3523,"ta</w>":3524,"five</w>":3525,"dining</w>":3526,"played</w>":3527,"ever":3528,"built</w>":3529,"apartment</w>":3530,"ali":3531,"nove":3532,"working</w>":3533,"bel":3534,"plan</w>":3535,"service</w>":3536,"akes</w>":3537,"child</w>":3538,"amaz":3539,"making</w>":3540,"ctive</w>":3541,"fru":3542,"mul":3543,"beauty</w>":3544,"vers</w>":3545,"playing</w>":3546,"station</w>":3547,"person":3548,"howe":3549,"dom</w>":3550,"however</w>":3551,"writing</w>":3552,"flag</w>":3553,"lands</w>":3554,"single</w>":3555,"octo":3556,"pical</w>":3557,"race</w>":3558,"vas</w>":3559,"smo":3560,"histor":3561,"fa":3562,"tren":3563,"lot</w>":3564,"hands</w>":3565,"military</w>":3566,"ired</w>":3567,"present":3568,"thir":3569,"ly":3570,"students</w>":3571,"ties</w>":3572,"festival</w>":3573,"news</w>":3574,"places</w>":3575,"gall":3576,"gift</w>":3577,"incre":3578,"tour</w>":3579,"contro":3580,"septe":3581,"tour":3582,"september</w>":3583,"govern":3584,"vin":3585,"tty</w>":3586,"cat":3587,"san</w>":3588,"silhou":3589,"test</w>":3590,"hind</w>":3591,"hallo":3592,"luxury</w>":3593,"rain":3594,"hot</w>":3595,"halloween</w>":3596,"cing</w>":3597,"showing</w>":3598,"mini":3599,"sun</w>":3600,"much</w>":3601,"spon":3602,"custom</w>":3603,"resort</w>":3604,"studio</w>":3605,"female</w>":3606,"ana</w>":3607,"moon</w>":3608,"acks</w>":3609,"17</w>":3610,"project</w>":3611,"horse</w>":3612,"suit</w>":3613,"fav":3614,"lines</w>":3615,"2015</w>":3616,"sports</w>":3617,"tar":3618,"des":3619,"ston</w>":3620,"activ":3621,"pil":3622,"tips</w>":3623,"lling</w>":3624,"square</w>":3625,"cott":3626,"following</w>":3627,"need</w>":3628,"grey</w>":3629,"ham":3630,"outside</w>":3631,"don":3632,"17":3633,"behind</w>":3634,"eds</w>":3635,"pra":3636,"gest</w>":3637,"dered</w>":3638,"english</w>":3639,"icle</w>":3640,"tions</w>":3641,"bird</w>":3642,"eting</w>":3643,"store</w>":3644,"canvas</w>":3645,"hair":3646,"work":3647,"bowl</w>":3648,"ships</w>":3649,"airs</w>":3650,"market</w>":3651,"army</w>":3652,"chocol":3653,"round</w>":3654,"orange</w>":3655,"stage</w>":3656,"became</w>":3657,"snow</w>":3658,"descri":3659,"episode</w>":3660,"gy</w>":3661,"holiday</w>":3662,"bay</w>":3663,"publ":3664,"ising</w>":3665,"window</w>":3666,"appro":3667,"list</w>":3668,"ching</w>":3669,"graphic</w>":3670,"maj":3671,"rings</w>":3672,"bott":3673,"clou":3674,"international</w>":3675,"phil":3676,"watch</w>":3677,"sau":3678,"lay":3679,"inese</w>":3680,"abo":3681,"since</w>":3682,"illed</w>":3683,"die</w>":3684,"recei":3685,"even</w>":3686,"ocean</w>":3687,"million</w>":3688,"glo":3689,"august</w>":3690,"tou":3691,"toge":3692,"sug":3693,"100</w>":3694,"joh":3695,"traditional</w>":3696,"anese</w>":3697,"chocolate</w>":3698,"til</w>":3699,"vely</w>":3700,"chinese</w>":3701,"together</w>":3702,"vol":3703,"cut</w>":3704,"ures</w>":3705,"wee":3706,"class</w>":3707,"im</w>":3708,"med":3709,"october</w>":3710,"ams</w>":3711,"plants</w>":3712,"presi":3713,"per</w>":3714,"bou":3715,"inf":3716,"golden</w>":3717,"kes</w>":3718,"sunset</w>":3719,"recipe</w>":3720,"24</w>":3721,"walk</w>":3722,"fire":3723,"di</w>":3724,"sn":3725,"piece</w>":3726,"sport</w>":3727,"until</w>":3728,"21</w>":3729,"ague</w>":3730,"comb":3731,"crit":3732,"earth</w>":3733,"australia</w>":3734,"works</w>":3735,"mach":3736,"based</w>":3737,"ef":3738,"match</w>":3739,"veh":3740,"dance</w>":3741,"quar":3742,"def":3743,"oil</w>":3744,"costume</w>":3745,"japanese</w>":3746,"acro":3747,"paint</w>":3748,"hall</w>":3749,"movies</w>":3750,"castle</w>":3751,"pas":3752,"sleeve</w>":3753,"uk</w>":3754,"ble":3755,"pt</w>":3756,"bow</w>":3757,"looks</w>":3758,"ags</w>":3759,"ago</w>":3760,"help</w>":3761,"ywood</w>":3762,"sticker</w>":3763,"chick":3764,"arri":3765,"chi":3766,"ham</w>":3767,"ishing</w>":3768,"flor":3769,"plans</w>":3770,"los</w>":3771,"photograph</w>":3772,"pass":3773,"effe":3774,"read</w>":3775,"ills</w>":3776,"anime</w>":3777,"retro</w>":3778,"itu":3779,"morning</w>":3780,"ever</w>":3781,"frame</w>":3782,"clothing</w>":3783,"195":3784,"2014</w>":3785,"cross</w>":3786,"mens</w>":3787,"artist</w>":3788,"hat</w>":3789,"shar":3790,"ctions</w>":3791,"resul":3792,"acters</w>":3793,"characters</w>":3794,"dogs</w>":3795,"player</w>":3796,"inspiration</w>":3797,"pow":3798,"foun":3799,"manag":3800,"november</w>":3801,"doors</w>":3802,"sy</w>":3803,"released</w>":3804,"hd</w>":3805,"ights</w>":3806,"slim</w>":3807,"coming</w>":3808,"stars</w>":3809,"men":3810,"sical</w>":3811,"dest":3812,"ot</w>":3813,"truck</w>":3814,"ato":3815,"ist":3816,"silhouette</w>":3817,"ended</w>":3818,"late</w>":3819,"memor":3820,"chair</w>":3821,"walking</w>":3822,"ready</w>":3823,"colorful</w>":3824,"ado":3825,"above</w>":3826,"drawings</w>":3827,"version</w>":3828,"took</w>":3829,"construction</w>":3830,"away</w>":3831,"angel":3832,"general</w>":3833,"healthy</w>":3834,"verse</w>":3835,"ails</w>":3836,"date</w>":3837,"actor</w>":3838,"having</w>":3839,"19</w>":3840,"abstr":3841,"16":3842,"drawn</w>":3843,"continu":3844,"avail":3845,"stry</w>":3846,"bul":3847,"enjo":3848,"ants</w>":3849,"every":3850,"wester":3851,"special</w>":3852,"january</w>":3853,"cream</w>":3854,"grand</w>":3855,"ddle</w>":3856,"lies</w>":3857,"without</w>":3858,"moti":3859,"digital</w>":3860,"those</w>":3861,"word</w>":3862,"scul":3863,"university</w>":3864,"llywood</w>":3865,"mou":3866,"ths</w>":3867,"arts</w>":3868,"issu":3869,"fied</w>":3870,"dece":3871,"fres":3872,"features</w>":3873,"sam":3874,"cil</w>":3875,"covered</w>":3876,"dist":3877,"bran":3878,"22</w>":3879,"homes</w>":3880,"ories</w>":3881,"abstract</w>":3882,"ancient</w>":3883,"gallery</w>":3884,"mp</w>":3885,"guide</w>":3886,"diam":3887,"mon</w>":3888,"change</w>":3889,"few</w>":3890,"cent</w>":3891,"create</w>":3892,"popular</w>":3893,"ay":3894,"cakes</w>":3895,"od":3896,"drag":3897,"police</w>":3898,"tele":3899,"compu":3900,"shoul":3901,"lights</w>":3902,"available</w>":3903,"league</w>":3904,"vert":3905,"vac":3906,"cere":3907,"stand</w>":3908,"comic</w>":3909,"ror</w>":3910,"press</w>":3911,"although</w>":3912,"ka</w>":3913,"ign</w>":3914,"search</w>":3915,"guit":3916,"motor":3917,"position</w>":3918,"dam":3919,"tempor":3920,"fresh</w>":3921,"central</w>":3922,"taken</w>":3923,"local</w>":3924,"unique</w>":3925,"aircraft</w>":3926,"exter":3927,"farm</w>":3928,"fit":3929,"anti":3930,"lls</w>":3931,"van":3932,"training</w>":3933,"victor":3934,"held</w>":3935,"febr":3936,"camer":3937,"february</w>":3938,"america</w>":3939,"today</w>":3940,"tropical</w>":3941,"amazing</w>":3942,"lor":3943,"cast</w>":3944,"december</w>":3945,"dream</w>":3946,"third</w>":3947,"across</w>":3948,"western</w>":3949,"members</w>":3950,"spec":3951,"pack":3952,"40</w>":3953,"jour":3954,"ols</w>":3955,"began</w>":3956,"ples</w>":3957,"auth":3958,"conne":3959,"home":3960,"remo":3961,"posed</w>":3962,"ads</w>":3963,"tured</w>":3964,"tain":3965,"rema":3966,"science</w>":3967,"iety</w>":3968,"deli":3969,"order</w>":3970,"tum":3971,"purple</w>":3972,"laun":3973,"due</w>":3974,"ze":3975,"mob":3976,"thers</w>":3977,"never</w>":3978,"compe":3979,"concer":3980,"six</w>":3981,"performan":3982,"china</w>":3983,"formed</w>":3984,"symbol</w>":3985,"lay</w>":3986,"2013</w>":3987,"sculp":3988,"ged</w>":3989,"appear":3990,"navy</w>":3991,"roun":3992,"county</w>":3993,"yor":3994,"hill</w>":3995,"make":3996,"tun":3997,"post</w>":3998,"wide</w>":3999,"ately</w>":4000,"wild</w>":4001,"chang":4002,"chicken</w>":4003,"iting</w>":4004,"know</w>":4005,"id":4006,"pair</w>":4007,"glasses</w>":4008,"bike</w>":4009,"soft</w>":4010,"scene</w>":4011,"mir":4012,"atest</w>":4013,"nails</w>":4014,"arti":4015,"should</w>":4016,"lution</w>":4017,"file</w>":4018,"tower</w>":4019,"coat</w>":4020,"battle</w>":4021,"houses</w>":4022,"fel":4023,"emb":4024,"tly</w>":4025,"ards</w>":4026,"coast</w>":4027,"stric":4028,"eye</w>":4029,"designed</w>":4030,"spar":4031,"mac":4032,"23</w>":4033,"progra":4034,"ville</w>":4035,"major</w>":4036,"fly</w>":4037,"painted</w>":4038,"beli":4039,"sions</w>":4040,"roman":4041,"jewel":4042,"lea":4043,"village</w>":4044,"tial</w>":4045,"access":4046,"father</w>":4047,"figh":4048,"til":4049,"ry":4050,"train</w>":4051,"title</w>":4052,"russi":4053,"awards</w>":4054,"maga":4055,"lap":4056,"2012</w>":4057,"193":4058,"angeles</w>":4059,"magaz":4060,"ints</w>":4061,"won</w>":4062,"posters</w>":4063,"too</w>":4064,"middle</w>":4065,"rs</w>":4066,"ners</w>":4067,"nal</w>":4068,"ful":4069,"bloo":4070,"master</w>":4071,"ched</w>":4072,"within</w>":4073,"champion":4074,"oned</w>":4075,"ann":4076,"mountains</w>":4077,"base</w>":4078,"mad":4079,"xic":4080,"deta":4081,"sday</w>":4082,"served</w>":4083,"bak":4084,"born</w>":4085,"ax":4086,"government</w>":4087,"spi":4088,"edu":4089,"track</w>":4090,"breakfast</w>":4091,"mater":4092,"oring</w>":4093,"health</w>":4094,"comics</w>":4095,"production</w>":4096,"ssing</w>":4097,"plo":4098,"care</w>":4099,"wine</w>":4100,"sele":4101,"super</w>":4102,"running</w>":4103,"draw</w>":4104,"going</w>":4105,"dence</w>":4106,"temporary</w>":4107,"polit":4108,"sand":4109,"african</w>":4110,"storm</w>":4111,"han":4112,"want</w>":4113,"jewelry</w>":4114,"sequ":4115,"28</w>":4116,"stron":4117,"page</w>":4118,"ef</w>":4119,"zo":4120,"hib":4121,"shoulder</w>":4122,"college</w>":4123,"screen</w>":4124,"king":4125,"papers</w>":4126,"mix":4127,"27</w>":4128,"german</w>":4129,"toys</w>":4130,"shower</w>":4131,"gy":4132,"fort</w>":4133,"formation</w>":4134,"princess</w>":4135,"sof":4136,"apple</w>":4137,"ban</w>":4138,"respon":4139,"leaves</w>":4140,"former</w>":4141,"alls</w>":4142,"ade":4143,"run</w>":4144,"swim":4145,"friends</w>":4146,"educ":4147,"pack</w>":4148,"od</w>":4149,"bear</w>":4150,"put</w>":4151,"ceremon":4152,"aster</w>":4153,"community</w>":4154,"gas</w>":4155,"secre":4156,"sl":4157,"dy":4158,"ges</w>":4159,"15":4160,"nail</w>":4161,"among</w>":4162,"accor":4163,"fab":4164,"ra</w>":4165,"sch":4166,"crafts</w>":4167,"mexic":4168,"quality</w>":4169,"president</w>":4170,"inspired</w>":4171,"future</w>":4172,"ened</w>":4173,"views</w>":4174,"ference</w>":4175,"nur":4176,"boys</w>":4177,"queen</w>":4178,"profe":4179,"vir":4180,"range</w>":4181,"exterior</w>":4182,"vege":4183,"contain</w>":4184,"gray</w>":4185,"bright</w>":4186,"inted</w>":4187,"vil</w>":4188,"fic</w>":4189,"pun":4190,"buildings</w>":4191,"experi":4192,"fair":4193,"canada</w>":4194,"iphone</w>":4195,"care":4196,"geo":4197,"reading</w>":4198,"gn":4199,"fruit</w>":4200,"ington</w>":4201,"26</w>":4202,"birds</w>":4203,"once</w>":4204,"cand":4205,"spir":4206,"rain</w>":4207,"type</w>":4208,"buy</w>":4209,"inn</w>":4210,"ba</w>":4211,"valley</w>":4212,"sweet</w>":4213,"figure</w>":4214,"hang":4215,"france</w>":4216,"ow":4217,"afe</w>":4218,"libr":4219,"court</w>":4220,"statu":4221,"ron</w>":4222,"comes</w>":4223,"hood</w>":4224,"ai</w>":4225,"brid":4226,"paris</w>":4227,"pop</w>":4228,"watercolor</w>":4229,"pretty</w>":4230,"hairstyles</w>":4231,"bottle</w>":4232,"hollywood</w>":4233,"money</w>":4234,"neck":4235,"marvel</w>":4236,"computer</w>":4237,"cop":4238,"berry</w>":4239,"lost</w>":4240,"projects</w>":4241,"included</w>":4242,"2011</w>":4243,"stad":4244,"tea</w>":4245,"support</w>":4246,"development</w>":4247,"boots</w>":4248,"species</w>":4249,"supp":4250,"named</w>":4251,"met</w>":4252,"augh":4253,"death</w>":4254,"magazine</w>":4255,"alter":4256,"proper":4257,"tee</w>":4258,"pract":4259,"hard</w>":4260,"steel</w>":4261,"seam":4262,"machine</w>":4263,"posit":4264,"2010</w>":4265,"walls</w>":4266,"mobile</w>":4267,"now":4268,"brand</w>":4269,"import":4270,"minu":4271,"ut</w>":4272,"goo":4273,"idea</w>":4274,"camera</w>":4275,"sible</w>":4276,"icles</w>":4277,"nel</w>":4278,"paintings</w>":4279,"ences</w>":4280,"net":4281,"gan</w>":4282,"curren":4283,"start</w>":4284,"famous</w>":4285,"players</w>":4286,"radi":4287,"ials</w>":4288,"butter":4289,"step</w>":4290,"ped</w>":4291,"wars</w>":4292,"centre</w>":4293,"ception</w>":4294,"prepar":4295,"received</w>":4296,"elements</w>":4297,"quest":4298,"ached</w>":4299,"ky</w>":4300,"level</w>":4301,"example</w>":4302,"ati":4303,"of":4304,"japan</w>":4305,"gard":4306,"29</w>":4307,"gam":4308,"theat":4309,"storage</w>":4310,"dead</w>":4311,"shor":4312,"mel":4313,"exten":4314,"does</w>":4315,"inde":4316,"win</w>":4317,"toy</w>":4318,"doc":4319,"created</w>":4320,"inten":4321,"lation</w>":4322,"floral</w>":4323,"60</w>":4324,"events</w>":4325,"sketch</w>":4326,"placed</w>":4327,"ton":4328,"nov":4329,"ently</w>":4330,"clim":4331,"friend</w>":4332,"shap":4333,"double</w>":4334,"than":4335,"media</w>":4336,"see":4337,"bud":4338,"record</w>":4339,"performance</w>":4340,"init":4341,"mc":4342,"drin":4343,"carri":4344,"taking</w>":4345,"dragon</w>":4346,"rise</w>":4347,"again</w>":4348,"letter</w>":4349,"give</w>":4350,"gun":4351,"gor":4352,"thu":4353,"advent":4354,"outfit</w>":4355,"ging</w>":4356,"tables</w>":4357,"fact":4358,"ceremony</w>":4359,"shape</w>":4360,"mini</w>":4361,"won":4362,"hoodie</w>":4363,"lat":4364,"crow":4365,"diy</w>":4366,"wr":4367,"tation</w>":4368,"net</w>":4369,"check</w>":4370,"daugh":4371,"according</w>":4372,"save</w>":4373,"simil":4374,"member</w>":4375,"zed</w>":4376,"ous":4377,"display</w>":4378,"chic":4379,"contemporary</w>":4380,"temp":4381,"ination</w>":4382,"official</w>":4383,"kore":4384,"seamless</w>":4385,"visit</w>":4386,"stadium</w>":4387,"oci":4388,"motorcy":4389,"allow":4390,"marri":4391,"mic</w>":4392,"associ":4393,"italy</w>":4394,"roof</w>":4395,"medium</w>":4396,"aning</w>":4397,"keep</w>":4398,"grass</w>":4399,"patterns</w>":4400,"yer</w>":4401,"eyes</w>":4402,"wallpapers</w>":4403,"better</w>":4404,"ica</w>":4405,"expe":4406,"13":4407,"tom</w>":4408,"costumes</w>":4409,"build</w>":4410,"ess":4411,"free":4412,"written</w>":4413,"temple</w>":4414,"km</w>":4415,"fully</w>":4416,"artwork</w>":4417,"guitar</w>":4418,"satur":4419,"bus</w>":4420,"month</w>":4421,"serve</w>":4422,"equi":4423,"spac":4424,"europe</w>":4425,"decoration</w>":4426,"theme</w>":4427,"leng":4428,"hur":4429,"library</w>":4430,"tor</w>":4431,"award</w>":4432,"lion</w>":4433,"blan":4434,"student</w>":4435,"wre":4436,"14":4437,"ram</w>":4438,"ash</w>":4439,"favor":4440,"wol":4441,"swimming</w>":4442,"pics</w>":4443,"release</w>":4444,"priv":4445,"farm":4446,"become</w>":4447,"aw":4448,"carpet</w>":4449,"cock":4450,"techno":4451,"auto":4452,"weight</w>":4453,"social</w>":4454,"zy</w>":4455,"via</w>":4456,"cont":4457,"control</w>":4458,"aci":4459,"iron</w>":4460,"evening</w>":4461,"ization</w>":4462,"autum":4463,"usa</w>":4464,"mit":4465,"dru":4466,"flying</w>":4467,"makeup</w>":4468,"makes</w>":4469,"ata</w>":4470,"dess":4471,"gardens</w>":4472,"colo":4473,"circle</w>":4474,"aged</w>":4475,"sour":4476,"foc":4477,"camp":4478,"aching</w>":4479,"diag":4480,"active</w>":4481,"australian</w>":4482,"ental</w>":4483,"tt</w>":4484,"clear</w>":4485,"basket":4486,"lou":4487,"annu":4488,"hen":4489,"instru":4490,"aving</w>":4491,"present</w>":4492,"phy</w>":4493,"gle</w>":4494,"box":4495,"oes</w>":4496,"repor":4497,"sa</w>":4498,"review</w>":4499,"often</w>":4500,"backyard</w>":4501,"skir":4502,"basketball</w>":4503,"cket</w>":4504,"products</w>":4505,"ically</w>":4506,"2009</w>":4507,"autumn</w>":4508,"lighting</w>":4509,"mi</w>":4510,"product</w>":4511,"cup":4512,"alist</w>":4513,"sne":4514,"section</w>":4515,"bon":4516,"skin</w>":4517,"rail":4518,"activities</w>":4519,"san":4520,"esc":4521,"altern":4522,"desk</w>":4523,"africa</w>":4524,"thes</w>":4525,"accessories</w>":4526,"iled</w>":4527,"route</w>":4528,"cin":4529,"pose</w>":4530,"desser":4531,"dish</w>":4532,"show":4533,"ention</w>":4534,"complete</w>":4535,"labe":4536,"jer":4537,"success":4538,"patio</w>":4539,"diamond</w>":4540,"sand</w>":4541,"alle":4542,"usu":4543,"various</w>":4544,"lau":4545,"groun":4546,"windows</w>":4547,"research</w>":4548,"cards</w>":4549,"john</w>":4550,"fine</w>":4551,"trave":4552,"nar":4553,"bags</w>":4554,"york</w>":4555,"surroun":4556,"words</w>":4557,"phy":4558,"exhib":4559,"dering</w>":4560,"envi":4561,"trucks</w>":4562,"role</w>":4563,"mask</w>":4564,"bread</w>":4565,"hero</w>":4566,"past</w>":4567,"met":4568,"minim":4569,"shirts</w>":4570,"germany</w>":4571,"distric":4572,"announ":4573,"2008</w>":4574,"ken</w>":4575,"kingdom</w>":4576,"got</w>":4577,"southern</w>":4578,"lady</w>":4579,"week":4580,"eleg":4581,"neck</w>":4582,"previ":4583,"load</w>":4584,"sis</w>":4585,"division</w>":4586,"clothes</w>":4587,"fabric</w>":4588,"mug</w>":4589,"ith</w>":4590,"gri":4591,"intro":4592,"kin":4593,"prints</w>":4594,"coloring</w>":4595,"aster":4596,"opening</w>":4597,"feet</w>":4598,"gran":4599,"00":4600,"environ":4601,"deser":4602,"ac</w>":4603,"bal</w>":4604,"cting</w>":4605,"surface</w>":4606,"gifts</w>":4607,"fr":4608,"near":4609,"learn</w>":4610,"rainbow</w>":4611,"italian</w>":4612,"wan":4613,"lun":4614,"maid</w>":4615,"bour":4616,"mur":4617,"gradu":4618,"friday</w>":4619,"emer":4620,"trail</w>":4621,"parts</w>":4622,"enter":4623,"cycl":4624,"necklace</w>":4625,"pupp":4626,"chap":4627,"gue</w>":4628,"lord</w>":4629,"chicago</w>":4630,"common</w>":4631,"friend":4632,"introdu":4633,"matic</w>":4634,"angle</w>":4635,"period</w>":4636,"80</w>":4637,"hosp":4638,"signed</w>":4639,"tch</w>":4640,"medical</w>":4641,"plat":4642,"kets</w>":4643,"ously</w>":4644,"dry</w>":4645,"palace</w>":4646,"ya</w>":4647,"easter</w>":4648,"magic</w>":4649,"private</w>":4650,"tie</w>":4651,"heavy</w>":4652,"web":4653,"edition</w>":4654,"sure</w>":4655,"strong</w>":4656,"vement</w>":4657,"asse":4658,"airport</w>":4659,"cis":4660,"daughter</w>":4661,"sculpture</w>":4662,"guest</w>":4663,"bab":4664,"always</w>":4665,"proble":4666,"ult</w>":4667,"smiling</w>":4668,"must</w>":4669,"brick</w>":4670,"statue</w>":4671,"fan":4672,"theatre</w>":4673,"circu":4674,"career</w>":4675,"pot</w>":4676,"gl":4677,"shire</w>":4678,"chairs</w>":4679,"install":4680,"rang":4681,"tra</w>":4682,"really</w>":4683,"europe":4684,"wra":4685,"base":4686,"saw</w>":4687,"seven</w>":4688,"ades</w>":4689,"const":4690,"championship</w>":4691,"ener":4692,"mess":4693,"template</w>":4694,"antique</w>":4695,"refle":4696,"rest</w>":4697,"sky":4698,"electric</w>":4699,"reception</w>":4700,"actu":4701,"wind</w>":4702,"obje":4703,"industri":4704,"snow":4705,"tile</w>":4706,"colu":4707,"annual</w>":4708,"sunday</w>":4709,"sneak":4710,"ib":4711,"ceiling</w>":4712,"songs</w>":4713,"numbers</w>":4714,"reve":4715,"anta</w>":4716,"added</w>":4717,"giving</w>":4718,"fishing</w>":4719,"signs</w>":4720,"sku":4721,"professi":4722,"attr":4723,"attemp":4724,"engine</w>":4725,"advert":4726,"any":4727,"length</w>":4728,"northern</w>":4729,"appar":4730,"acade":4731,"stand":4732,"upon</w>":4733,"important</w>":4734,"says</w>":4735,"span":4736,"tive</w>":4737,"european</w>":4738,"au</w>":4739,"plane</w>":4740,"given</w>":4741,"regu":4742,"latest</w>":4743,"pit":4744,"plus</w>":4745,"adow</w>":4746,"dit</w>":4747,"wns</w>":4748,"yed</w>":4749,"cial</w>":4750,"illustrations</w>":4751,"commer":4752,"asian</w>":4753,"impro":4754,"ino</w>":4755,"lead</w>":4756,"law</w>":4757,"district</w>":4758,"eping</w>":4759,"went</w>":4760,"arm":4761,"forces</w>":4762,"largest</w>":4763,"seas":4764,"metri":4765,"va</w>":4766,"rustic</w>":4767,"hab":4768,"begin":4769,"wro":4770,"oly":4771,"favorite</w>":4772,"casual</w>":4773,"docu":4774,"saturday</w>":4775,"aer":4776,"bot":4777,"ghou":4778,"fif":4779,"plastic</w>":4780,"ray</w>":4781,"cti":4782,"suit":4783,"inte":4784,"jeans</w>":4785,"xim":4786,"lego</w>":4787,"takes</w>":4788,"wife</w>":4789,"deep</w>":4790,"add</w>":4791,"class":4792,"gate</w>":4793,"survi":4794,"services</w>":4795,"campa":4796,"cook":4797,"dinner</w>":4798,"2007</w>":4799,"engine":4800,"flight</w>":4801,"education</w>":4802,"wood":4803,"wrote</w>":4804,"greeting</w>":4805,"technology</w>":4806,"ena</w>":4807,"ano</w>":4808,"think</w>":4809,"marine</w>":4810,"staf":4811,"audi":4812,"lo</w>":4813,"baseball</w>":4814,"mary</w>":4815,"mm</w>":4816,"sche":4817,"fan</w>":4818,"stead</w>":4819,"ner":4820,"soldi":4821,"golf</w>":4822,"poses</w>":4823,"leading</w>":4824,"sse":4825,"aly":4826,"includes</w>":4827,"represent":4828,"foot</w>":4829,"ha</w>":4830,"decorations</w>":4831,"similar</w>":4832,"ei":4833,"eas":4834,"claim":4835,"mid</w>":4836,"speak":4837,"meas":4838,"drop</w>":4839,"kar":4840,"types</w>":4841,"ghout</w>":4842,"kin</w>":4843,"throughout</w>":4844,"metric</w>":4845,"egy":4846,"vehicle</w>":4847,"course</w>":4848,"described</w>":4849,"grounds</w>":4850,"aging</w>":4851,"inger</w>":4852,"mid":4853,"include</w>":4854,"rome</w>":4855,"you":4856,"ken":4857,"highway</w>":4858,"expl":4859,"willi":4860,"mun":4861,"deci":4862,"emplo":4863,"texture</w>":4864,"mark</w>":4865,"graphy</w>":4866,"hold</w>":4867,"shed</w>":4868,"structure</w>":4869,"study</w>":4870,"cri":4871,"eat</w>":4872,"ama</w>":4873,"entry</w>":4874,"whole</w>":4875,"property</w>":4876,"thought</w>":4877,"estab":4878,"total</w>":4879,"desp":4880,"actre":4881,"avi":4882,"corpor":4883,"shopping</w>":4884,"gear</w>":4885,"cats</w>":4886,"photographer</w>":4887,"ased</w>":4888,"colour</w>":4889,"aps</w>":4890,"entran":4891,"coron":4892,"bio":4893,"areas</w>":4894,"villa</w>":4895,"decorating</w>":4896,"pants</w>":4897,"relig":4898,"cheese</w>":4899,"ctors</w>":4900,"him":4901,"chester</w>":4902,"sta</w>":4903,"television</w>":4904,"further</w>":4905,"31</w>":4906,"break</w>":4907,"bridal</w>":4908,"lin</w>":4909,"designer</w>":4910,"astern</w>":4911,"vacation</w>":4912,"bank</w>":4913,"elegant</w>":4914,"pieces</w>":4915,"sia</w>":4916,"meeting</w>":4917,"stay</w>":4918,"energy</w>":4919,"hard":4920,"web</w>":4921,"trip</w>":4922,"ox":4923,"dor":4924,"aded</w>":4925,"kn":4926,"clouds</w>":4927,"far</w>":4928,"corner</w>":4929,"ballo":4930,"memes</w>":4931,"hanging</w>":4932,"batman</w>":4933,"months</w>":4934,"beer</w>":4935,"experience</w>":4936,"tiny</w>":4937,"urban</w>":4938,"kind</w>":4939,"simp":4940,"sugar</w>":4941,"apartments</w>":4942,"deck</w>":4943,"nific":4944,"by":4945,"ku":4946,"mart":4947,"chall":4948,"thetic</w>":4949,"laptop</w>":4950,"ng</w>":4951,"why</w>":4952,"wheel</w>":4953,"planet</w>":4954,"teen</w>":4955,"cit":4956,"roll</w>":4957,"unit</w>":4958,"cold</w>":4959,"points</w>":4960,"fans</w>":4961,"drive</w>":4962,"life":4963,"budget</w>":4964,"defen":4965,"iss</w>":4966,"brac":4967,"wers</w>":4968,"icu":4969,"stands</w>":4970,"colon":4971,"influ":4972,"nament</w>":4973,"190":4974,"landscap":4975,"process</w>":4976,"lied</w>":4977,"models</w>":4978,"flu":4979,"ane</w>":4980,"fox</w>":4981,"eved</w>":4982,"geor":4983,"cosp":4984,"edit":4985,"pus</w>":4986,"slo":4987,"greek</w>":4988,"wash":4989,"may":4990,"forms</w>":4991,"ability</w>":4992,"tank</w>":4993,"inve":4994,"era</w>":4995,"culture</w>":4996,"ption</w>":4997,"information</w>":4998,"cosplay</w>":4999,"inch</w>":5000,"stop</w>":5001,"cafe</w>":5002,"entrance</w>":5003,"imp":5004,"union</w>":5005,"crew</w>":5006,"ka":5007,"cm</w>":5008,"za</w>":5009,"cottage</w>":5010,"something</w>":5011,"quil":5012,"enjoy</w>":5013,"requi":5014,"hum":5015,"manu":5016,"pression</w>":5017,"ecu":5018,"success</w>":5019,"invol":5020,"1st</w>":5021,"details</w>":5022,"compan":5023,"shown</w>":5024,"bby</w>":5025,"plic":5026,"galax":5027,"pon":5028,"non</w>":5029,"ala</w>":5030,"sold</w>":5031,"attack</w>":5032,"skull</w>":5033,"warm</w>":5034,"captain</w>":5035,"bad":5036,"sound</w>":5037,"ja":5038,"yoga</w>":5039,"four":5040,"ultim":5041,"arm</w>":5042,"considered</w>":5043,"staff</w>":5044,"bble</w>":5045,"eag":5046,"return</w>":5047,"icons</w>":5048,"aches</w>":5049,"hi</w>":5050,"crete</w>":5051,"dun":5052,"gel</w>":5053,"senior</w>":5054,"quote</w>":5055,"desert</w>":5056,"gets</w>":5057,"illing</w>":5058,"lid</w>":5059,"bes</w>":5060,"lower</w>":5061,"lled</w>":5062,"suff":5063,"exer":5064,"continued</w>":5065,"limited</w>":5066,"mission</w>":5067,"plays</w>":5068,"job</w>":5069,"bad</w>":5070,"tters</w>":5071,"bles</w>":5072,"lt</w>":5073,"comman":5074,"micro":5075,"estate</w>":5076,"cooking</w>":5077,"sets</w>":5078,"region</w>":5079,"choo":5080,"program</w>":5081,"spa</w>":5082,"price</w>":5083,"director</w>":5084,"soccer</w>":5085,"finished</w>":5086,"concert</w>":5087,"ts":5088,"downtown</w>":5089,"thro":5090,"attle</w>":5091,"possible</w>":5092,"separ":5093,"listed</w>":5094,"2006</w>":5095,"mb</w>":5096,"cher":5097,"relation":5098,"leaf</w>":5099,"actors</w>":5100,"green":5101,"filled</w>":5102,"musc":5103,"nice</w>":5104,"shu":5105,"em</w>":5106,"ris":5107,"turn</w>":5108,"despite</w>":5109,"burg</w>":5110,"prince</w>":5111,"lash</w>":5112,"chain</w>":5113,"almost</w>":5114,"ries</w>":5115,"location</w>":5116,"professional</w>":5117,"tribu":5118,"adventure</w>":5119,"defin":5120,"ky":5121,"promo":5122,"hit</w>":5123,"stuff</w>":5124,"compar":5125,"agu":5126,"hospital</w>":5127,"eleph":5128,"reco":5129,"tig":5130,"colored</w>":5131,"chie":5132,"mouth</w>":5133,"getting</w>":5134,"van</w>":5135,"defe":5136,"invit":5137,"groom</w>":5138,"ids</w>":5139,"nic":5140,"horses</w>":5141,"islands</w>":5142,"skirt</w>":5143,"campaign</w>":5144,"acy</w>":5145,"call</w>":5146,"produced</w>":5147,"industrial</w>":5148,"result</w>":5149,"fireplace</w>":5150,"multi":5151,"west":5152,"colour":5153,"termin":5154,"exper":5155,"featu":5156,"path</w>":5157,"roman</w>":5158,"ators</w>":5159,"nav":5160,"mixed</w>":5161,"safe":5162,"barn</w>":5163,"chart</w>":5164,"sweater</w>":5165,"bert</w>":5166,"logical</w>":5167,"delic":5168,"cap</w>":5169,"displayed</w>":5170,"cles</w>":5171,"tiles</w>":5172,"below</w>":5173,"200</w>":5174,"gun</w>":5175,"vehicles</w>":5176,"towards</w>":5177,"others</w>":5178,"500</w>":5179,"drink</w>":5180,"langu":5181,"bron":5182,"dney</w>":5183,"ented</w>":5184,"tutor":5185,"meal</w>":5186,"featured</w>":5187,"png</w>":5188,"aes":5189,"engag":5190,"icks</w>":5191,"cookies</w>":5192,"pment</w>":5193,"racing</w>":5194,"courte":5195,"wild":5196,"valent":5197,"musical</w>":5198,"broad":5199,"historic</w>":5200,"ially</w>":5201,"moved</w>":5202,"sneakers</w>":5203,"partici":5204,"phili":5205,"scar":5206,"farmhouse</w>":5207,"started</w>":5208,"dr</w>":5209,"palm</w>":5210,"gave</w>":5211,"business":5212,"rought</w>":5213,"well":5214,"tries</w>":5215,"instead</w>":5216,"session</w>":5217,"russian</w>":5218,"edge</w>":5219,"pencil</w>":5220,"block</w>":5221,"mirror</w>":5222,"watches</w>":5223,"winning</w>":5224,"feder":5225,"courtesy</w>":5226,"rat":5227,"sen</w>":5228,"fon":5229,"crown</w>":5230,"tional</w>":5231,"cotton</w>":5232,"eight</w>":5233,"labor":5234,"dc</w>":5235,"after":5236,"published</w>":5237,"suppor":5238,"zen</w>":5239,"uses</w>":5240,"wave</w>":5241,"establ":5242,"rice</w>":5243,"issue</w>":5244,"host</w>":5245,"assi":5246,"galaxy</w>":5247,"partment</w>":5248,"pati":5249,"riding</w>":5250,"equ":5251,"redi":5252,"done</w>":5253,"indepen":5254,"70</w>":5255,"minutes</w>":5256,"anato":5257,"motorcycle</w>":5258,"mix</w>":5259,"addition</w>":5260,"download</w>":5261,"econ":5262,"banner</w>":5263,"doctor</w>":5264,"stylish</w>":5265,"domin":5266,"commis":5267,"tall</w>":5268,"speed</w>":5269,"shoe</w>":5270,"ari</w>":5271,"dly</w>":5272,"ough</w>":5273,"eating</w>":5274,"athle":5275,"romantic</w>":5276,"explo":5277,"engagement</w>":5278,"engers</w>":5279,"thur":5280,"spanish</w>":5281,"sugge":5282,"spee":5283,"feel</w>":5284,"premium</w>":5285,"creatures</w>":5286,"particu":5287,"mexico</w>":5288,"quet</w>":5289,"redu":5290,"189":5291,"eastern</w>":5292,"close":5293,"classroom</w>":5294,"concrete</w>":5295,"holds</w>":5296,"hours</w>":5297,"butt":5298,"zer</w>":5299,"opened</w>":5300,"ingredi":5301,"yl</w>":5302,"died</w>":5303,"lla</w>":5304,"ority</w>":5305,"ex</w>":5306,"industry</w>":5307,"learning</w>":5308,"bean</w>":5309,"giant</w>":5310,"bring</w>":5311,"econo":5312,"diagram</w>":5313,"say</w>":5314,"growing</w>":5315,"tte</w>":5316,"clock</w>":5317,"ro</w>":5318,"just":5319,"political</w>":5320,"12":5321,"ami</w>":5322,"worl":5323,"soon</w>":5324,"gown</w>":5325,"graphics</w>":5326,"35</w>":5327,"rela":5328,"pump":5329,"wed</w>":5330,"rendering</w>":5331,"garage</w>":5332,"vidu":5333,"rare</w>":5334,"friendly</w>":5335,"daily</w>":5336,"website</w>":5337,"empty</w>":5338,"empire</w>":5339,"dev":5340,"equipment</w>":5341,"commercial</w>":5342,"butterfly</w>":5343,"sey</w>":5344,"awe":5345,"closed</w>":5346,"worth</w>":5347,"transpar":5348,"runs</w>":5349,"alp":5350,"individu":5351,"bla":5352,"aff":5353,"treat":5354,"alo":5355,"meet</w>":5356,"conference</w>":5357,"nd</w>":5358,"effect</w>":5359,"shaped</w>":5360,"personal</w>":5361,"coach</w>":5362,"interest":5363,"bit</w>":5364,"creek</w>":5365,"achi":5366,"stick</w>":5367,"rock":5368,"forming</w>":5369,"salad</w>":5370,"ending</w>":5371,"grade</w>":5372,"ping</w>":5373,"neu":5374,"films</w>":5375,"tual</w>":5376,"acry":5377,"count</w>":5378,"orn</w>":5379,"atory</w>":5380,"mental</w>":5381,"detail</w>":5382,"sla":5383,"clean</w>":5384,"eded</w>":5385,"secret</w>":5386,"neigh":5387,"move</w>":5388,"condition</w>":5389,"chev":5390,"dant</w>":5391,"ride</w>":5392,"aver":5393,"sor":5394,"hin":5395,"trends</w>":5396,"agre":5397,"crowd</w>":5398,"bil":5399,"sheet</w>":5400,"dim":5401,"public":5402,"demo":5403,"pass</w>":5404,"miles</w>":5405,"doing</w>":5406,"felt</w>":5407,"black":5408,"vs</w>":5409,"refer":5410,"fer</w>":5411,"teen":5412,"wanted</w>":5413,"sons</w>":5414,"py":5415,"ki</w>":5416,"egg</w>":5417,"sofa</w>":5418,"sav":5419,"milk</w>":5420,"developed</w>":5421,"appeared</w>":5422,"execu":5423,"aesthetic</w>":5424,"camp</w>":5425,"branch</w>":5426,"scenes</w>":5427,"fitness</w>":5428,"zi":5429,"bath</w>":5430,"real":5431,"stain":5432,"pets</w>":5433,"paci":5434,"entu":5435,"department</w>":5436,"tland</w>":5437,"broo":5438,"sent</w>":5439,"aven":5440,"mo</w>":5441,"weather</w>":5442,"aband":5443,"bottom</w>":5444,"wolf</w>":5445,"ah</w>":5446,"formal</w>":5447,"feature</w>":5448,"ski</w>":5449,"chet</w>":5450,"illa</w>":5451,"tition</w>":5452,"big":5453,"inting</w>":5454,"ti</w>":5455,"eth":5456,"goal</w>":5457,"denti":5458,"fourth</w>":5459,"artists</w>":5460,"contr":5461,"acrylic</w>":5462,"bac":5463,"tic":5464,"capital</w>":5465,"ri</w>":5466,"letter":5467,"bic":5468,"kne":5469,"needs</w>":5470,"signific":5471,"blood</w>":5472,"commit":5473,"roi":5474,"anni":5475,"thouse</w>":5476,"ency</w>":5477,"dential</w>":5478,"2005</w>":5479,"korean</w>":5480,"blog</w>":5481,"mus":5482,"apparel</w>":5483,"variety</w>":5484,"arms</w>":5485,"bing</w>":5486,"manga</w>":5487,"chief</w>":5488,"true</w>":5489,"ong":5490,"border</w>":5491,"pizz":5492,"sits</w>":5493,"lie</w>":5494,"ess</w>":5495,"upper</w>":5496,"eval</w>":5497,"vet</w>":5498,"thursday</w>":5499,"anatomy</w>":5500,"press":5501,"enough</w>":5502,"sit</w>":5503,"ize</w>":5504,"bis":5505,"sett":5506,"hes</w>":5507,"singap":5508,"vegan</w>":5509,"cloud</w>":5510,"credit</w>":5511,"society</w>":5512,"fy</w>":5513,"bru":5514,"transparent</w>":5515,"depic":5516,"historical</w>":5517,"asia</w>":5518,"bow":5519,"guard</w>":5520,"singer</w>":5521,"lier</w>":5522,"guar":5523,"eps</w>":5524,"everything</w>":5525,"embroi":5526,"north":5527,"bell</w>":5528,"items</w>":5529,"printed</w>":5530,"boats</w>":5531,"wedne":5532,"ctu":5533,"acked</w>":5534,"lit</w>":5535,"bey":5536,"iler</w>":5537,"squad":5538,"himself</w>":5539,"contest</w>":5540,"kit":5541,"spain</w>":5542,"seat</w>":5543,"stel</w>":5544,"invest":5545,"backpack</w>":5546,"provided</w>":5547,"less":5548,"ranked</w>":5549,"die":5550,"post":5551,"eggs</w>":5552,"zer":5553,"irus</w>":5554,"sydney</w>":5555,"pa</w>":5556,"mr</w>":5557,"fairy</w>":5558,"names</w>":5559,"2nd</w>":5560,"scale</w>":5561,"medieval</w>":5562,"celebrity</w>":5563,"south":5564,"coll":5565,"ller</w>":5566,"herit":5567,"davi":5568,"wednesday</w>":5569,"mind</w>":5570,"harb":5571,"safety</w>":5572,"ctly</w>":5573,"thre":5574,"nat":5575,"doll</w>":5576,"nas":5577,"conver":5578,"scra":5579,"ho</w>":5580,"ladies</w>":5581,"ece</w>":5582,"tues":5583,"monday</w>":5584,"singapore</w>":5585,"coronav":5586,"vinyl</w>":5587,"sty</w>":5588,"successful</w>":5589,"larger</w>":5590,"denim</w>":5591,"ups</w>":5592,"stun":5593,"eves</w>":5594,"might</w>":5595,"covers</w>":5596,"bang":5597,"dn</w>":5598,"dan</w>":5599,"coronavirus</w>":5600,"fiel":5601,"fail":5602,"chic</w>":5603,"bill":5604,"tuesday</w>":5605,"label</w>":5606,"announced</w>":5607,"source</w>":5608,"dies</w>":5609,"returned</w>":5610,"bracele":5611,"elephant</w>":5612,"flooring</w>":5613,"bon</w>":5614,"basket</w>":5615,"turned</w>":5616,"ditions</w>":5617,"aland</w>":5618,"rough</w>":5619,"crochet</w>":5620,"completed</w>":5621,"brus":5622,"mount</w>":5623,"pacific</w>":5624,"native</w>":5625,"cost</w>":5626,"shadow</w>":5627,"mermaid</w>":5628,"kong</w>":5629,"dden</w>":5630,"kit</w>":5631,"ateg":5632,"dation</w>":5633,"gym</w>":5634,"cape</w>":5635,"nis</w>":5636,"previous</w>":5637,"witch</w>":5638,"railway</w>":5639,"stairs</w>":5640,"pir":5641,"drinks</w>":5642,"gradi":5643,"sketches</w>":5644,"ight":5645,"ald</w>":5646,"provin":5647,"harry</w>":5648,"pand":5649,"fal":5650,"mal</w>":5651,"resc":5652,"power":5653,"45</w>":5654,"kid</w>":5655,"fted</w>":5656,"bet</w>":5657,"forward</w>":5658,"aerial</w>":5659,"rear</w>":5660,"volu":5661,"troo":5662,"secur":5663,"vari":5664,"traff":5665,"ot":5666,"note</w>":5667,"kie</w>":5668,"pen</w>":5669,"toron":5670,"sar":5671,"bury</w>":5672,"boston</w>":5673,"sides</w>":5674,"90</w>":5675,"rocks</w>":5676,"versary</w>":5677,"streets</w>":5678,"light":5679,"advertising</w>":5680,"toronto</w>":5681,"teac":5682,"network</w>":5683,"actress</w>":5684,"sery</w>":5685,"material</w>":5686,"dancing</w>":5687,"ques</w>":5688,"nursery</w>":5689,"canadian</w>":5690,"amic</w>":5691,"tural</w>":5692,"practice</w>":5693,"yu":5694,"screen":5695,"liter":5696,"dor</w>":5697,"pear":5698,"philipp":5699,"coast":5700,"decorative</w>":5701,"setting</w>":5702,"heritage</w>":5703,"hurric":5704,"figures</w>":5705,"refu":5706,"liber":5707,"zealand</w>":5708,"radio</w>":5709,"ians</w>":5710,"factory</w>":5711,"medit":5712,"recogn":5713,"bible</w>":5714,"voc":5715,"pizza</w>":5716,"awesome</w>":5717,"animation</w>":5718,"least</w>":5719,"weeks</w>":5720,"vel":5721,"article</w>":5722,"landscaping</w>":5723,"standard</w>":5724,"marble</w>":5725,"sauce</w>":5726,"council</w>":5727,"solid</w>":5728,"cathe":5729,"fair</w>":5730,"syn":5731,"purch":5732,"yl":5733,"odle</w>":5734,"spr":5735,"anniversary</w>":5736,"share</w>":5737,"cheap</w>":5738,"recorded</w>":5739,"dressed</w>":5740,"write</w>":5741,"ounds</w>":5742,"god</w>":5743,"stat":5744,"focus</w>":5745,"bbit</w>":5746,"language</w>":5747,"institu":5748,"provide</w>":5749,"competition</w>":5750,"cities</w>":5751,"lions</w>":5752,"handmade</w>":5753,"yet</w>":5754,"finish</w>":5755,"alu":5756,"ire":5757,"robo":5758,"sac":5759,"destroy":5760,"inj":5761,"victory</w>":5762,"rd</w>":5763,"manager</w>":5764,"solution</w>":5765,"falls</w>":5766,"iv":5767,"relationship</w>":5768,"grand":5769,"distance</w>":5770,"offers</w>":5771,"facts</w>":5772,"exhibition</w>":5773,"pel":5774,"security</w>":5775,"nic</w>":5776,"lamp</w>":5777,"hole</w>":5778,"dral</w>":5779,"brain</w>":5780,"moving</w>":5781,"bench</w>":5782,"academy</w>":5783,"shore</w>":5784,"environment</w>":5785,"tops</w>":5786,"ible</w>":5787,"either</w>":5788,"fence</w>":5789,"contain":5790,"writer</w>":5791,"wheels</w>":5792,"discu":5793,"entertain":5794,"ential</w>":5795,"cine":5796,"dessert</w>":5797,"abandoned</w>":5798,"2004</w>":5799,"spirit</w>":5800,"fight</w>":5801,"eling</w>":5802,"awar":5803,"cham":5804,"lettering</w>":5805,"hop</w>":5806,"todd":5807,"75</w>":5808,"jam":5809,"stated</w>":5810,"cocktail</w>":5811,"pages</w>":5812,"cabin</w>":5813,"fication</w>":5814,"horiz":5815,"parties</w>":5816,"gent":5817,"condu":5818,"scotland</w>":5819,"oak</w>":5820,"monster</w>":5821,"respe":5822,"kle</w>":5823,"sus</w>":5824,"element</w>":5825,"ang</w>":5826,"command</w>":5827,"fighter</w>":5828,"beginning</w>":5829,"universe</w>":5830,"prom</w>":5831,"your":5832,"letters</w>":5833,"onic</w>":5834,"tools</w>":5835,"weekend</w>":5836,"viol":5837,"officer</w>":5838,"reli":5839,"ingredients</w>":5840,"heav":5841,"traffic</w>":5842,"businessman</w>":5843,"squadron</w>":5844,"larly</w>":5845,"cathedral</w>":5846,"speech</w>":5847,"ado</w>":5848,"jump":5849,"positive</w>":5850,"dino":5851,"damage</w>":5852,"horror</w>":5853,"pin":5854,"cell":5855,"jan</w>":5856,"expen":5857,"wish</w>":5858,"indic":5859,"woods</w>":5860,"iss":5861,"loss</w>":5862,"russia</w>":5863,"current</w>":5864,"prev":5865,"performed</w>":5866,"driving</w>":5867,"brought</w>":5868,"waves</w>":5869,"selling</w>":5870,"gradient</w>":5871,"diffic":5872,"demon":5873,"nine</w>":5874,"eding</w>":5875,"balcon":5876,"potat":5877,"broken</w>":5878,"santa</w>":5879,"data</w>":5880,"smoo":5881,"cher</w>":5882,"originally</w>":5883,"icy</w>":5884,"warri":5885,"40":5886,"republic</w>":5887,"cot</w>":5888,"framed</w>":5889,"britain</w>":5890,"glu":5891,"hil":5892,"population</w>":5893,"arab":5894,"wonder":5895,"kil":5896,"rather</w>":5897,"activity</w>":5898,"appo":5899,"motor</w>":5900,"management</w>":5901,"teacher</w>":5902,"las</w>":5903,"tian</w>":5904,"dia</w>":5905,"huge</w>":5906,"viet":5907,"zes</w>":5908,"tent</w>":5909,"tery</w>":5910,"hour</w>":5911,"worked</w>":5912,"aled</w>":5913,"len":5914,"homemade</w>":5915,"hills</w>":5916,"slide</w>":5917,"solu":5918,"thin":5919,"ament</w>":5920,"haw":5921,"salt</w>":5922,"adop":5923,"inet</w>":5924,"sign":5925,"spread</w>":5926,"line":5927,"journal</w>":5928,"layout</w>":5929,"bloc":5930,"copy</w>":5931,"key":5932,"parents</w>":5933,"enced</w>":5934,"occas":5935,"fleet</w>":5936,"accep":5937,"ultimate</w>":5938,"symbols</w>":5939,"gg":5940,"mond</w>":5941,"francis":5942,"decided</w>":5943,"quick</w>":5944,"complex</w>":5945,"spot</w>":5946,"celebrate</w>":5947,"eagle</w>":5948,"planning</w>":5949,"32</w>":5950,"hau":5951,"backgrounds</w>":5952,"straw":5953,"smile</w>":5954,"angel</w>":5955,"dam</w>":5956,"outline</w>":5957,"organization</w>":5958,"movement</w>":5959,"faces</w>":5960,"delicious</w>":5961,"actions</w>":5962,"clip</w>":5963,"themes</w>":5964,"seating</w>":5965,"expla":5966,"countries</w>":5967,"stren":5968,"estim":5969,"fi</w>":5970,"ste</w>":5971,"mit</w>":5972,"unic":5973,"leg</w>":5974,"amoun":5975,"unk</w>":5976,"mechan":5977,"ona</w>":5978,"soup</w>":5979,"vals</w>":5980,"theater</w>":5981,"choice</w>":5982,"mono":5983,"knight</w>":5984,"ership</w>":5985,"entertainment</w>":5986,"manchester</w>":5987,"alistic</w>":5988,"motiv":5989,"surpr":5990,"menu</w>":5991,"corn</w>":5992,"throw</w>":5993,"solar</w>":5994,"shelf</w>":5995,"lemon</w>":5996,"adult</w>":5997,"30":5998,"neon</w>":5999,"trendy</w>":6000,"ris</w>":6001,"seattle</w>":6002,"streng":6003,"incredi":6004,"treat</w>":6005,"identi":6006,"mph</w>":6007,"earrings</w>":6008,"cise</w>":6009,"tiger</w>":6010,"reported</w>":6011,"hus":6012,"hurricane</w>":6013,"sunglasses</w>":6014,"alone</w>":6015,"specially</w>":6016,"ireland</w>":6017,"link</w>":6018,"lers</w>":6019,"nes</w>":6020,"cric":6021,"spaces</w>":6022,"entire</w>":6023,"quart":6024,"eventu":6025,"loun":6026,"related</w>":6027,"famil":6028,"victorian</w>":6029,"hong</w>":6030,"50":6031,"bo</w>":6032,"geous</w>":6033,"pendant</w>":6034,"francisco</w>":6035,"cave</w>":6036,"xi</w>":6037,"eventually</w>":6038,"association</w>":6039,"serving</w>":6040,"techni":6041,"cha":6042,"mass</w>":6043,"gress</w>":6044,"spect":6045,"rich</w>":6046,"rics</w>":6047,"peace</w>":6048,"goes</w>":6049,"tomat":6050,"decis":6051,"iced</w>":6052,"188":6053,"straight</w>":6054,"chal":6055,"ser</w>":6056,"tennis</w>":6057,"mine</w>":6058,"silk</w>":6059,"stories</w>":6060,"imag":6061,"ix</w>":6062,"analy":6063,"steps</w>":6064,"bubble</w>":6065,"pie</w>":6066,"list":6067,"killed</w>":6068,"pictured</w>":6069,"gen</w>":6070,"temper":6071,"pau":6072,"zoo</w>":6073,"units</w>":6074,"wa</w>":6075,"pix":6076,"claimed</w>":6077,"allow</w>":6078,"cabinet</w>":6079,"19th</w>":6080,"enty</w>":6081,"tus</w>":6082,"tube</w>":6083,"mexican</w>":6084,"cruise</w>":6085,"pressure</w>":6086,"teams</w>":6087,"lodge</w>":6088,"god":6089,"candy</w>":6090,"vegetables</w>":6091,"deer</w>":6092,"du</w>":6093,"appearance</w>":6094,"ribb":6095,"mmy</w>":6096,"nike</w>":6097,"fau":6098,"fl</w>":6099,"extra</w>":6100,"smart</w>":6101,"sometimes</w>":6102,"exclu":6103,"lane</w>":6104,"indoor</w>":6105,"vity</w>":6106,"bicy":6107,"moment</w>":6108,"kings</w>":6109,"2000</w>":6110,"tained</w>":6111,"ier</w>":6112,"ara</w>":6113,"presents</w>":6114,"raised</w>":6115,"highest</w>":6116,"iment</w>":6117,"kers</w>":6118,"remained</w>":6119,"reas":6120,"tas":6121,"usually</w>":6122,"followed</w>":6123,"metho":6124,"reached</w>":6125,"cow":6126,"creation</w>":6127,"caused</w>":6128,"minister</w>":6129,"taining</w>":6130,"panel</w>":6131,"rier</w>":6132,"pin</w>":6133,"butter</w>":6134,"wildlife</w>":6135,"rent</w>":6136,"lets</w>":6137,"roc":6138,"ordin":6139,"surrounded</w>":6140,"walks</w>":6141,"cabine":6142,"lined</w>":6143,"celebration</w>":6144,"average</w>":6145,"foods</w>":6146,"guy</w>":6147,"carr":6148,"suite</w>":6149,"offer</w>":6150,"suits</w>":6151,"geometric</w>":6152,"iors</w>":6153,"tournament</w>":6154,"records</w>":6155,"bronze</w>":6156,"ske":6157,"leader</w>":6158,"gives</w>":6159,"swi":6160,"pumpkin</w>":6161,"repe":6162,"bie</w>":6163,"bouquet</w>":6164,"leave</w>":6165,"clar":6166,"ip":6167,"civil</w>":6168,"add":6169,"ny":6170,"alternate</w>":6171,"workers</w>":6172,"established</w>":6173,"ely</w>":6174,"mom</w>":6175,"performs</w>":6176,"state":6177,"creating</w>":6178,"cran":6179,"pig":6180,"istic</w>":6181,"tely</w>":6182,"puppy</w>":6183,"balcony</w>":6184,"berries</w>":6185,"brush</w>":6186,"wire</w>":6187,"colum":6188,"brother</w>":6189,"access</w>":6190,"weap":6191,"affe":6192,"mans</w>":6193,"choose</w>":6194,"2003</w>":6195,"braz":6196,"decorated</w>":6197,"illustrated</w>":6198,"bull</w>":6199,"soldiers</w>":6200,"conserv":6201,"enger</w>":6202,"hoc":6203,"allowed</w>":6204,"communic":6205,"medic":6206,"mentary</w>":6207,"brig":6208,"tted</w>":6209,"sunrise</w>":6210,"womens</w>":6211,"36</w>":6212,"cement</w>":6213,"cherry</w>":6214,"operation</w>":6215,"additional</w>":6216,"lobby</w>":6217,"sewing</w>":6218,"nation</w>":6219,"adap":6220,"5th</w>":6221,"zzle</w>":6222,"regular</w>":6223,"glit":6224,"beat":6225,"sib":6226,"pak":6227,"shell</w>":6228,"notes</w>":6229,"onto</w>":6230,"meaning</w>":6231,"plates</w>":6232,"cases</w>":6233,"stressed</w>":6234,"psy":6235,"tons</w>":6236,"guns</w>":6237,"recording</w>":6238,"hockey</w>":6239,"avenue</w>":6240,"lock</w>":6241,"spider</w>":6242,"welcome</w>":6243,"fs</w>":6244,"whis":6245,"quarter</w>":6246,"changes</w>":6247,"legend</w>":6248,"already</w>":6249,"renov":6250,"rel</w>":6251,"om</w>":6252,"potter</w>":6253,"fix":6254,"waiting</w>":6255,"lip</w>":6256,"stones</w>":6257,"religious</w>":6258,"goals</w>":6259,"ances</w>":6260,"ridge</w>":6261,"pal</w>":6262,"mural</w>":6263,"pro</w>":6264,"launch</w>":6265,"memorial</w>":6266,"pond</w>":6267,"pul":6268,"gency</w>":6269,"nut</w>":6270,"joined</w>":6271,"cutting</w>":6272,"camping</w>":6273,"mine":6274,"ishes</w>":6275,"prime</w>":6276,"noted</w>":6277,"turkey</w>":6278,"roses</w>":6279,"probab":6280,"argu":6281,"range":6282,"mers</w>":6283,"sands</w>":6284,"ur</w>":6285,"global</w>":6286,"james</w>":6287,"starting</w>":6288,"ori":6289,"pine</w>":6290,"bill</w>":6291,"gorgeous</w>":6292,"bee</w>":6293,"piano</w>":6294,"rer</w>":6295,"ball":6296,"discover</w>":6297,"situ":6298,"humor</w>":6299,"shoo":6300,"lying</w>":6301,"christian</w>":6302,"sian</w>":6303,"chee":6304,"stration</w>":6305,"goth":6306,"jungle</w>":6307,"william</w>":6308,"selection</w>":6309,"contribu":6310,"pregn":6311,"3rd</w>":6312,"fighting</w>":6313,"ker":6314,"lounge</w>":6315,"means</w>":6316,"porch</w>":6317,"youth</w>":6318,"ko</w>":6319,"bourne</w>":6320,"saying</w>":6321,"rights</w>":6322,"rey</w>":6323,"relax":6324,"ingham</w>":6325,"exc":6326,"globe</w>":6327,"maint":6328,"attends</w>":6329,"hope</w>":6330,"gla":6331,"saint</w>":6332,"note":6333,"lic":6334,"beyond</w>":6335,"flash</w>":6336,"button</w>":6337,"motion</w>":6338,"umb":6339,"forced</w>":6340,"journey</w>":6341,"tam":6342,"trade</w>":6343,"cali":6344,"toddler</w>":6345,"ests</w>":6346,"lunch</w>":6347,"extre":6348,"acts</w>":6349,"lovely</w>":6350,"report</w>":6351,"kyo</w>":6352,"polish</w>":6353,"theast</w>":6354,"nearby</w>":6355,"blue":6356,"pit</w>":6357,"irish</w>":6358,"len</w>":6359,"tical</w>":6360,"peak</w>":6361,"portraits</w>":6362,"stunning</w>":6363,"ini</w>":6364,"slow</w>":6365,"posing</w>":6366,"33</w>":6367,"bene":6368,"dated</w>":6369,"pillow</w>":6370,"holidays</w>":6371,"4th</w>":6372,"ouse</w>":6373,"atic</w>":6374,"acu":6375,"bedrooms</w>":6376,"mode</w>":6377,"transport</w>":6378,"scoo":6379,"needed</w>":6380,"marke":6381,"themed</w>":6382,"ctural</w>":6383,"ahead</w>":6384,"gowns</w>":6385,"mpic</w>":6386,"earlier</w>":6387,"finger</w>":6388,"wel</w>":6389,"igra":6390,"especially</w>":6391,"lives</w>":6392,"john":6393,"iti</w>":6394,"knee</w>":6395,"leton</w>":6396,"lows</w>":6397,"married</w>":6398,"otic</w>":6399,"evi":6400,"stickers</w>":6401,"pic</w>":6402,"parade</w>":6403,"admini":6404,"grow":6405,"law":6406,"lifestyle</w>":6407,"cartoons</w>":6408,"touch</w>":6409,"nam</w>":6410,"thail":6411,"drinking</w>":6412,"2001</w>":6413,"divi":6414,"like":6415,"egypt</w>":6416,"rolling</w>":6417,"thailand</w>":6418,"whether</w>":6419,"tutorial</w>":6420,"required</w>":6421,"smith</w>":6422,"sister</w>":6423,"ases</w>":6424,"bai</w>":6425,"balloon</w>":6426,"common":6427,"quick":6428,"inspirational</w>":6429,"wich</w>":6430,"floo":6431,"dv":6432,"exercise</w>":6433,"tote</w>":6434,"belt</w>":6435,"sized</w>":6436,"sunny</w>":6437,"groups</w>":6438,"virg":6439,"realistic</w>":6440,"organic</w>":6441,"actually</w>":6442,"tokyo</w>":6443,"tan</w>":6444,"stance</w>":6445,"ceramic</w>":6446,"sleeping</w>":6447,"cris":6448,"stained</w>":6449,"owner</w>":6450,"mn":6451,"ison</w>":6452,"transpor":6453,"operations</w>":6454,"lia</w>":6455,"yon</w>":6456,"dir":6457,"studios</w>":6458,"valentine</w>":6459,"ied</w>":6460,"miss</w>":6461,"red":6462,"usual</w>":6463,"multiple</w>":6464,"ige</w>":6465,"dolls</w>":6466,"proce":6467,"irs</w>":6468,"problems</w>":6469,"script</w>":6470,"apol":6471,"comfor":6472,"philippines</w>":6473,"contra":6474,"sity</w>":6475,"watching</w>":6476,"driver</w>":6477,"mint</w>":6478,"glow</w>":6479,"alized</w>":6480,"packaging</w>":6481,"flav":6482,"six":6483,"teaching</w>":6484,"37</w>":6485,"heat</w>":6486,"dang":6487,"counter</w>":6488,"mig":6489,"shark</w>":6490,"186":6491,"jersey</w>":6492,"lantic</w>":6493,"dary</w>":6494,"closet</w>":6495,"main":6496,"voice</w>":6497,"nearly</w>":6498,"dubai</w>":6499,"changed</w>":6500,"unicorn</w>":6501,"pressed</w>":6502,"burgh</w>":6503,"sales</w>":6504,"bracelet</w>":6505,"rug":6506,"ilities</w>":6507,"mbl":6508,"primary</w>":6509,"aries</w>":6510,"passed</w>":6511,"systems</w>":6512,"crossing</w>":6513,"yourself</w>":6514,"tracks</w>":6515,"greatest</w>":6516,"novel</w>":6517,"crazy</w>":6518,"astro":6519,"soul</w>":6520,"boxes</w>":6521,"iring</w>":6522,"chef</w>":6523,"effects</w>":6524,"bc</w>":6525,"holy</w>":6526,"corps</w>":6527,"recent</w>":6528,"stribu":6529,"mascot</w>":6530,"cocon":6531,"ut":6532,"fiction</w>":6533,"child":6534,"invitation</w>":6535,"coura":6536,"subje":6537,"ell":6538,"fields</w>":6539,"leaving</w>":6540,"growth</w>":6541,"uniform</w>":6542,"particip":6543,"secu":6544,"fifth</w>":6545,"rabbit</w>":6546,"parking</w>":6547,"told</w>":6548,"helmet</w>":6549,"talking</w>":6550,"ues</w>":6551,"enge</w>":6552,"itch</w>":6553,"reference</w>":6554,"sher":6555,"problem</w>":6556,"olympic</w>":6557,"cabinets</w>":6558,"critics</w>":6559,"husband</w>":6560,"ribbon</w>":6561,"small":6562,"atlantic</w>":6563,"legs</w>":6564,"videos</w>":6565,"gui":6566,"prior</w>":6567,"snake</w>":6568,"stro":6569,"exi":6570,"owl</w>":6571,"phia</w>":6572,"explore</w>":6573,"significant</w>":6574,"knit":6575,"george</w>":6576,"weddings</w>":6577,"regi":6578,"micha":6579,"carib":6580,"subsequ":6581,"troops</w>":6582,"cricket</w>":6583,"mbia</w>":6584,"reviews</w>":6585,"gian</w>":6586,"ingly</w>":6587,"distribu":6588,"closeup</w>":6589,"seasons</w>":6590,"too":6591,"visit":6592,"istan</w>":6593,"300</w>":6594,"ice":6595,"acted</w>":6596,"caribbean</w>":6597,"fall":6598,"shoot</w>":6599,"monu":6600,"itself</w>":6601,"battal":6602,"princi":6603,"conclu":6604,"alpha":6605,"oid</w>":6606,"inches</w>":6607,"involved</w>":6608,"vertical</w>":6609,"2002</w>":6610,"avengers</w>":6611,"ises</w>":6612,"term</w>":6613,"ran</w>":6614,"feb</w>":6615,"fur</w>":6616,"message</w>":6617,"bouti":6618,"challenge</w>":6619,"poly":6620,"mounted</w>":6621,"interview</w>":6622,"venue</w>":6623,"container</w>":6624,"gil":6625,"probably</w>":6626,"longer</w>":6627,"blon":6628,"calligra":6629,"coastal</w>":6630,"wales</w>":6631,"monkey</w>":6632,"roads</w>":6633,"bin":6634,"shing</w>":6635,"everyone</w>":6636,"stant</w>":6637,"tered</w>":6638,"guests</w>":6639,"marriage</w>":6640,"finally</w>":6641,"interest</w>":6642,"stream</w>":6643,"berg</w>":6644,"yach":6645,"sphere</w>":6646,"meat</w>":6647,"mble</w>":6648,"chapter</w>":6649,"34</w>":6650,"cers</w>":6651,"jackets</w>":6652,"frozen</w>":6653,"value</w>":6654,"saur</w>":6655,"parli":6656,"sion":6657,"susp":6658,"ffed</w>":6659,"produce</w>":6660,"reti":6661,"bit":6662,"barbie</w>":6663,"hearts</w>":6664,"marketing</w>":6665,"dge":6666,"mand":6667,"ppers</w>":6668,"boo</w>":6669,"topped</w>":6670,"distressed</w>":6671,"elev":6672,"financi":6673,"foundation</w>":6674,"noon</w>":6675,"scored</w>":6676,"spent</w>":6677,"diet</w>":6678,"preci":6679,"zone</w>":6680,"overall</w>":6681,"coconut</w>":6682,"viet</w>":6683,"basic</w>":6684,"sleeves</w>":6685,"amp</w>":6686,"pleas":6687,"balls</w>":6688,"expected</w>":6689,"55</w>":6690,"replaced</w>":6691,"houston</w>":6692,"campus</w>":6693,"reach</w>":6694,"adding</w>":6695,"fact</w>":6696,"leve":6697,"gers</w>":6698,"schools</w>":6699,"mar</w>":6700,"catho":6701,"budd":6702,"pocket</w>":6703,"quarters</w>":6704,"trend</w>":6705,"greece</w>":6706,"honey</w>":6707,"pearl</w>":6708,"scope</w>":6709,"adel":6710,"critic":6711,"minute</w>":6712,"occur":6713,"excell":6714,"trailer</w>":6715,"rate</w>":6716,"trying</w>":6717,"jar</w>":6718,"sha":6719,"expensive</w>":6720,"stly</w>":6721,"worn</w>":6722,"toil":6723,"wind":6724,"ffs</w>":6725,"clipart</w>":6726,"benef":6727,"neg":6728,"carrying</w>":6729,"materials</w>":6730,"scienti":6731,"ctic</w>":6732,"resour":6733,"kh":6734,"internet</w>":6735,"canal</w>":6736,"grow</w>":6737,"examples</w>":6738,"delivery</w>":6739,"nothing</w>":6740,"cookie</w>":6741,"deal</w>":6742,"rese":6743,"boutique</w>":6744,"numer":6745,"bone</w>":6746,"easily</w>":6747,"lessons</w>":6748,"mush":6749,"nomin":6750,"bottles</w>":6751,"someone</w>":6752,"initially</w>":6753,"employe":6754,"helic":6755,"pick</w>":6756,"come":6757,"vest</w>":6758,"approxim":6759,"catholic</w>":6760,"gather":6761,"desserts</w>":6762,"dery</w>":6763,"tech</w>":6764,"believed</w>":6765,"wrest":6766,"titled</w>":6767,"jor":6768,"performing</w>":6769,"doodle</w>":6770,"amount</w>":6771,"ony</w>":6772,"getty</w>":6773,"minimalist</w>":6774,"cell</w>":6775,"bicycle</w>":6776,"blank</w>":6777,"socks</w>":6778,"tool</w>":6779,"muscle</w>":6780,"20th</w>":6781,"newsp":6782,"scott":6783,"beard</w>":6784,"wonderful</w>":6785,"heroes</w>":6786,"alphabet</w>":6787,"quickly</w>":6788,"baking</w>":6789,"ician</w>":6790,"ioned</w>":6791,"48</w>":6792,"dinosaur</w>":6793,"immedi":6794,"fying</w>":6795,"sel</w>":6796,"hote":6797,"generally</w>":6798,"twin</w>":6799,"smart":6800,"pilot</w>":6801,"selves</w>":6802,"marks</w>":6803,"jac":6804,"engineering</w>":6805,"author</w>":6806,"bars</w>":6807,"impact</w>":6808,"dvd</w>":6809,"iser</w>":6810,"birth</w>":6811,"curtain</w>":6812,"visual</w>":6813,"robot</w>":6814,"whose</w>":6815,"af</w>":6816,"interiors</w>":6817,"amy</w>":6818,"lawn</w>":6819,"habit":6820,"anced</w>":6821,"boards</w>":6822,"pan</w>":6823,"sad</w>":6824,"ae":6825,"facade</w>":6826,"blanket</w>":6827,"plot</w>":6828,"individual</w>":6829,"antly</w>":6830,"liqu":6831,"directed</w>":6832,"helicop":6833,"treatment</w>":6834,"dest</w>":6835,"folk</w>":6836,"bands</w>":6837,"acting</w>":6838,"buff":6839,"stair":6840,"lev":6841,"laugh":6842,"skyline</w>":6843,"protection</w>":6844,"dates</w>":6845,"fat</w>":6846,"reserve</w>":6847,"opport":6848,"terrace</w>":6849,"deco</w>":6850,"vase</w>":6851,"evil</w>":6852,"electron":6853,"interesting</w>":6854,"thin</w>":6855,"height</w>":6856,"stainless</w>":6857,"volun":6858,"arena</w>":6859,"supplies</w>":6860,"combat</w>":6861,"boy":6862,"blonde</w>":6863,"frequ":6864,"olym":6865,"shine</w>":6866,"embroidery</w>":6867,"carry</w>":6868,"winds</w>":6869,"ware</w>":6870,"calligraphy</w>":6871,"ctively</w>":6872,"territ":6873,"alco":6874,"layer</w>":6875,"grun":6876,"hamp":6877,"critical</w>":6878,"iles</w>":6879,"requ":6880,"desk":6881,"pig</w>":6882,"landing</w>":6883,"melbourne</w>":6884,"mill</w>":6885,"installation</w>":6886,"maps</w>":6887,"contains</w>":6888,"umbre":6889,"chel":6890,"ok":6891,"increase</w>":6892,"lain</w>":6893,"vegas</w>":6894,"captured</w>":6895,"colours</w>":6896,"floating</w>":6897,"banana</w>":6898,"character":6899,"42</w>":6900,"mouse</w>":6901,"there":6902,"celebrities</w>":6903,"smoke</w>":6904,"excep":6905,"lowing</w>":6906,"antine</w>":6907,"infan":6908,"dale</w>":6909,"bra</w>":6910,"cently</w>":6911,"atl":6912,"executive</w>":6913,"likely</w>":6914,"hip</w>":6915,"fitted</w>":6916,"appear</w>":6917,"ease</w>":6918,"thick</w>":6919,"investig":6920,"david</w>":6921,"opportun":6922,"childhood</w>":6923,"hidden</w>":6924,"ace":6925,"engra":6926,"audience</w>":6927,"recently</w>":6928,"kra":6929,"isle</w>":6930,"waters</w>":6931,"companies</w>":6932,"desktop</w>":6933,"spin":6934,"hotels</w>":6935,"certain</w>":6936,"applic":6937,"pastel</w>":6938,"tale</w>":6939,"trou":6940,"tary</w>":6941,"issues</w>":6942,"shorts</w>":6943,"flags</w>":6944,"ident":6945,"nap":6946,"safe</w>":6947,"asked</w>":6948,"vietnam</w>":6949,"lyrics</w>":6950,"sites</w>":6951,"sheep</w>":6952,"beat</w>":6953,"om":6954,"abe":6955,"ple":6956,"cycling</w>":6957,"philadel":6958,"honda</w>":6959,"bull":6960,"proposed</w>":6961,"sare":6962,"higher</w>":6963,"notebook</w>":6964,"cleaning</w>":6965,"smaller</w>":6966,"nia</w>":6967,"province</w>":6968,"math</w>":6969,"saur":6970,"flies</w>":6971,"maxim":6972,"committee</w>":6973,"arrange":6974,"unknown</w>":6975,"platform</w>":6976,"appears</w>":6977,"philadelphia</w>":6978,"oh</w>":6979,"adul":6980,"zu":6981,"shipping</w>":6982,"commander</w>":6983,"response</w>":6984,"officers</w>":6985,"boun":6986,"fting</w>":6987,"heads</w>":6988,"dic</w>":6989,"38</w>":6990,"izing</w>":6991,"app</w>":6992,"garden":6993,"pher":6994,"blouse</w>":6995,"poe":6996,"ador":6997,"dad</w>":6998,"house":6999,"direction</w>":7000,"eper</w>":7001,"bloss":7002,"louis</w>":7003,"rub":7004,"boar":7005,"inse":7006,"soviet</w>":7007,"code</w>":7008,"thus</w>":7009,"liver":7010,"combination</w>":7011,"drama</w>":7012,"coal</w>":7013,"suites</w>":7014,"beast</w>":7015,"channel</w>":7016,"naval</w>":7017,"anti</w>":7018,"lift</w>":7019,"mean":7020,"korea</w>":7021,"increased</w>":7022,"legal</w>":7023,"ornam":7024,"aling</w>":7025,"miami</w>":7026,"strawberry</w>":7027,"battle":7028,"preschool</w>":7029,"ab</w>":7030,"michael</w>":7031,"becoming</w>":7032,"tell</w>":7033,"kiss</w>":7034,"tion":7035,"join</w>":7036,"iii</w>":7037,"cable</w>":7038,"egyp":7039,"poten":7040,"particularly</w>":7041,"therap":7042,"atives</w>":7043,"guys</w>":7044,"typo":7045,"ddy</w>":7046,"justice</w>":7047,"expan":7048,"express</w>":7049,"bikes</w>":7050,"ell</w>":7051,"angu":7052,"legen":7053,"afternoon</w>":7054,"financial</w>":7055,"eth</w>":7056,"65</w>":7057,"residential</w>":7058,"tin</w>":7059,"regar":7060,"initial</w>":7061,"perform</w>":7062,"ius</w>":7063,"pag":7064,"dar</w>":7065,"thron":7066,"score</w>":7067,"loft</w>":7068,"sonic</w>":7069,"oured</w>":7070,"pitch":7071,"election</w>":7072,"objects</w>":7073,"ji</w>":7074,"removed</w>":7075,"pean":7076,"separate</w>":7077,"basement</w>":7078,"sail":7079,"rapi":7080,"auto</w>":7081,"47</w>":7082,"trophy</w>":7083,"believe</w>":7084,"oct</w>":7085,"glitter</w>":7086,"enter</w>":7087,"sburg</w>":7088,"isra":7089,"aming</w>":7090,"lots</w>":7091,"hunting</w>":7092,"skills</w>":7093,"rous</w>":7094,"outdoors</w>":7095,"187":7096,"older</w>":7097,"presented</w>":7098,"nie</w>":7099,"ales</w>":7100,"introduced</w>":7101,"own":7102,"hiking</w>":7103,"climbing</w>":7104,"bam":7105,"thinking</w>":7106,"dollar</w>":7107,"iness</w>":7108,"rescue</w>":7109,"detailed</w>":7110,"steam</w>":7111,"wide":7112,"punk</w>":7113,"dishes</w>":7114,"41</w>":7115,"ranch</w>":7116,"brigade</w>":7117,"percent</w>":7118,"powerful</w>":7119,"bomb":7120,"visible</w>":7121,"pap":7122,"liz":7123,"toyo":7124,"worker</w>":7125,"gothic</w>":7126,"tub</w>":7127,"jeep</w>":7128,"botan":7129,"corporate</w>":7130,"jewell":7131,"mical</w>":7132,"remains</w>":7133,"categ":7134,"bm":7135,"profile</w>":7136,"asing</w>":7137,"continue</w>":7138,"issance</w>":7139,"photographic</w>":7140,"39</w>":7141,"decision</w>":7142,"nings</w>":7143,"burn</w>":7144,"phones</w>":7145,"dutch</w>":7146,"screenshot</w>":7147,"tta</w>":7148,"wise</w>":7149,"iconic</w>":7150,"couch</w>":7151,"stitch</w>":7152,"loved</w>":7153,"swit":7154,"questions</w>":7155,"tap":7156,"worlds</w>":7157,"mam":7158,"berlin</w>":7159,"statement</w>":7160,"helped</w>":7161,"malay":7162,"constitu":7163,"side":7164,"cupcakes</w>":7165,"ans":7166,"arrived</w>":7167,"tourist</w>":7168,"lee</w>":7169,"federal</w>":7170,"dition":7171,"difficult</w>":7172,"shots</w>":7173,"vegetable</w>":7174,"scottish</w>":7175,"biggest</w>":7176,"liverpool</w>":7177,"benefits</w>":7178,"attention</w>":7179,"clay</w>":7180,"aga</w>":7181,"battalion</w>":7182,"flow</w>":7183,"schedu":7184,"turtle</w>":7185,"fruits</w>":7186,"neighbor":7187,"150</w>":7188,"allen</w>":7189,"necess":7190,"canyon</w>":7191,"greater</w>":7192,"metres</w>":7193,"frog</w>":7194,"99</w>":7195,"provides</w>":7196,"toilet</w>":7197,"toyota</w>":7198,"aple</w>":7199,"keys</w>":7200,"direct</w>":7201,"coral</w>":7202,"figur":7203,"physical</w>":7204,"copper</w>":7205,"poor</w>":7206,"raw</w>":7207,"minecraft</w>":7208,"proof</w>":7209,"6th</w>":7210,"stuffed</w>":7211,"sink</w>":7212,"brigh":7213,"championships</w>":7214,"reasons</w>":7215,"hit":7216,"mass":7217,"velvet</w>":7218,"bunny</w>":7219,"coin</w>":7220,"shelves</w>":7221,"60":7222,"does":7223,"gos</w>":7224,"night":7225,"maker</w>":7226,"doesn</w>":7227,"cozy</w>":7228,"nov</w>":7229,"duck</w>":7230,"evidence</w>":7231,"fen":7232,"striped</w>":7233,"pengu":7234,"ault</w>":7235,"fa</w>":7236,"1999</w>":7237,"ordered</w>":7238,"opera</w>":7239,"associated</w>":7240,"henry</w>":7241,"day":7242,"ttes</w>":7243,"volunte":7244,"chess</w>":7245,"imper":7246,"eter</w>":7247,"infantry</w>":7248,"brun":7249,"wrap</w>":7250,"dian</w>":7251,"ks":7252,"shapes</w>":7253,"sque</w>":7254,"ander":7255,"alternative</w>":7256,"corre":7257,"sche</w>":7258,"ghost</w>":7259,"architectural</w>":7260,"attempt</w>":7261,"conditions</w>":7262,"lips</w>":7263,"sizes</w>":7264,"modi":7265,"deb":7266,"follow</w>":7267,"debut</w>":7268,"previously</w>":7269,"viewed</w>":7270,"ere":7271,"was":7272,"surrounding</w>":7273,"arrow</w>":7274,"leo":7275,"pick":7276,"ada</w>":7277,"freedom</w>":7278,"attend</w>":7279,"pard</w>":7280,"rail</w>":7281,"spiral</w>":7282,"nest</w>":7283,"infin":7284,"declar":7285,"egyptian</w>":7286,"lightly</w>":7287,"sleep</w>":7288,"brass</w>":7289,"mps</w>":7290,"aks</w>":7291,"escape</w>":7292,"sk</w>":7293,"rat</w>":7294,"runway</w>":7295,"planned</w>":7296,"shak":7297,"calend":7298,"quilt</w>":7299,"shield</w>":7300,"accom":7301,"supre":7302,"levels</w>":7303,"ura</w>":7304,"approximately</w>":7305,"formers</w>":7306,"families</w>":7307,"evo":7308,"purpose</w>":7309,"wears</w>":7310,"medal</w>":7311,"enix</w>":7312,"yards</w>":7313,"adults</w>":7314,"them":7315,"grunge</w>":7316,"bob</w>":7317,"soldier</w>":7318,"jackson</w>":7319,"alex":7320,"dimen":7321,"rid</w>":7322,"tours</w>":7323,"rug</w>":7324,"impres":7325,"49</w>":7326,"patient</w>":7327,"portu":7328,"talk</w>":7329,"facing</w>":7330,"residents</w>":7331,"skin":7332,"ole</w>":7333,"foli":7334,"champion</w>":7335,"institute</w>":7336,"carried</w>":7337,"simply</w>":7338,"font</w>":7339,"delhi</w>":7340,"results</w>":7341,"aquar":7342,"mumb":7343,"smartphone</w>":7344,"conceptual</w>":7345,"inging</w>":7346,"400</w>":7347,"champions</w>":7348,"thousands</w>":7349,"cycle</w>":7350,"composition</w>":7351,"mansion</w>":7352,"juice</w>":7353,"vent":7354,"gluten</w>":7355,"veter":7356,"chron":7357,"44</w>":7358,"washington</w>":7359,"dec</w>":7360,"marked</w>":7361,"inci":7362,"ci</w>":7363,"burger</w>":7364,"vit":7365,"agon</w>":7366,"vectors</w>":7367,"matter</w>":7368,"jewellery</w>":7369,"rig":7370,"occu":7371,"robert</w>":7372,"sense</w>":7373,"dete":7374,"themselves</w>":7375,"seas</w>":7376,"log</w>":7377,"floors</w>":7378,"95</w>":7379,"rical</w>":7380,"hear":7381,"content</w>":7382,"bound</w>":7383,"dressing</w>":7384,"rules</w>":7385,"plush</w>":7386,"chrome</w>":7387,"con</w>":7388,"certi":7389,"tier</w>":7390,"brothers</w>":7391,"cinema</w>":7392,"alo</w>":7393,"essential</w>":7394,"cad":7395,"52</w>":7396,"fancy</w>":7397,"generation</w>":7398,"stoc":7399,"winner</w>":7400,"shade</w>":7401,"damaged</w>":7402,"28":7403,"sole</w>":7404,"lil":7405,"constructed</w>":7406,"supply</w>":7407,"contract</w>":7408,"cancer</w>":7409,"inations</w>":7410,"agen</w>":7411,"aka</w>":7412,"ricul":7413,"mumbai</w>":7414,"alcoho":7415,"puzzle</w>":7416,"memories</w>":7417,"program":7418,"emergency</w>":7419,"clear":7420,"columbia</w>":7421,"jet</w>":7422,"treas":7423,"parks</w>":7424,"collage</w>":7425,"ctures</w>":7426,"loaded</w>":7427,"collabor":7428,"ledge</w>":7429,"stery</w>":7430,"cure</w>":7431,"gal</w>":7432,"aqu":7433,"finding</w>":7434,"puppies</w>":7435,"mostly</w>":7436,"candle</w>":7437,"soun":7438,"workshop</w>":7439,"rot</w>":7440,"parliament</w>":7441,"didn</w>":7442,"graff":7443,"ctional</w>":7444,"celebrates</w>":7445,"43</w>":7446,"core</w>":7447,"calendar</w>":7448,"tray</w>":7449,"cultural</w>":7450,"plain</w>":7451,"anda</w>":7452,"whole":7453,"vine</w>":7454,"pay</w>":7455,"graduation</w>":7456,"ford":7457,"motorcycles</w>":7458,"ij":7459,"bake</w>":7460,"mont</w>":7461,"sword</w>":7462,"amed</w>":7463,"highly</w>":7464,"fuel</w>":7465,"defense</w>":7466,"independent</w>":7467,"sailing</w>":7468,"bi</w>":7469,"jaz":7470,"wait</w>":7471,"olive</w>":7472,"ino":7473,"along":7474,"tac":7475,"enjoying</w>":7476,"town":7477,"erran":7478,"mad</w>":7479,"acking</w>":7480,"beige</w>":7481,"ski":7482,"max</w>":7483,"render</w>":7484,"premier</w>":7485,"chor":7486,"ali</w>":7487,"chest</w>":7488,"battery</w>":7489,"46</w>":7490,"alongside</w>":7491,"furn":7492,"umbrella</w>":7493,"ander</w>":7494,"officials</w>":7495,"airplane</w>":7496,"nau":7497,"charge</w>":7498,"graffiti</w>":7499,"description</w>":7500,"1998</w>":7501,"7th</w>":7502,"unusual</w>":7503,"presentation</w>":7504,"excellent</w>":7505,"les":7506,"agricul":7507,"wore</w>":7508,"zel":7509,"distin":7510,"eye":7511,"cook</w>":7512,"patri":7513,"cedes</w>":7514,"replac":7515,"hog</w>":7516,"beef</w>":7517,"dall":7518,"sir</w>":7519,"click</w>":7520,"strength</w>":7521,"dome</w>":7522,"incredible</w>":7523,"lem</w>":7524,"sent":7525,"51</w>":7526,"rison</w>":7527,"porsche</w>":7528,"lab":7529,"appointed</w>":7530,"brazil</w>":7531,"nation":7532,"circa</w>":7533,"vention</w>":7534,"launched</w>":7535,"democr":7536,"selected</w>":7537,"failed</w>":7538,"rack</w>":7539,"fell</w>":7540,"author":7541,"austri":7542,"sad":7543,"typical</w>":7544,"begins</w>":7545,"typography</w>":7546,"lac":7547,"rows</w>":7548,"dedic":7549,"islam":7550,"clin":7551,"soil</w>":7552,"wic":7553,"extended</w>":7554,"question</w>":7555,"influence</w>":7556,"nether":7557,"discovered</w>":7558,"joint</w>":7559,"fc</w>":7560,"helicopter</w>":7561,"wast":7562,"trust</w>":7563,"gur":7564,"carni":7565,"walk":7566,"outs</w>":7567,"portion</w>":7568,"hat":7569,"sell</w>":7570,"istan":7571,"brands</w>":7572,"dot</w>":7573,"ida</w>":7574,"mercedes</w>":7575,"armor</w>":7576,"mediterran":7577,"seeds</w>":7578,"vey</w>":7579,"ideal</w>":7580,"pole</w>":7581,"ylor</w>":7582,"pine":7583,"studies</w>":7584,"scrip":7585,"alien</w>":7586,"gul":7587,"amazon</w>":7588,"completely</w>":7589,"pc</w>":7590,"offered</w>":7591,"aug</w>":7592,"motional</w>":7593,"book":7594,"80":7595,"singing</w>":7596,"currently</w>":7597,"angry</w>":7598,"gaming</w>":7599,"chapel</w>":7600,"cky</w>":7601,"stal":7602,"rect":7603,"mediterranean</w>":7604,"remove</w>":7605,"underwater</w>":7606,"wheel":7607,"ud</w>":7608,"sex":7609,"spoon</w>":7610,"ae</w>":7611,"scription</w>":7612,"split</w>":7613,"long":7614,"quite</w>":7615,"hall":7616,"millions</w>":7617,"54</w>":7618,"passing</w>":7619,"yacht</w>":7620,"tag</w>":7621,"scarf</w>":7622,"fountain</w>":7623,"fresh":7624,"function</w>":7625,"depression</w>":7626,"atmo":7627,"marsh":7628,"eo</w>":7629,"mitted</w>":7630,"baked</w>":7631,"tone</w>":7632,"governor</w>":7633,"demonstr":7634,"billboard</w>":7635,"observ":7636,"imperial</w>":7637,"reason</w>":7638,"remaining</w>":7639,"kill</w>":7640,"ballet</w>":7641,"visitors</w>":7642,"destroyed</w>":7643,"64</w>":7644,"pris":7645,"dep":7646,"dome":7647,"laundry</w>":7648,"toward</w>":7649,"headquarters</w>":7650,"acci":7651,"cos":7652,"carbon</w>":7653,"estimated</w>":7654,"pur</w>":7655,"thai</w>":7656,"exclusive</w>":7657,"ps":7658,"gary</w>":7659,"balloons</w>":7660,"bell":7661,"users</w>":7662,"rule</w>":7663,"futur":7664,"brow":7665,"triangle</w>":7666,"newly</w>":7667,"fanta":7668,"innov":7669,"weal":7670,"shepher":7671,"burning</w>":7672,"formu":7673,"taste</w>":7674,"ens":7675,"mean</w>":7676,"sample</w>":7677,"unis":7678,"rely</w>":7679,"11":7680,"hammer</w>":7681,"seeing</w>":7682,"supreme</w>":7683,"bears</w>":7684,"dreams</w>":7685,"conven":7686,"matching</w>":7687,"installed</w>":7688,"rural</w>":7689,"panels</w>":7690,"lag":7691,"revealed</w>":7692,"matt":7693,"techniques</w>":7694,"califor":7695,"lanter":7696,"inc</w>":7697,"approach</w>":7698,"lack</w>":7699,"rated</w>":7700,"saf":7701,"attractive</w>":7702,"falling</w>":7703,"quali":7704,"venice</w>":7705,"junior</w>":7706,"oxford</w>":7707,"breed</w>":7708,"producer</w>":7709,"rh":7710,"powder</w>":7711,"lived</w>":7712,"ferred</w>":7713,"superhero</w>":7714,"ancy</w>":7715,"feeling</w>":7716,"dem":7717,"band":7718,"comedy</w>":7719,"scent</w>":7720,"cush":7721,"dallas</w>":7722,"repair</w>":7723,"mall</w>":7724,"horizon":7725,"compared</w>":7726,"fill</w>":7727,"printing</w>":7728,"ology</w>":7729,"bey</w>":7730,"unisex</w>":7731,"icians</w>":7732,"cry":7733,"yers</w>":7734,"paralle":7735,"tics</w>":7736,"hats</w>":7737,"directly</w>":7738,"defeated</w>":7739,"branches</w>":7740,"intended</w>":7741,"courty":7742,"mile</w>":7743,"cow</w>":7744,"pure</w>":7745,"weapons</w>":7746,"llig":7747,"1920":7748,"bass</w>":7749,"ug":7750,"protect</w>":7751,"kun":7752,"know":7753,"vancou":7754,"yment</w>":7755,"dson</w>":7756,"1997</w>":7757,"ache</w>":7758,"vancouver</w>":7759,"carved</w>":7760,"bold</w>":7761,"breaking</w>":7762,"possib":7763,"wreath</w>":7764,"martin</w>":7765,"wan</w>":7766,"counter":7767,"zing</w>":7768,"tti</w>":7769,"slice</w>":7770,"praised</w>":7771,"residence</w>":7772,"glam":7773,"comfort</w>":7774,"calling</w>":7775,"atively</w>":7776,"changing</w>":7777,"metro":7778,"nasa</w>":7779,"pyra":7780,"sept</w>":7781,"comfortable</w>":7782,"owned</w>":7783,"sung</w>":7784,"pasta</w>":7785,"diac</w>":7786,"warrior</w>":7787,"surg":7788,"curtains</w>":7789,"stret":7790,"volume</w>":7791,"laid</w>":7792,"phys":7793,"wick":7794,"transportation</w>":7795,"bmw</w>":7796,"foreign</w>":7797,"pse</w>":7798,"eral</w>":7799,"bought</w>":7800,"formula</w>":7801,"pain</w>":7802,"buffalo</w>":7803,"phoenix</w>":7804,"vesse":7805,"terms</w>":7806,"assemb":7807,"rugby</w>":7808,"wardro":7809,"56</w>":7810,"18th</w>":7811,"netherlands</w>":7812,"parad":7813,"regiment</w>":7814,"covering</w>":7815,"pull</w>":7816,"trains</w>":7817,"cannot</w>":7818,"disease</w>":7819,"sor</w>":7820,"options</w>":7821,"01</w>":7822,"universal</w>":7823,"combined</w>":7824,"chance</w>":7825,"episodes</w>":7826,"wy":7827,"jazz</w>":7828,"newspaper</w>":7829,"eing</w>":7830,"lotus</w>":7831,"honor</w>":7832,"whom</w>":7833,"sterling</w>":7834,"positions</w>":7835,"charles</w>":7836,"bamboo</w>":7837,"jumping</w>":7838,"plant":7839,"encoura":7840,"uries</w>":7841,"beha":7842,"cool":7843,"latter</w>":7844,"revo":7845,"boho</w>":7846,"metal":7847,"oz</w>":7848,"joker</w>":7849,"patro":7850,"mosa":7851,"oon</w>":7852,"grill</w>":7853,"inner</w>":7854,"potato</w>":7855,"dur":7856,"done":7857,"taylor</w>":7858,"workout</w>":7859,"flic":7860,"medicine</w>":7861,"ninten":7862,"classi":7863,"numerous</w>":7864,"essay</w>":7865,"shades</w>":7866,"rists</w>":7867,"johnson</w>":7868,"thomas</w>":7869,"mosque</w>":7870,"nintendo</w>":7871,"nose</w>":7872,"recomm":7873,"iller</w>":7874,"indone":7875,"particular</w>":7876,"spective</w>":7877,"handle</w>":7878,"1996</w>":7879,"target</w>":7880,"use":7881,"oven</w>":7882,"collar</w>":7883,"whale</w>":7884,"ading</w>":7885,"cav":7886,"illumin":7887,"propos":7888,"athers</w>":7889,"remember</w>":7890,"breeds</w>":7891,"rus</w>":7892,"economic</w>":7893,"connected</w>":7894,"kilo":7895,"reads</w>":7896,"meme</w>":7897,"harbor</w>":7898,"candi":7899,"citiz":7900,"status</w>":7901,"keeping</w>":7902,"icing</w>":7903,"suitable</w>":7904,"logos</w>":7905,"maple</w>":7906,"rocky</w>":7907,"aked</w>":7908,"cross":7909,"ike":7910,"nity</w>":7911,"han</w>":7912,"check":7913,"guil":7914,"68</w>":7915,"pre</w>":7916,"lum</w>":7917,"rolls</w>":7918,"swing</w>":7919,"rement</w>":7920,"slightly</w>":7921,"gie</w>":7922,"scand":7923,"minor</w>":7924,"lars</w>":7925,"mytho":7926,"fried</w>":7927,"gone</w>":7928,"nurse</w>":7929,"chi</w>":7930,"nations</w>":7931,"iny</w>":7932,"kis":7933,"attached</w>":7934,"signature</w>":7935,"1995</w>":7936,"confir":7937,"paul</w>":7938,"monit":7939,"kni":7940,"balance</w>":7941,"intellig":7942,"pakistan</w>":7943,"lincol":7944,"wholesale</w>":7945,"summit</w>":7946,"wardrobe</w>":7947,"fork</w>":7948,"ella</w>":7949,"gon":7950,"gram</w>":7951,"mainta":7952,"cen":7953,"awarded</w>":7954,"ssions</w>":7955,"animated</w>":7956,"albums</w>":7957,"kept</w>":7958,"duke</w>":7959,"muslim</w>":7960,"fantastic</w>":7961,"buck":7962,"turquo":7963,"turquoise</w>":7964,"supported</w>":7965,"ass</w>":7966,"tried</w>":7967,"restaurants</w>":7968,"leopard</w>":7969,"river":7970,"independence</w>":7971,"immediately</w>":7972,"anything</w>":7973,"challeng":7974,"analysis</w>":7975,"aki</w>":7976,"airy</w>":7977,"deliver":7978,"ppy</w>":7979,"barcel":7980,"sci</w>":7981,"begin</w>":7982,"rubber</w>":7983,"roof":7984,"ficial</w>":7985,"powered</w>":7986,"commission</w>":7987,"hl</w>":7988,"lab</w>":7989,"whit":7990,"hap":7991,"posite</w>":7992,"subject</w>":7993,"ttery</w>":7994,"kins</w>":7995,"bol":7996,"aquarium</w>":7997,"assembly</w>":7998,"cs</w>":7999,"atlanta</w>":8000,"arctic</w>":8001,"brook":8002,"grove</w>":8003,"process":8004,"format</w>":8005,"destination</w>":8006,"bel</w>":8007,"entered</w>":8008,"9th</w>":8009,"exotic</w>":8010,"potential</w>":8011,"tip</w>":8012,"shooting</w>":8013,"meals</w>":8014,"soph":8015,"seven":8016,"rope</w>":8017,"orial</w>":8018,"ird</w>":8019,"blocks</w>":8020,"depen":8021,"lime</w>":8022,"capture</w>":8023,"normal</w>":8024,"cd</w>":8025,"behavi":8026,"waterfall</w>":8027,"hedge":8028,"climate</w>":8029,"chevro":8030,"stered</w>":8031,"surf":8032,"contact</w>":8033,"coins</w>":8034,"california</w>":8035,"arrang":8036,"theory</w>":8037,"organis":8038,"nba</w>":8039,"kay":8040,"sims</w>":8041,"missing</w>":8042,"revolution</w>":8043,"document</w>":8044,"shops</w>":8045,"wash</w>":8046,"armed</w>":8047,"google</w>":8048,"dead":8049,"gaz":8050,"ale":8051,"crop</w>":8052,"leaders</w>":8053,"ably</w>":8054,"moo":8055,"diego</w>":8056,"stein</w>":8057,"monument</w>":8058,"godde":8059,"civil":8060,"specific</w>":8061,"wool</w>":8062,"rep":8063,"techn":8064,"courtyard</w>":8065,"catch</w>":8066,"islamic</w>":8067,"linear</w>":8068,"advant":8069,"yar":8070,"vamp":8071,"ffin</w>":8072,"faith</w>":8073,"advis":8074,"ssive</w>":8075,"attended</w>":8076,"teeth</w>":8077,"serious</w>":8078,"towel</w>":8079,"tar</w>":8080,"continues</w>":8081,"bee":8082,"memory</w>":8083,"photographs</w>":8084,"asted</w>":8085,"object</w>":8086,"exchange</w>":8087,"brides":8088,"pier</w>":8089,"barcelona</w>":8090,"integr":8091,"caught</w>":8092,"53</w>":8093,"cuts</w>":8094,"nutr":8095,"shared</w>":8096,"leads</w>":8097,"narrow</w>":8098,"backdrop</w>":8099,"ornament</w>":8100,"chevrolet</w>":8101,"newborn</w>":8102,"amel</w>":8103,"classical</w>":8104,"motive</w>":8105,"aviation</w>":8106,"bones</w>":8107,"seed</w>":8108,"tunnel</w>":8109,"insu":8110,"becomes</w>":8111,"story":8112,"olympics</w>":8113,"lip":8114,"ene":8115,"infe":8116,"category</w>":8117,"iner</w>":8118,"fear</w>":8119,"1994</w>":8120,"thumb":8121,"horizontal</w>":8122,"resources</w>":8123,"bat</w>":8124,"agreed</w>":8125,"serves</w>":8126,"stored</w>":8127,"turns</w>":8128,"faux</w>":8129,"looked</w>":8130,"hang</w>":8131,"ingu":8132,"opy</w>":8133,"composed</w>":8134,"ontar":8135,"beatles</w>":8136,"anch":8137,"ren</w>":8138,"world":8139,"tails</w>":8140,"determin":8141,"journ":8142,"branding</w>":8143,"zodiac</w>":8144,"futuristic</w>":8145,"fortun":8146,"tribal</w>":8147,"issued</w>":8148,"nfl</w>":8149,"structures</w>":8150,"miniature</w>":8151,"plaza</w>":8152,"vin</w>":8153,"retri":8154,"regional</w>":8155,"emper":8156,"smoking</w>":8157,"springs</w>":8158,"cig":8159,"overhead</w>":8160,"rist</w>":8161,"groo":8162,"shortly</w>":8163,"ican</w>":8164,"simul":8165,"mainten":8166,"risk</w>":8167,"shutter":8168,"ja</w>":8169,"lations</w>":8170,"tre</w>":8171,"ontario</w>":8172,"matches</w>":8173,"corn":8174,"maintenance</w>":8175,"effor":8176,"bathrooms</w>":8177,"assigned</w>":8178,"ots</w>":8179,"pipe</w>":8180,"gardening</w>":8181,"difference</w>":8182,"advanced</w>":8183,"idas</w>":8184,"eco":8185,"legis":8186,"identity</w>":8187,"sage</w>":8188,"ria</w>":8189,"allows</w>":8190,"chevy</w>":8191,"hedgehog</w>":8192,"aro":8193,"thanks</w>":8194,"com</w>":8195,"viewers</w>":8196,"owners</w>":8197,"footage</w>":8198,"deg":8199,"therapy</w>":8200,"clean":8201,"luxe</w>":8202,"odles</w>":8203,"eigh":8204,"tourism</w>":8205,"effort</w>":8206,"ffy</w>":8207,"avoid</w>":8208,"satin</w>":8209,"relief</w>":8210,"staircase</w>":8211,"ists</w>":8212,"1960s</w>":8213,"1970s</w>":8214,"tourists</w>":8215,"lap</w>":8216,"singles</w>":8217,"competit":8218,"dodge</w>":8219,"troit</w>":8220,"boot</w>":8221,"prevent</w>":8222,"latin</w>":8223,"skeleton</w>":8224,"sri</w>":8225,"casino</w>":8226,"detroit</w>":8227,"multi</w>":8228,"rena":8229,"tax":8230,"retail</w>":8231,"ola</w>":8232,"stores</w>":8233,"cowboy</w>":8234,"curly</w>":8235,"fish":8236,"mail</w>":8237,"congress</w>":8238,"dark":8239,"organized</w>":8240,"twenty</w>":8241,"agency</w>":8242,"cupcake</w>":8243,"rough":8244,"arrives</w>":8245,"ruins</w>":8246,"decal</w>":8247,"improve</w>":8248,"non":8249,"paid</w>":8250,"softw":8251,"adidas</w>":8252,"gain</w>":8253,"atar</w>":8254,"drum</w>":8255,"zero</w>":8256,"facility</w>":8257,"cargo</w>":8258,"peter</w>":8259,"kat":8260,"renaissance</w>":8261,"minimal</w>":8262,"ehouse</w>":8263,"capac":8264,"frames</w>":8265,"alt</w>":8266,"duty</w>":8267,"mosaic</w>":8268,"ita</w>":8269,"roots</w>":8270,"airman</w>":8271,"offen":8272,"ffle</w>":8273,"shes</w>":8274,"bunk</w>":8275,"housing</w>":8276,"lyn</w>":8277,"wet</w>":8278,"blazer</w>":8279,"pet":8280,"meadow</w>":8281,"calm</w>":8282,"suggested</w>":8283,"70":8284,"buted</w>":8285,"passes</w>":8286,"converse</w>":8287,"knitting</w>":8288,"sandwich</w>":8289,"metallic</w>":8290,"57</w>":8291,"software</w>":8292,"58</w>":8293,"thanks":8294,"eff":8295,"ethnic</w>":8296,"manufact":8297,"thanksgiving</w>":8298,"flam":8299,"loves</w>":8300,"sacred</w>":8301,"religion</w>":8302,"ikea</w>":8303,"lovers</w>":8304,"600</w>":8305,"showed</w>":8306,"blues</w>":8307,"string</w>":8308,"rio</w>":8309,"scoring</w>":8310,"tai":8311,"beij":8312,"blin</w>":8313,"negative</w>":8314,"del</w>":8315,"fictional</w>":8316,"acle</w>":8317,"arrivals</w>":8318,"teddy</w>":8319,"beijing</w>":8320,"dolph":8321,"northwest</w>":8322,"nap</w>":8323,"walt</w>":8324,"tradition</w>":8325,"grant</w>":8326,"chandeli":8327,"tors</w>":8328,"hai</w>":8329,"una</w>":8330,"customer</w>":8331,"mac</w>":8332,"angels</w>":8333,"massive</w>":8334,"warning</w>":8335,"elementary</w>":8336,"joy</w>":8337,"magical</w>":8338,"igan</w>":8339,"borough</w>":8340,"harbour</w>":8341,"dating</w>":8342,"volcan":8343,"roy</w>":8344,"kel":8345,"masks</w>":8346,"leans</w>":8347,"colonial</w>":8348,"tooth</w>":8349,"1992</w>":8350,"gloves</w>":8351,"diamon":8352,"degree</w>":8353,"textured</w>":8354,"transformers</w>":8355,"onia</w>":8356,"virgin":8357,"smooth":8358,"buying</w>":8359,"secretary</w>":8360,"restor":8361,"norway</w>":8362,"syl":8363,"paradise</w>":8364,"sap":8365,"croat":8366,"bollywood</w>":8367,"solo</w>":8368,"footwear</w>":8369,"finals</w>":8370,"contrast</w>":8371,"waii</w>":8372,"cheese":8373,"lincoln</w>":8374,"item</w>":8375,"prayer</w>":8376,"road":8377,"worldwide</w>":8378,"kir":8379,"yland</w>":8380,"iger":8381,"angular</w>":8382,"fis":8383,"adows</w>":8384,"hn":8385,"ask</w>":8386,"wis":8387,"tumbl":8388,"neighborhood</w>":8389,"face":8390,"tomato</w>":8391,"kitchens</w>":8392,"visited</w>":8393,"fing":8394,"ym":8395,"ene</w>":8396,"shutterstock</w>":8397,"ankle</w>":8398,"forever</w>":8399,"photographed</w>":8400,"cambridge</w>":8401,"israel</w>":8402,"rising</w>":8403,"pub</w>":8404,"holder</w>":8405,"ration</w>":8406,"aid</w>":8407,"boss</w>":8408,"introduction</w>":8409,"ero":8410,"66</w>":8411,"rhy":8412,"snacks</w>":8413,"deter":8414,"1990</w>":8415,"shepherd</w>":8416,"writers</w>":8417,"sex</w>":8418,"jump</w>":8419,"organiz":8420,"convention</w>":8421,"orch":8422,"bedding</w>":8423,"gods</w>":8424,"effective</w>":8425,"eness</w>":8426,"magne":8427,"bodies</w>":8428,"environmental</w>":8429,"rocket</w>":8430,"vements</w>":8431,"cheer":8432,"pairs</w>":8433,"ora</w>":8434,"gia</w>":8435,"stations</w>":8436,"lakes</w>":8437,"turning</w>":8438,"outer</w>":8439,"smooth</w>":8440,"meter</w>":8441,"weak":8442,"ear</w>":8443,"snack</w>":8444,"busy</w>":8445,"chelsea</w>":8446,"vo</w>":8447,"cart</w>":8448,"visiting</w>":8449,"milan</w>":8450,"trek</w>":8451,"cloth</w>":8452,"mist":8453,"zelda</w>":8454,"linen</w>":8455,"protein</w>":8456,"botanical</w>":8457,"tup</w>":8458,"hits</w>":8459,"majority</w>":8460,"cups</w>":8461,"spots</w>":8462,"dying</w>":8463,"peninsu":8464,"lighthouse</w>":8465,"pirate</w>":8466,"cliff</w>":8467,"liquid</w>":8468,"un</w>":8469,"attan</w>":8470,"carnival</w>":8471,"wai":8472,"weird</w>":8473,"ink":8474,"purchase</w>":8475,"decorate</w>":8476,"chemical</w>":8477,"stack</w>":8478,"beaches</w>":8479,"vampire</w>":8480,"wrapped</w>":8481,"opportunity</w>":8482,"confi":8483,"richard</w>":8484,"waste</w>":8485,"emperor</w>":8486,"gment</w>":8487,"handsome</w>":8488,"texts</w>":8489,"extension</w>":8490,"saree</w>":8491,"sound":8492,"knowledge</w>":8493,"24":8494,"braids</w>":8495,"85</w>":8496,"carol":8497,"alism</w>":8498,"divided</w>":8499,"mented</w>":8500,"peach</w>":8501,"arabic</w>":8502,"pointing</w>":8503,"pier":8504,"bucket</w>":8505,"pregnant</w>":8506,"try":8507,"hindu</w>":8508,"strap</w>":8509,"amph":8510,"connect</w>":8511,"aking</w>":8512,"experim":8513,"surf</w>":8514,"goods</w>":8515,"diamonds</w>":8516,"temperature</w>":8517,"helping</w>":8518,"reaching</w>":8519,"shi</w>":8520,"agne</w>":8521,"leadership</w>":8522,"adventures</w>":8523,"audi</w>":8524,"ore":8525,"goat</w>":8526,"strike</w>":8527,"touch":8528,"prices</w>":8529,"meters</w>":8530,"grain</w>":8531,"rum</w>":8532,"races</w>":8533,"virus</w>":8534,"itude</w>":8535,"meets</w>":8536,"polar</w>":8537,"receive</w>":8538,"alumin":8539,"ffel</w>":8540,"reality</w>":8541,"tang":8542,"seal</w>":8543,"locations</w>":8544,"feeding</w>":8545,"charm</w>":8546,"malaysia</w>":8547,"personnel</w>":8548,"helps</w>":8549,"fighters</w>":8550,"anyone</w>":8551,"trim</w>":8552,"devil</w>":8553,"dramatic</w>":8554,"iel</w>":8555,"drew</w>":8556,"confe":8557,"admi":8558,"chip</w>":8559,"seconds</w>":8560,"smiles</w>":8561,"moments</w>":8562,"space":8563,"cus</w>":8564,"bohe":8565,"istics</w>":8566,"dental</w>":8567,"resolution</w>":8568,"59</w>":8569,"terrier</w>":8570,"stress</w>":8571,"seats</w>":8572,"assistant</w>":8573,"conflic":8574,"jordan</w>":8575,"orche":8576,"calls</w>":8577,"su</w>":8578,"picnic</w>":8579,"hardwood</w>":8580,"dust</w>":8581,"thank</w>":8582,"succe":8583,"makeover</w>":8584,"charts</w>":8585,"draft</w>":8586,"bush</w>":8587,"passenger</w>":8588,"subur":8589,"1993</w>":8590,"ai":8591,"lix</w>":8592,"engineer</w>":8593,"pottery</w>":8594,"prepare</w>":8595,"absolu":8596,"soap</w>":8597,"tape</w>":8598,"reu":8599,"claim</w>":8600,"ornaments</w>":8601,"vene":8602,"teenage</w>":8603,"1991</w>":8604,"profess":8605,"copies</w>":8606,"send</w>":8607,"circular</w>":8608,"nuts</w>":8609,"depar":8610,"evolution</w>":8611,"performances</w>":8612,"enting</w>":8613,"knife</w>":8614,"architect</w>":8615,"madrid</w>":8616,"liberty</w>":8617,"broadcast</w>":8618,"badge</w>":8619,"maxi</w>":8620,"1950s</w>":8621,"southeast</w>":8622,"knit</w>":8623,"scary</w>":8624,"scenery</w>":8625,"displays</w>":8626,"interpre":8627,"mate</w>":8628,"educational</w>":8629,"dle</w>":8630,"existing</w>":8631,"brief":8632,"runner</w>":8633,"ime</w>":8634,"authority</w>":8635,"77</w>":8636,"attacks</w>":8637,"hip":8638,"jo</w>":8639,"lest</w>":8640,"suffered</w>":8641,"asts</w>":8642,"virginia</w>":8643,"candles</w>":8644,"8th</w>":8645,"gi</w>":8646,"layers</w>":8647,"instruments</w>":8648,"necessary</w>":8649,"angles</w>":8650,"kshire</w>":8651,"shang":8652,"carrier</w>":8653,"ku</w>":8654,"1970</w>":8655,"vic</w>":8656,"exp":8657,"filming</w>":8658,"76</w>":8659,"package</w>":8660,"ign":8661,"beside</w>":8662,"sixth</w>":8663,"electronic</w>":8664,"eless</w>":8665,"sequence</w>":8666,"dedicated</w>":8667,"gru":8668,"remain</w>":8669,"emblem</w>":8670,"isn</w>":8671,"wrestling</w>":8672,"banks</w>":8673,"tutorials</w>":8674,"ilers</w>":8675,"safari</w>":8676,"gely</w>":8677,"spoke</w>":8678,"accent</w>":8679,"boxing</w>":8680,"retreat</w>":8681,"must":8682,"tral</w>":8683,"celebrating</w>":8684,"subsequently</w>":8685,"pineapple</w>":8686,"vanity</w>":8687,"twel":8688,"marina</w>":8689,"artistic</w>":8690,"heaven</w>":8691,"connection</w>":8692,"accu":8693,"jack</w>":8694,"somewhere</w>":8695,"peninsula</w>":8696,"neutral</w>":8697,"concent":8698,"parallel</w>":8699,"nis":8700,"cade</w>":8701,"compon":8702,"mont":8703,"bohemi":8704,"hot":8705,"policy</w>":8706,"not":8707,"truth</w>":8708,"oval</w>":8709,"develop</w>":8710,"reflection</w>":8711,"eries</w>":8712,"hundre":8713,"meant</w>":8714,"dal":8715,"wants</w>":8716,"pork</w>":8717,"advance</w>":8718,"putting</w>":8719,"peanut</w>":8720,"bling</w>":8721,"perspective</w>":8722,"speaks</w>":8723,"colourful</w>":8724,"abbey</w>":8725,"disco":8726,"mosco":8727,"marines</w>":8728,"advice</w>":8729,"classes</w>":8730,"archi":8731,"earned</w>":8732,"maximum</w>":8733,"grown</w>":8734,"domestic</w>":8735,"72</w>":8736,"officially</w>":8737,"icient</w>":8738,"incorpor":8739,"bishop</w>":8740,"cage</w>":8741,"ssy</w>":8742,"allowing</w>":8743,"method</w>":8744,"planets</w>":8745,"philo":8746,"situation</w>":8747,"faced</w>":8748,"io":8749,"fallen</w>":8750,"sources</w>":8751,"atmosphere</w>":8752,"merry</w>":8753,"overlooking</w>":8754,"tact":8755,"sharing</w>":8756,"responsible</w>":8757,"nyc</w>":8758,"alcohol</w>":8759,"patch</w>":8760,"ibi":8761,"rick</w>":8762,"dges</w>":8763,"miss":8764,"moscow</w>":8765,"tax</w>":8766,"champagne</w>":8767,"administration</w>":8768,"adorable</w>":8769,"esp":8770,"bond</w>":8771,"rein":8772,"quarter":8773,"scrat":8774,"waist</w>":8775,"panda</w>":8776,"elf</w>":8777,"gues":8778,"inspe":8779,"bacon</w>":8780,"audio</w>":8781,"pickup</w>":8782,"sustain":8783,"lightning</w>":8784,"prison</w>":8785,"capit":8786,"worst</w>":8787,"airlines</w>":8788,"vice</w>":8789,"triple</w>":8790,"1980s</w>":8791,"dairy</w>":8792,"eland</w>":8793,"lis":8794,"promin":8795,"samu":8796,"apolis</w>":8797,"arrival</w>":8798,"cc</w>":8799,"sandals</w>":8800,"ley":8801,"prepared</w>":8802,"orders</w>":8803,"option</w>":8804,"jesus</w>":8805,"phase</w>":8806,"guesthouse</w>":8807,"youtube</w>":8808,"favour":8809,"licen":8810,"modu":8811,"speaking</w>":8812,"feather</w>":8813,"measu":8814,"pile</w>":8815,"orleans</w>":8816,"lily</w>":8817,"tomatoes</w>":8818,"zerland</w>":8819,"switzerland</w>":8820,"cking</w>":8821,"ille</w>":8822,"aspe":8823,"renovation</w>":8824,"williams</w>":8825,"rho":8826,"communication</w>":8827,"fare</w>":8828,"arranged</w>":8829,"danger":8830,"veland</w>":8831,"fame</w>":8832,"accessory</w>":8833,"hundreds</w>":8834,"consul":8835,"rich":8836,"trial</w>":8837,"reef</w>":8838,"1989</w>":8839,"founded</w>":8840,"mol":8841,"drops</w>":8842,"weekly</w>":8843,"motel</w>":8844,"arrangement</w>":8845,"manor</w>":8846,"porce":8847,"referred</w>":8848,"creamy</w>":8849,"dynam":8850,"jas":8851,"cia</w>":8852,"thor":8853,"occasion</w>":8854,"ettes</w>":8855,"90s</w>":8856,"tablet</w>":8857,"iv</w>":8858,"stive</w>":8859,"gin</w>":8860,"vul":8861,"loy":8862,"presence</w>":8863,"chips</w>":8864,"underground</w>":8865,"lose</w>":8866,"ables</w>":8867,"passengers</w>":8868,"flan":8869,"potatoes</w>":8870,"whi":8871,"enemy</w>":8872,"porcelain</w>":8873,"remin":8874,"customers</w>":8875,"laven":8876,"broke</w>":8877,"mythology</w>":8878,"beans</w>":8879,"rating</w>":8880,"swiss</w>":8881,"goddess</w>":8882,"timber</w>":8883,"accoun":8884,"dropped</w>":8885,"logi":8886,"hydro":8887,"invas":8888,"samsung</w>":8889,"63</w>":8890,"playground</w>":8891,"consider</w>":8892,"solutions</w>":8893,"metry</w>":8894,"ender</w>":8895,"hunt</w>":8896,"haven</w>":8897,"ared</w>":8898,"salmon</w>":8899,"02</w>":8900,"mesh</w>":8901,"sse</w>":8902,"circuit</w>":8903,"ived</w>":8904,"moroc":8905,"destinations</w>":8906,"sunshine</w>":8907,"territory</w>":8908,"legacy</w>":8909,"raff":8910,"internal</w>":8911,"photoshop</w>":8912,"stretch</w>":8913,"ativity</w>":8914,"tx</w>":8915,"bage</w>":8916,"psycho":8917,"accompan":8918,"lover</w>":8919,"couples</w>":8920,"oldest</w>":8921,"actresses</w>":8922,"09</w>":8923,"bag":8924,"twice</w>":8925,"reduced</w>":8926,"asis</w>":8927,"inth</w>":8928,"jobs</w>":8929,"kick</w>":8930,"protective</w>":8931,"sculptures</w>":8932,"flyer</w>":8933,"proposal</w>":8934,"efforts</w>":8935,"offering</w>":8936,"stol</w>":8937,"reveal</w>":8938,"lavender</w>":8939,"filling</w>":8940,"03</w>":8941,"illi":8942,"stra</w>":8943,"phar":8944,"kim":8945,"economy</w>":8946,"visions</w>":8947,"sight</w>":8948,"cells</w>":8949,"legends</w>":8950,"lus</w>":8951,"playstation</w>":8952,"horse":8953,"78</w>":8954,"aa</w>":8955,"twist</w>":8956,"ee</w>":8957,"jen":8958,"predic":8959,"starts</w>":8960,"kan":8961,"aust":8962,"ferr":8963,"handbags</w>":8964,"wron":8965,"vibr":8966,"deplo":8967,"argent":8968,"alised</w>":8969,"brooklyn</w>":8970,"injury</w>":8971,"anger</w>":8972,"nast":8973,"det":8974,"unable</w>":8975,"pride</w>":8976,"lement</w>":8977,"simpsons</w>":8978,"mates</w>":8979,"depicting</w>":8980,"strip</w>":8981,"invitations</w>":8982,"blossom</w>":8983,"kal":8984,"slope</w>":8985,"aggre":8986,"avian</w>":8987,"stang</w>":8988,"glaci":8989,"kish</w>":8990,"mann</w>":8991,"illery</w>":8992,"farmer</w>":8993,"loose</w>":8994,"bbles</w>":8995,"jewish</w>":8996,"christ</w>":8997,"edward</w>":8998,"warriors</w>":8999,"defeat</w>":9000,"represent</w>":9001,"jam</w>":9002,"spotted</w>":9003,"stood</w>":9004,"05</w>":9005,"towers</w>":9006,"mustang</w>":9007,"managed</w>":9008,"lamps</w>":9009,"revi":9010,"poland</w>":9011,"foreground</w>":9012,"panor":9013,"chu":9014,"inge</w>":9015,"marath":9016,"professor</w>":9017,"consider":9018,"traveling</w>":9019,"flas":9020,"crafted</w>":9021,"consu":9022,"team":9023,"tire</w>":9024,"artificial</w>":9025,"cleveland</w>":9026,"casting</w>":9027,"steamp":9028,"62</w>":9029,"attacked</w>":9030,"mirro":9031,"steampunk</w>":9032,"pepper</w>":9033,"tales</w>":9034,"peter":9035,"facilities</w>":9036,"penguin</w>":9037,"males</w>":9038,"containing</w>":9039,"08</w>":9040,"diesel</w>":9041,"mani":9042,"spray</w>":9043,"sunflower</w>":9044,"mayor</w>":9045,"wealth</w>":9046,"opens</w>":9047,"rally</w>":9048,"mystery</w>":9049,"dred</w>":9050,"rine</w>":9051,"ishment</w>":9052,"design":9053,"crash</w>":9054,"sab":9055,"good":9056,"sten":9057,"capacity</w>":9058,"sumed</w>":9059,"allo":9060,"tells</w>":9061,"respectively</w>":9062,"sioned</w>":9063,"accommo":9064,"oce":9065,"circus</w>":9066,"scandin":9067,"elected</w>":9068,"celebs</w>":9069,"advertis":9070,"bre</w>":9071,"agent</w>":9072,"calcul":9073,"user</w>":9074,"customi":9075,"largely</w>":9076,"kee</w>":9077,"dock</w>":9078,"skinny</w>":9079,"kok</w>":9080,"ular</w>":9081,"keeper</w>":9082,"providing</w>":9083,"insur":9084,"dium</w>":9085,"bohemian</w>":9086,"epic</w>":9087,"except</w>":9088,"mem":9089,"800</w>":9090,"celtic</w>":9091,"galo":9092,"railroad</w>":9093,"account</w>":9094,"harmon":9095,"protest</w>":9096,"mood</w>":9097,"presidential</w>":9098,"afp</w>":9099,"dent":9100,"mat</w>":9101,"awareness</w>":9102,"valentines</w>":9103,"craf":9104,"61</w>":9105,"occup":9106,"crimin":9107,"choosing</w>":9108,"depth</w>":9109,"ares</w>":9110,"surprise</w>":9111,"supporting</w>":9112,"fat":9113,"ivory</w>":9114,"snowy</w>":9115,"garlic</w>":9116,"hosted</w>":9117,"else</w>":9118,"strateg":9119,"kitchen":9120,"infinity</w>":9121,"representing</w>":9122,"1969</w>":9123,"recru":9124,"phan":9125,"derly</w>":9126,"jones</w>":9127,"distribution</w>":9128,"chro":9129,"occurred</w>":9130,"gulf</w>":9131,"arsen":9132,"ffon</w>":9133,"literature</w>":9134,"tied</w>":9135,"merch":9136,"buddh":9137,"progress</w>":9138,"salon</w>":9139,"ordinary</w>":9140,"sley</w>":9141,"semi</w>":9142,"southwest</w>":9143,"bbc</w>":9144,"preparing</w>":9145,"phra":9146,"achu":9147,"billion</w>":9148,"brings</w>":9149,"apart</w>":9150,"dough</w>":9151,"quiet</w>":9152,"dal</w>":9153,"receiving</w>":9154,"task</w>":9155,"returns</w>":9156,"initi":9157,"though":9158,"andre":9159,"1968</w>":9160,"dangerous</w>":9161,"cheesecake</w>":9162,"device</w>":9163,"extr":9164,"scientific</w>":9165,"personalized</w>":9166,"seems</w>":9167,"hill":9168,"chandelier</w>":9169,"measure</w>":9170,"myster":9171,"tend</w>":9172,"uro</w>":9173,"satis":9174,"skate":9175,"perman":9176,"relaxing</w>":9177,"crime</w>":9178,"wrist</w>":9179,"graduate</w>":9180,"originals</w>":9181,"treats</w>":9182,"rental</w>":9183,"blur":9184,"tenant</w>":9185,"appli":9186,"67</w>":9187,"ec":9188,"metro</w>":9189,"04</w>":9190,"dublin</w>":9191,"07</w>":9192,"bear":9193,"superman</w>":9194,"convers":9195,"mock</w>":9196,"heard</w>":9197,"retired</w>":9198,"vanilla</w>":9199,"hilar":9200,"white":9201,"tionary</w>":9202,"upcoming</w>":9203,"cyclone</w>":9204,"mole":9205,"planes</w>":9206,"06</w>":9207,"humans</w>":9208,"portugal</w>":9209,"cout":9210,"spirit":9211,"discovery</w>":9212,"96</w>":9213,"vote</w>":9214,"documents</w>":9215,"employees</w>":9216,"astrono":9217,"application</w>":9218,"survival</w>":9219,"chanel</w>":9220,"postcard</w>":9221,"sticks</w>":9222,"ronau":9223,"trin":9224,"sno":9225,"fog</w>":9226,"dding</w>":9227,"roasted</w>":9228,"fusion</w>":9229,"bringing</w>":9230,"aboard</w>":9231,"instant</w>":9232,"quest</w>":9233,"circles</w>":9234,"properties</w>":9235,"polo</w>":9236,"talks</w>":9237,"gender</w>":9238,"declared</w>":9239,"fou":9240,"rod</w>":9241,"versions</w>":9242,"dream":9243,"laying</w>":9244,"answer</w>":9245,"trunk</w>":9246,"astronau":9247,"darkness</w>":9248,"alli":9249,"prison":9250,"fellow</w>":9251,"manufac":9252,"moves</w>":9253,"1980</w>":9254,"importance</w>":9255,"agreement</w>":9256,"country":9257,"promis":9258,"1920</w>":9259,"closure</w>":9260,"reje":9261,"motivational</w>":9262,"pm</w>":9263,"uts</w>":9264,"kawaii</w>":9265,"strange</w>":9266,"os":9267,"andro":9268,"florida</w>":9269,"reduce</w>":9270,"finds</w>":9271,"human":9272,"scheme</w>":9273,"machines</w>":9274,"fake</w>":9275,"remodel</w>":9276,"resting</w>":9277,"tractor</w>":9278,"attempted</w>":9279,"thr":9280,"ual":9281,"seaf":9282,"sweden</w>":9283,"rides</w>":9284,"mely</w>":9285,"raise</w>":9286,"loop</w>":9287,"messages</w>":9288,"bali</w>":9289,"rup":9290,"wheat</w>":9291,"anton":9292,"1984</w>":9293,"epy</w>":9294,"ben</w>":9295,"republic":9296,"inscription</w>":9297,"teach":9298,"prize</w>":9299,"path":9300,"firm</w>":9301,"represented</w>":9302,"architects</w>":9303,"athletic</w>":9304,"plaid</w>":9305,"orts</w>":9306,"frank":9307,"nutrition</w>":9308,"71</w>":9309,"dynast":9310,"democratic</w>":9311,"md</w>":9312,"pitch</w>":9313,"beng":9314,"strate":9315,"nuclear</w>":9316,"embroidered</w>":9317,"testing</w>":9318,"rian</w>":9319,"threat":9320,"extreme</w>":9321,"thumb</w>":9322,"farmers</w>":9323,"texas</w>":9324,"returning</w>":9325,"ira":9326,"actus</w>":9327,"cylin":9328,"measures</w>":9329,"motivation</w>":9330,"friendship</w>":9331,"defence</w>":9332,"tul":9333,"ingo</w>":9334,"blog":9335,"continental</w>":9336,"osc":9337,"sin</w>":9338,"tarian</w>":9339,"grid</w>":9340,"andy</w>":9341,"politan</w>":9342,"sounds</w>":9343,"ili":9344,"cooker</w>":9345,"archae":9346,"purchased</w>":9347,"inum</w>":9348,"stripes</w>":9349,"sture</w>":9350,"feed</w>":9351,"gings</w>":9352,"ums</w>":9353,"resulted</w>":9354,"gar</w>":9355,"outlet</w>":9356,"etings</w>":9357,"electrical</w>":9358,"paired</w>":9359,"88</w>":9360,"setup</w>":9361,"edin":9362,"squad</w>":9363,"fired</w>":9364,"wishes</w>":9365,"exhibit</w>":9366,"gat":9367,"chiffon</w>":9368,"squir":9369,"cinnam":9370,"card":9371,"kits</w>":9372,"lanka</w>":9373,"conservation</w>":9374,"mushroom</w>":9375,"technical</w>":9376,"judge</w>":9377,"brad":9378,"extremely</w>":9379,"ager</w>":9380,"game":9381,"commissioned</w>":9382,"bangkok</w>":9383,"snap</w>":9384,"modeling</w>":9385,"ah":9386,"sens":9387,"yan":9388,"missed</w>":9389,"operating</w>":9390,"discount</w>":9391,"switch</w>":9392,"chy</w>":9393,"headed</w>":9394,"gging</w>":9395,"appeal</w>":9396,"indig":9397,"equal</w>":9398,"pred":9399,"apo":9400,"crack":9401,"fits</w>":9402,"restric":9403,"tau":9404,"1967</w>":9405,"avoc":9406,"mega</w>":9407,"therefore</w>":9408,"chosen</w>":9409,"gola</w>":9410,"cannes</w>":9411,"parked</w>":9412,"menti":9413,"east":9414,"ania</w>":9415,"poem</w>":9416,"rai":9417,"1986</w>":9418,"tally</w>":9419,"impressive</w>":9420,"alists</w>":9421,"restoration</w>":9422,"engraving</w>":9423,"festive</w>":9424,"everyday</w>":9425,"short":9426,"vine":9427,"speaker</w>":9428,"pad":9429,"shri":9430,"1987</w>":9431,"pitts":9432,"rose":9433,"padd":9434,"rons</w>":9435,"woodworking</w>":9436,"accepted</w>":9437,"rays</w>":9438,"tially</w>":9439,"25":9440,"templates</w>":9441,"mars</w>":9442,"station":9443,"extra":9444,"pically</w>":9445,"northeast</w>":9446,"hacks</w>":9447,"loco":9448,"boyfriend</w>":9449,"vans</w>":9450,"mist</w>":9451,"progre":9452,"creature</w>":9453,"tag":9454,"mau":9455,"expansion</w>":9456,"indonesia</w>":9457,"hunter</w>":9458,"ith":9459,"lesson</w>":9460,"onna</w>":9461,"gentle":9462,"lieu":9463,"spiritual</w>":9464,"mehn":9465,"couture</w>":9466,"mehndi</w>":9467,"missions</w>":9468,"turkish</w>":9469,"gained</w>":9470,"jel":9471,"romance</w>":9472,"wea":9473,"pergola</w>":9474,"supplied</w>":9475,"relatively</w>":9476,"bridesmaid</w>":9477,"silhouettes</w>":9478,"losing</w>":9479,"attempts</w>":9480,"bomb</w>":9481,"cactus</w>":9482,"reports</w>":9483,"opin":9484,"1988</w>":9485,"exercis":9486,"skirts</w>":9487,"cinnamon</w>":9488,"17th</w>":9489,"stamp</w>":9490,"zar":9491,"sections</w>":9492,"promotion</w>":9493,"wrong</w>":9494,"junction</w>":9495,"nor</w>":9496,"cho</w>":9497,"belle</w>":9498,"lb</w>":9499,"rider</w>":9500,"caucas":9501,"zard</w>":9502,"1960</w>":9503,"washing</w>":9504,"chalk</w>":9505,"charity</w>":9506,"platinum</w>":9507,"refused</w>":9508,"29":9509,"gau":9510,"herself</w>":9511,"kg</w>":9512,"younger</w>":9513,"1940</w>":9514,"exercises</w>":9515,"mainly</w>":9516,"oli":9517,"laboratory</w>":9518,"expression</w>":9519,"jokes</w>":9520,"dwar":9521,"brilli":9522,"oak":9523,"arsenal</w>":9524,"horizon</w>":9525,"waving</w>":9526,"austria</w>":9527,"ila</w>":9528,"modest</w>":9529,"stages</w>":9530,"monsters</w>":9531,"cci</w>":9532,"hostel</w>":9533,"wallet</w>":9534,"sheets</w>":9535,"partner</w>":9536,"porters</w>":9537,"disc</w>":9538,"navig":9539,"sandy</w>":9540,"strategy</w>":9541,"twelve</w>":9542,"gt</w>":9543,"denver</w>":9544,"aph":9545,"cash</w>":9546,"bakery</w>":9547,"olet</w>":9548,"stem</w>":9549,"expedition</w>":9550,"edi":9551,"habitat</w>":9552,"sue":9553,"crossed</w>":9554,"afford":9555,"79</w>":9556,"textile</w>":9557,"need":9558,"isometric</w>":9559,"venues</w>":9560,"countryside</w>":9561,"pools</w>":9562,"primar":9563,"manh":9564,"coordin":9565,"ginger</w>":9566,"resulting</w>":9567,"shanghai</w>":9568,"pad</w>":9569,"hundred</w>":9570,"transfer</w>":9571,"cattle</w>":9572,"oning</w>":9573,"adjust":9574,"conce":9575,"appreci":9576,"uniforms</w>":9577,"automatic</w>":9578,"goal":9579,"stan</w>":9580,"diving</w>":9581,"struck</w>":9582,"designated</w>":9583,"exposed</w>":9584,"patrol</w>":9585,"ira</w>":9586,"ored</w>":9587,"250</w>":9588,"understand</w>":9589,"ude</w>":9590,"wins</w>":9591,"cryst":9592,"typically</w>":9593,"palette</w>":9594,"fications</w>":9595,"1985</w>":9596,"proto":9597,"bros</w>":9598,"regions</w>":9599,"aim":9600,"automobile</w>":9601,"leggings</w>":9602,"femin":9603,"elderly</w>":9604,"enna</w>":9605,"ns":9606,"muscles</w>":9607,"console</w>":9608,"styling</w>":9609,"conducted</w>":9610,"raising</w>":9611,"lized</w>":9612,"chose</w>":9613,"consists</w>":9614,"emerald</w>":9615,"boeing</w>":9616,"intelligence</w>":9617,"mise</w>":9618,"honey":9619,"yorkshire</w>":9620,"bug</w>":9621,"80s</w>":9622,"eno":9623,"body":9624,"entary</w>":9625,"melon</w>":9626,"69</w>":9627,"giraff":9628,"applied</w>":9629,"remote</w>":9630,"grew</w>":9631,"laser</w>":9632,"pirates</w>":9633,"desh</w>":9634,"teenth</w>":9635,"explained</w>":9636,"arab</w>":9637,"pop":9638,"warehouse</w>":9639,"tender</w>":9640,"spark":9641,"1966</w>":9642,"hilarious</w>":9643,"protected</w>":9644,"madonna</w>":9645,"feathers</w>":9646,"scandinavian</w>":9647,"edinburgh</w>":9648,"lens</w>":9649,"teal</w>":9650,"personality</w>":9651,"shelter</w>":9652,"replacement</w>":9653,"logist</w>":9654,"powers</w>":9655,"master":9656,"closer</w>":9657,"burgun":9658,"pavil":9659,"kur":9660,"che</w>":9661,"possibly</w>":9662,"1942</w>":9663,"lieutenant</w>":9664,"shares</w>":9665,"1965</w>":9666,"operated</w>":9667,"ferrari</w>":9668,"musician</w>":9669,"ultimately</w>":9670,"affordable</w>":9671,"flat":9672,"villas</w>":9673,"bristol</w>":9674,"mud</w>":9675,"programs</w>":9676,"pyramid</w>":9677,"zomb":9678,"reuters</w>":9679,"facebook</w>":9680,"guitars</w>":9681,"gad":9682,"virtual</w>":9683,"gold":9684,"dots</w>":9685,"insurance</w>":9686,"amster":9687,"affected</w>":9688,"leban":9689,"mber":9690,"attri":9691,"ements</w>":9692,"coloured</w>":9693,"lighted</w>":9694,"decals</w>":9695,"herbs</w>":9696,"happen":9697,"enn":9698,"broadway</w>":9699,"hul":9700,"actual</w>":9701,"amsterdam</w>":9702,"38":9703,"dirt</w>":9704,"perh":9705,"surgery</w>":9706,"tees</w>":9707,"penn":9708,"pied</w>":9709,"1975</w>":9710,"sisters</w>":9711,"creates</w>":9712,"resorts</w>":9713,"girl":9714,"offices</w>":9715,"tanks</w>":9716,"ji":9717,"dried</w>":9718,"rap":9719,"increasing</w>":9720,"vegetarian</w>":9721,"spend</w>":9722,"74</w>":9723,"cedar</w>":9724,"collap":9725,"manhattan</w>":9726,"natur":9727,"pregnancy</w>":9728,"fine":9729,"say":9730,"widely</w>":9731,"rose</w>":9732,"causing</w>":9733,"montre":9734,"claims</w>":9735,"modified</w>":9736,"portland</w>":9737,"spring":9738,"elim":9739,"transm":9740,"vocals</w>":9741,"perhaps</w>":9742,"inary</w>":9743,"matte</w>":9744,"haun":9745,"perio":9746,"approved</w>":9747,"molecu":9748,"repl":9749,"spice</w>":9750,"opp":9751,"collections</w>":9752,"zoo":9753,"burgundy</w>":9754,"bunch</w>":9755,"forum</w>":9756,"tribute</w>":9757,"individuals</w>":9758,"jagu":9759,"1945</w>":9760,"commented</w>":9761,"nego":9762,"deluxe</w>":9763,"lantern</w>":9764,"confirmed</w>":9765,"splash</w>":9766,"search":9767,"cancel":9768,"poke":9769,"but":9770,"opposite</w>":9771,"rements</w>":9772,"mich":9773,"primarily</w>":9774,"bees</w>":9775,"toms</w>":9776,"dirty</w>":9777,"kinds</w>":9778,"hybri":9779,"allied</w>":9780,"hawk</w>":9781,"mingham</w>":9782,"wick</w>":9783,"tail":9784,"flag":9785,"raid</w>":9786,"midi</w>":9787,"rivers</w>":9788,"random</w>":9789,"ulty</w>":9790,"tens</w>":9791,"pokemon</w>":9792,"severe</w>":9793,"focused</w>":9794,"rage</w>":9795,"perfectly</w>":9796,"research":9797,"observed</w>":9798,"advantage</w>":9799,"aths</w>":9800,"sharp</w>":9801,"files</w>":9802,"laughing</w>":9803,"roller</w>":9804,"bald</w>":9805,"soundtrack</w>":9806,"dee":9807,"clown</w>":9808,"babies</w>":9809,"kinder":9810,"1964</w>":9811,"nc</w>":9812,"heels</w>":9813,"1950</w>":9814,"entic</w>":9815,"anchor</w>":9816,"mandala</w>":9817,"tine</w>":9818,"ml</w>":9819,"trousers</w>":9820,"rable</w>":9821,"authentic</w>":9822,"happiness</w>":9823,"73</w>":9824,"ao</w>":9825,"fers</w>":9826,"1944</w>":9827,"alber":9828,"13th</w>":9829,"favourite</w>":9830,"seafood</w>":9831,"accur":9832,"conve":9833,"itely</w>":9834,"seventh</w>":9835,"kenne":9836,"ports</w>":9837,"intersection</w>":9838,"vania</w>":9839,"beads</w>":9840,"dron":9841,"icking</w>":9842,"secondary</w>":9843,"playo":9844,"carolina</w>":9845,"speak</w>":9846,"cruiser</w>":9847,"thousand</w>":9848,"mentation</w>":9849,"resident</w>":9850,"bin</w>":9851,"dancer</w>":9852,"labels</w>":9853,"rif":9854,"swedish</w>":9855,"similar":9856,"lightweight</w>":9857,"costa</w>":9858,"kitchenette</w>":9859,"saints</w>":9860,"92</w>":9861,"posted</w>":9862,"converted</w>":9863,"root</w>":9864,"gala</w>":9865,"artillery</w>":9866,"definition</w>":9867,"saving</w>":9868,"sal</w>":9869,"ima</w>":9870,"address</w>":9871,"bever":9872,"sme":9873,"sliding</w>":9874,"restored</w>":9875,"zip</w>":9876,"insects</w>":9877,"ears</w>":9878,"extensive</w>":9879,"slow":9880,"rai</w>":9881,"ditionally</w>":9882,"demand</w>":9883,"ours</w>":9884,"bul</w>":9885,"garten</w>":9886,"cardboard</w>":9887,"lyn":9888,"identified</w>":9889,"sea":9890,"doub":9891,"ites</w>":9892,"otto":9893,"swim</w>":9894,"bungalo":9895,"ttle</w>":9896,"learned</w>":9897,"michigan</w>":9898,"negoti":9899,"developing</w>":9900,"cker</w>":9901,"cocktails</w>":9902,"fluffy</w>":9903,"successfully</w>":9904,"controlled</w>":9905,"hardware</w>":9906,"cies</w>":9907,"uss</w>":9908,"mbled</w>":9909,"1979</w>":9910,"dav":9911,"shake</w>":9912,"crisis</w>":9913,"arian</w>":9914,"gathering</w>":9915,"dynasty</w>":9916,"inju":9917,"heavily</w>":9918,"yan</w>":9919,"97</w>":9920,"invasion</w>":9921,"mrs</w>":9922,"mathe":9923,"flavor</w>":9924,"killing</w>":9925,"brief</w>":9926,"basin</w>":9927,"packed</w>":9928,"walker</w>":9929,"survive</w>":9930,"blend</w>":9931,"nan":9932,"birmingham</w>":9933,"kitten</w>":9934,"statues</w>":9935,"sweat":9936,"98</w>":9937,"moon":9938,"nights</w>":9939,"auction</w>":9940,"xbox</w>":9941,"mario</w>":9942,"pittsburgh</w>":9943,"diary</w>":9944,"ione":9945,"antonio</w>":9946,"acres</w>":9947,"influenced</w>":9948,"represents</w>":9949,"austin</w>":9950,"1941</w>":9951,"sunlight</w>":9952,"murals</w>":9953,"depot</w>":9954,"lipstick</w>":9955,"marathon</w>":9956,"defined</w>":9957,"terri":9958,"franch":9959,"circul":9960,"cked</w>":9961,"jama":9962,"collected</w>":9963,"bomber</w>":9964,"admiral</w>":9965,"woodland</w>":9966,"bris":9967,"gang":9968,"rasp":9969,"technique</w>":9970,"mia</w>":9971,"terminal</w>":9972,"ston":9973,"ladder</w>":9974,"plenty</w>":9975,"sony</w>":9976,"ress</w>":9977,"thesis</w>":9978,"regarding</w>":9979,"iron":9980,"87</w>":9981,"sought</w>":9982,"butterflies</w>":9983,"nova</w>":9984,"wagon</w>":9985,"acre</w>":9986,"harvest</w>":9987,"engaged</w>":9988,"wonder</w>":9989,"aria</w>":9990,"benz</w>":9991,"jose":9992,"charming</w>":9993,"stating</w>":9994,"emph":9995,"quarantine</w>":9996,"laws</w>":9997,"dancers</w>":9998,"horn</w>":9999,"appropri":10000,"nissan</w>":10001,"principal</w>":10002,"tests</w>":10003,"itation</w>":10004,"maternity</w>":10005,"designers</w>":10006,"viking</w>":10007,"dip</w>":10008,"arrive</w>":10009,"montreal</w>":10010,"luxur":10011,"volk":10012,"ilton</w>":10013,"outstanding</w>":10014,"costs</w>":10015,"munici":10016,"experienced</w>":10017,"glowing</w>":10018,"copy":10019,"demic</w>":10020,"instructions</w>":10021,"brand":10022,"fix</w>":10023,"kent</w>":10024,"avocado</w>":10025,"avatar</w>":10026,"fashion":10027,"bree":10028,"fused</w>":10029,"update</w>":10030,"94</w>":10031,"harley</w>":10032,"alem</w>":10033,"cils</w>":10034,"caucasian</w>":10035,"unlike</w>":10036,"voted</w>":10037,"bridges</w>":10038,"weigh":10039,"keyboard</w>":10040,"tack":10041,"voy":10042,"jets</w>":10043,"jerus":10044,"ik":10045,"exce":10046,"greg":10047,"thrones</w>":10048,"decade</w>":10049,"ensure</w>":10050,"listening</w>":10051,"prominent</w>":10052,"nominated</w>":10053,"hay":10054,"fu</w>":10055,"has":10056,"inspiring</w>":10057,"ms":10058,"causes</w>":10059,"jerusalem</w>":10060,"ian":10061,"health":10062,"rainy</w>":10063,"suede</w>":10064,"destri":10065,"commonly</w>":10066,"sick</w>":10067,"drum":10068,"hook</w>":10069,"reaction</w>":10070,"pixar</w>":10071,"optim":10072,"leice":10073,"booth</w>":10074,"1972</w>":10075,"leicester</w>":10076,"pedestri":10077,"tism</w>":10078,"aya</w>":10079,"landscapes</w>":10080,"mare</w>":10081,"td</w>":10082,"employee</w>":10083,"vogue</w>":10084,"inser":10085,"cuis":10086,"eiffel</w>":10087,"lock":10088,"360</w>":10089,"scenic</w>":10090,"pavilion</w>":10091,"fas":10092,"planting</w>":10093,"guides</w>":10094,"caramel</w>":10095,"hua</w>":10096,"16th</w>":10097,"sanct":10098,"81</w>":10099,"enjoyed</w>":10100,"secrets</w>":10101,"poetry</w>":10102,"transferred</w>":10103,"convin":10104,"conflict</w>":10105,"song":10106,"replace</w>":10107,"violet</w>":10108,"shift</w>":10109,"almond</w>":10110,"skies</w>":10111,"cooked</w>":10112,"quir":10113,"phe":10114,"sax":10115,"bowls</w>":10116,"proud</w>":10117,"offensive</w>":10118,"abilities</w>":10119,"curved</w>":10120,"defensive</w>":10121,"drug</w>":10122,"entering</w>":10123,"magnetic</w>":10124,"push</w>":10125,"titles</w>":10126,"teachers</w>":10127,"crane</w>":10128,"exploring</w>":10129,"bers</w>":10130,"viewing</w>":10131,"senate</w>":10132,"handwriting</w>":10133,"follows</w>":10134,"column</w>":10135,"insul":10136,"lifting</w>":10137,"apping</w>":10138,"bulldog</w>":10139,"equipped</w>":10140,"bullet</w>":10141,"ugly</w>":10142,"gas":10143,"heading</w>":10144,"tide</w>":10145,"carving</w>":10146,"portable</w>":10147,"dians</w>":10148,"91</w>":10149,"striking</w>":10150,"pione":10151,"vor":10152,"arte</w>":10153,"afgh":10154,"stam":10155,"hear</w>":10156,"deman":10157,"pod</w>":10158,"delivered</w>":10159,"hamilton</w>":10160,"knew</w>":10161,"roughly</w>":10162,"columns</w>":10163,"fabul":10164,"volksw":10165,"burn":10166,"belgi":10167,"stripe</w>":10168,"packs</w>":10169,"smoothie</w>":10170,"120</w>":10171,"teach</w>":10172,"swift</w>":10173,"pollution</w>":10174,"flour</w>":10175,"passion</w>":10176,"sessions</w>":10177,"inton</w>":10178,"foam</w>":10179,"perfu":10180,"condo</w>":10181,"steph":10182,"halo</w>":10183,"volkswagen</w>":10184,"finishing</w>":10185,"mage</w>":10186,"commemor":10187,"straw</w>":10188,"cze":10189,"mt</w>":10190,"telling</w>":10191,"folding</w>":10192,"barrel</w>":10193,"dimensions</w>":10194,"tomb</w>":10195,"nautical</w>":10196,"inspire</w>":10197,"cone</w>":10198,"shrimp</w>":10199,"lucky</w>":10200,"yel":10201,"liest</w>":10202,"relax</w>":10203,"bowling</w>":10204,"dragons</w>":10205,"kindergarten</w>":10206,"expand":10207,"compos":10208,"scott</w>":10209,"fonts</w>":10210,"harrison</w>":10211,"basis</w>":10212,"chim":10213,"arely</w>":10214,"carl":10215,"iously</w>":10216,"salv":10217,"ortho":10218,"fireworks</w>":10219,"improved</w>":10220,"rubs</w>":10221,"cardin":10222,"unve":10223,"sively</w>":10224,"ounded</w>":10225,"bbed</w>":10226,"1973</w>":10227,"metropolitan</w>":10228,"rises</w>":10229,"wid":10230,"meditation</w>":10231,"wels</w>":10232,"calif</w>":10233,"acular</w>":10234,"laugh</w>":10235,"fold</w>":10236,"1990s</w>":10237,"resistance</w>":10238,"pou":10239,"gucci</w>":10240,"proved</w>":10241,"alb":10242,"buffe":10243,"rooftop</w>":10244,"86</w>":10245,"dra</w>":10246,"za":10247,"agriculture</w>":10248,"grilled</w>":10249,"1971</w>":10250,"acou":10251,"cair":10252,"1982</w>":10253,"cushion</w>":10254,"treasure</w>":10255,"tick":10256,"threat</w>":10257,"stable</w>":10258,"heights</w>":10259,"whiskey</w>":10260,"93</w>":10261,"forget</w>":10262,"subsequent</w>":10263,"1983</w>":10264,"distingu":10265,"cuba</w>":10266,"fabulous</w>":10267,"electric":10268,"crying</w>":10269,"acqu":10270,"ckets</w>":10271,"vi</w>":10272,"orchestra</w>":10273,"chase</w>":10274,"gap</w>":10275,"adopted</w>":10276,"sustainable</w>":10277,"bau":10278,"reserv":10279,"scoop</w>":10280,"luxurious</w>":10281,"mango</w>":10282,"ferry</w>":10283,"origin</w>":10284,"mechanical</w>":10285,"clinic</w>":10286,"reverse</w>":10287,"700</w>":10288,"dd</w>":10289,"throne</w>":10290,"nou":10291,"pale</w>":10292,"walnut</w>":10293,"jim</w>":10294,"coats</w>":10295,"editor</w>":10296,"toe</w>":10297,"beaded</w>":10298,"blind</w>":10299,"garian</w>":10300,"generated</w>":10301,"bap":10302,"shadows</w>":10303,"lam</w>":10304,"vibrant</w>":10305,"crosses</w>":10306,"lifetime</w>":10307,"charged</w>":10308,"lated</w>":10309,"retirement</w>":10310,"ilian</w>":10311,"promoted</w>":10312,"1943</w>":10313,"strugg":10314,"boarding</w>":10315,"furnished</w>":10316,"scat":10317,"yam":10318,"beam</w>":10319,"torpe":10320,"promote</w>":10321,"suggest":10322,"secure</w>":10323,"bia</w>":10324,"cents</w>":10325,"camel</w>":10326,"historian</w>":10327,"athletes</w>":10328,"guaran":10329,"leis":10330,"facial</w>":10331,"belly</w>":10332,"df</w>":10333,"frequently</w>":10334,"creator</w>":10335,"gathered</w>":10336,"select</w>":10337,"failure</w>":10338,"emir":10339,"wi</w>":10340,"earth":10341,"swee":10342,"1976</w>":10343,"flex":10344,"ministry</w>":10345,"virgin</w>":10346,"mushrooms</w>":10347,"stances</w>":10348,"ship":10349,"understanding</w>":10350,"correct</w>":10351,"upgra":10352,"participated</w>":10353,"gene":10354,"valu":10355,"alps</w>":10356,"drivers</w>":10357,"trails</w>":10358,"flame</w>":10359,"hipster</w>":10360,"clubs</w>":10361,"yne</w>":10362,"mixing</w>":10363,"tires</w>":10364,"gab":10365,"vis</w>":10366,"altar</w>":10367,"pots</w>":10368,"belgium</w>":10369,"deal":10370,"bane</w>":10371,"popular":10372,"volley":10373,"1000</w>":10374,"brilliant</w>":10375,"hosts</w>":10376,"emotional</w>":10377,"pillows</w>":10378,"suspen":10379,"ito</w>":10380,"packing</w>":10381,"glacier</w>":10382,"loving</w>":10383,"glamour</w>":10384,"markets</w>":10385,"volleyball</w>":10386,"croatia</w>":10387,"ield</w>":10388,"steak</w>":10389,"li</w>":10390,"diplo":10391,"retriever</w>":10392,"essenti":10393,"decre":10394,"hog":10395,"guardian</w>":10396,"pup":10397,"beneath</w>":10398,"chris</w>":10399,"thusi":10400,"82</w>":10401,"alexander</w>":10402,"tumblr</w>":10403,"injured</w>":10404,"broch":10405,"scheduled</w>":10406,"rendered</w>":10407,"rever":10408,"greenhouse</w>":10409,"ipad</w>":10410,"minne":10411,"borne</w>":10412,"stock":10413,"dna</w>":10414,"enthusi":10415,"dress":10416,"timore</w>":10417,"destru":10418,"decades</w>":10419,"oriental</w>":10420,"mason</w>":10421,"engines</w>":10422,"scooter</w>":10423,"liner</w>":10424,"contained</w>":10425,"1974</w>":10426,"peaked</w>":10427,"norwe":10428,"relationships</w>":10429,"belon":10430,"skyscra":10431,"treated</w>":10432,"illuminated</w>":10433,"1930s</w>":10434,"promp":10435,"aluminum</w>":10436,"closing</w>":10437,"winners</w>":10438,"gather</w>":10439,"accident</w>":10440,"inated</w>":10441,"gates</w>":10442,"baltimore</w>":10443,"guardians</w>":10444,"scout</w>":10445,"ov":10446,"oy":10447,"sr</w>":10448,"baro":10449,"ebay</w>":10450,"thur</w>":10451,"maintained</w>":10452,"crest</w>":10453,"broad</w>":10454,"collecti":10455,"open":10456,"tight</w>":10457,"saurus</w>":10458,"pulled</w>":10459,"granite</w>":10460,"sum</w>":10461,"documentary</w>":10462,"spicy</w>":10463,"fingers</w>":10464,"forests</w>":10465,"blade</w>":10466,"carries</w>":10467,"shells</w>":10468,"expressed</w>":10469,"classy</w>":10470,"casser":10471,"hike</w>":10472,"pooh</w>":10473,"ott</w>":10474,"gow</w>":10475,"dais":10476,"highlights</w>":10477,"athens</w>":10478,"1978</w>":10479,"py</w>":10480,"fund</w>":10481,"contributed</w>":10482,"byz":10483,"swan</w>":10484,"microphone</w>":10485,"tible</w>":10486,"determined</w>":10487,"vy</w>":10488,"concluded</w>":10489,"squirrel</w>":10490,"arre":10491,"prey</w>":10492,"appearances</w>":10493,"imate</w>":10494,"replica</w>":10495,"hen</w>":10496,"mah":10497,"lonely</w>":10498,"never":10499,"cult</w>":10500,"outbreak</w>":10501,"tant</w>":10502,"tape":10503,"dye</w>":10504,"arriving</w>":10505,"tiv":10506,"hearing</w>":10507,"entirely</w>":10508,"84</w>":10509,"delta</w>":10510,"heel</w>":10511,"tsman</w>":10512,"murder</w>":10513,"mper</w>":10514,"charcoal</w>":10515,"stove</w>":10516,"crab</w>":10517,"school":10518,"fifa</w>":10519,"ellite</w>":10520,"blogger</w>":10521,"apples</w>":10522,"1977</w>":10523,"limit</w>":10524,"permanent</w>":10525,"repu":10526,"maintain</w>":10527,"showcas":10528,"tto</w>":10529,"chairman</w>":10530,"pope</w>":10531,"conversation</w>":10532,"musicians</w>":10533,"wheelchair</w>":10534,"thoughts</w>":10535,"ological</w>":10536,"extin":10537,"satellite</w>":10538,"assass":10539,"buffet</w>":10540,"beginners</w>":10541,"pound</w>":10542,"politics</w>":10543,"swear</w>":10544,"envelo":10545,"ras</w>":10546,"gly":10547,"dual</w>":10548,"eagles</w>":10549,"benefit</w>":10550,"practical</w>":10551,"roles</w>":10552,"iran</w>":10553,"dispu":10554,"scientists</w>":10555,"canopy</w>":10556,"ottoman</w>":10557,"norwegian</w>":10558,"shining</w>":10559,"bay":10560,"util":10561,"mored</w>":10562,"parag":10563,"ati</w>":10564,"hell</w>":10565,"proper</w>":10566,"consist":10567,"blush</w>":10568,"vessel</w>":10569,"legisl":10570,"evol":10571,"89</w>":10572,"prise</w>":10573,"iro</w>":10574,"determine</w>":10575,"casserole</w>":10576,"bulb</w>":10577,"accompanied</w>":10578,"rams</w>":10579,"neighbour":10580,"psy</w>":10581,"authorities</w>":10582,"35":10583,"fiber</w>":10584,"thirty</w>":10585,"removal</w>":10586,"useful</w>":10587,"driven</w>":10588,"buddha</w>":10589,"astronaut</w>":10590,"hallway</w>":10591,"monitor</w>":10592,"cloudy</w>":10593,"10th</w>":10594,"wilson</w>":10595,"peac":10596,"register</w>":10597,"cuisine</w>":10598,"vised</w>":10599,"americans</w>":10600,"superior</w>":10601,"monochrome</w>":10602,"rainfall</w>":10603,"1920s</w>":10604,"centuries</w>":10605,"chamber</w>":10606,"jaguar</w>":10607,"kam":10608,"shiny</w>":10609,"queens":10610,"assault</w>":10611,"ax</w>":10612,"curry</w>":10613,"elite</w>":10614,"grab</w>":10615,"bust</w>":10616,"respect</w>":10617,"miller</w>":10618,"incident</w>":10619,"denmark</w>":10620,"republican</w>":10621,"cycled</w>":10622,"ggle</w>":10623,"lebanon</w>":10624,"oral</w>":10625,"1939</w>":10626,"mere</w>":10627,"1930</w>":10628,"lex":10629,"truly</w>":10630,"maje":10631,"emo":10632,"lington</w>":10633,"survey</w>":10634,"towns</w>":10635,"picked</w>":10636,"holes</w>":10637,"laho":10638,"terrain</w>":10639,"aj":10640,"expanded</w>":10641,"fixed</w>":10642,"flix</w>":10643,"rad":10644,"baker</w>":10645,"1963</w>":10646,"lining</w>":10647,"tten</w>":10648,"narr":10649,"ggy</w>":10650,"chemi":10651,"mathemat":10652,"leisure</w>":10653,"nhl</w>":10654,"achieve</w>":10655,"producers</w>":10656,"ided</w>":10657,"cha</w>":10658,"cut":10659,"request</w>":10660,"onion</w>":10661,"candidate</w>":10662,"recreation</w>":10663,"tested</w>":10664,"creepy</w>":10665,"slices</w>":10666,"notable</w>":10667,"netflix</w>":10668,"83</w>":10669,"innings</w>":10670,"park":10671,"appearing</w>":10672,"brunch</w>":10673,"trips</w>":10674,"athlete</w>":10675,"oppon":10676,"opposition</w>":10677,"promise</w>":10678,"lew":10679,"illustrator</w>":10680,"oklaho":10681,"acoustic</w>":10682,"bun</w>":10683,"values</w>":10684,"hound</w>":10685,"acqui":10686,"preparation</w>":10687,"spacious</w>":10688,"nate</w>":10689,"sylvania</w>":10690,"woven</w>":10691,"administr":10692,"hybrid</w>":10693,"evacu":10694,"maybe</w>":10695,"m2</w>":10696,"concepts</w>":10697,"meanwhile</w>":10698,"thunder":10699,"cod":10700,"tedly</w>":10701,"giraffe</w>":10702,"glasgow</w>":10703,"closely</w>":10704,"estone</w>":10705,"prince":10706,"homer</w>":10707,"carriage</w>":10708,"emirates</w>":10709,"drums</w>":10710,"ori</w>":10711,"methods</w>":10712,"castles</w>":10713,"labor</w>":10714,"pursu":10715,"girlfriend</w>":10716,"alive</w>":10717,"snowman</w>":10718,"request":10719,"longest</w>":10720,"debuted</w>":10721,"functional</w>":10722,"buttons</w>":10723,"ung</w>":10724,"1981</w>":10725,"somer":10726,"mtv</w>":10727,"izes</w>":10728,"constitution</w>":10729,"twi":10730,"academic</w>":10731,"fashionable</w>":10732,"mike</w>":10733,"exit</w>":10734,"gans</w>":10735,"farms</w>":10736,"slip</w>":10737,"hipp":10738,"reign</w>":10739,"tim</w>":10740,"kan</w>":10741,"turt":10742,"interested</w>":10743,"arthur</w>":10744,"lan</w>":10745,"revol":10746,"recycled</w>":10747,"chin":10748,"knights</w>":10749,"tapestry</w>":10750,"atomic</w>":10751,"gate":10752,"catching</w>":10753,"dean</w>":10754,"sail</w>":10755,"biscu":10756,"drawers</w>":10757,"household</w>":10758,"duvet</w>":10759,"alogue</w>":10760,"appoint":10761,"memb":10762,"describes</w>":10763,"trac":10764,"genus</w>":10765,"residen":10766,"perfume</w>":10767,"stopped</w>":10768,"tags</w>":10769,"breath</w>":10770,"credit":10771,"sayings</w>":10772,"nad":10773,"folio</w>":10774,"nel":10775,"aisle</w>":10776,"rush</w>":10777,"garn":10778,"notice</w>":10779,"adjustable</w>":10780,"dice</w>":10781,"privac":10782,"brook</w>":10783,"literary</w>":10784,"tribun":10785,"excited</w>":10786,"privacy</w>":10787,"nash":10788,"vig":10789,"will":10790,"alleg":10791,"hire</w>":10792,"si</w>":10793,"wig</w>":10794,"labra":10795,"ction":10796,"revolu":10797,"iley</w>":10798,"elle</w>":10799,"101</w>":10800,"eco</w>":10801,"kr":10802,"iners</w>":10803,"print":10804,"swa":10805,"alities</w>":10806,"publication</w>":10807,"references</w>":10808,"llers</w>":10809,"hawai":10810,"auro":10811,"inged</w>":10812,"recon":10813,"sam</w>":10814,"dollars</w>":10815,"aired</w>":10816,"mption</w>":10817,"sville</w>":10818,"blurred</w>":10819,"expos":10820,"hulk</w>":10821,"istanbul</w>":10822,"aire</w>":10823,"reveals</w>":10824,"rant</w>":10825,"consecu":10826,"climb</w>":10827,"cigare":10828,"cyber":10829,"pakistan":10830,"ultra</w>":10831,"stylized</w>":10832,"killer</w>":10833,"scu":10834,"shab":10835,"ffins</w>":10836,"cub":10837,"valent</w>":10838,"peace":10839,"fia</w>":10840,"submarine</w>":10841,"theless</w>":10842,"sai</w>":10843,"headphones</w>":10844,"figurine</w>":10845,"twil":10846,"easier</w>":10847,"supermarket</w>":10848,"debate</w>":10849,"weapon</w>":10850,"businesses</w>":10851,"waterfront</w>":10852,"embar":10853,"mansions</w>":10854,"attraction</w>":10855,"apollo</w>":10856,"occupied</w>":10857,"spin</w>":10858,"founder</w>":10859,"twilight</w>":10860,"magnific":10861,"pige":10862,"adds</w>":10863,"knot</w>":10864,"manic":10865,"eighth</w>":10866,"definitely</w>":10867,"heim</w>":10868,"pakistani</w>":10869,"chen":10870,"breeding</w>":10871,"racer</w>":10872,"tations</w>":10873,"tol":10874,"tired</w>":10875,"cheerful</w>":10876,"ance":10877,"pper":10878,"trash</w>":10879,"manual</w>":10880,"celebrated</w>":10881,"grocer":10882,"cord</w>":10883,"wounded</w>":10884,"eva</w>":10885,"recognized</w>":10886,"igu":10887,"bucks</w>":10888,"apoc":10889,"escap":10890,"puts</w>":10891,"alph":10892,"acid</w>":10893,"ool</w>":10894,"warner</w>":10895,"punch</w>":10896,"repeat</w>":10897,"interactive</w>":10898,"donald</w>":10899,"sha</w>":10900,"investment</w>":10901,"windsor</w>":10902,"behavior</w>":10903,"mentioned</w>":10904,"collector</w>":10905,"communities</w>":10906,"tasty</w>":10907,"waterproof</w>":10908,"masters</w>":10909,"stitch":10910,"specim":10911,"pillar</w>":10912,"explor":10913,"pedia</w>":10914,"tongue</w>":10915,"volunteers</w>":10916,"abad</w>":10917,"baham":10918,"rainforest</w>":10919,"kissing</w>":10920,"eat":10921,"toast</w>":10922,"tened</w>":10923,"breaks</w>":10924,"colony</w>":10925,"versity</w>":10926,"touring</w>":10927,"exposure</w>":10928,"symp":10929,"colonel</w>":10930,"pump</w>":10931,"bean":10932,"set":10933,"sume</w>":10934,"shock</w>":10935,"eliz":10936,"nursing</w>":10937,"cottages</w>":10938,"crocod":10939,"guitar":10940,"arily</w>":10941,"other":10942,"iceland</w>":10943,"diameter</w>":10944,"characteristics</w>":10945,"opinion</w>":10946,"consecutive</w>":10947,"pitcher</w>":10948,"filmed</w>":10949,"landmark</w>":10950,"acce":10951,"pantry</w>":10952,"nashville</w>":10953,"riders</w>":10954,"rots</w>":10955,"corri":10956,"hanna</w>":10957,"browse</w>":10958,"tia</w>":10959,"cardi":10960,"bracelets</w>":10961,"edit</w>":10962,"frank</w>":10963,"lava</w>":10964,"desi":10965,"announcement</w>":10966,"hello</w>":10967,"bite</w>":10968,"triu":10969,"borgh":10970,"glad":10971,"listen</w>":10972,"wake</w>":10973,"spices</w>":10974,"builder</w>":10975,"insi":10976,"apply</w>":10977,"corporation</w>":10978,"caval":10979,"mercur":10980,"supporters</w>":10981,"ceme":10982,"azz":10983,"patients</w>":10984,"lamborgh":10985,"breast</w>":10986,"soci":10987,"ari":10988,"touchdown</w>":10989,"labrador</w>":10990,"sic":10991,"erie</w>":10992,"starry</w>":10993,"saurs</w>":10994,"quarterback</w>":10995,"popcorn</w>":10996,"wiring</w>":10997,"oper</w>":10998,"consisted</w>":10999,"lion":11000,"genu":11001,"sausage</w>":11002,"ege</w>":11003,"exist":11004,"factor</w>":11005,"income</w>":11006,"alberta</w>":11007,"factors</w>":11008,"ticket</w>":11009,"rectangular</w>":11010,"chemistry</w>":11011,"spl":11012,"explorer</w>":11013,"volunteer</w>":11014,"seated</w>":11015,"moore</w>":11016,"expert</w>":11017,"pony</w>":11018,"surfing</w>":11019,"walkway</w>":11020,"hawks</w>":11021,"elizabe":11022,"dits</w>":11023,"gli":11024,"icated</w>":11025,"had":11026,"lamborghini</w>":11027,"sexual</w>":11028,"producing</w>":11029,"argentina</w>":11030,"bubbles</w>":11031,"hs</w>":11032,"suspension</w>":11033,"hub</w>":11034,"oversized</w>":11035,"delicate</w>":11036,"franchise</w>":11037,"hawaiian</w>":11038,"armored</w>":11039,"abled</w>":11040,"pandemic</w>":11041,"prohib":11042,"achieved</w>":11043,"aft</w>":11044,"instrument</w>":11045,"versi":11046,"ennial</w>":11047,"mark":11048,"midnight</w>":11049,"rhyth":11050,"ero</w>":11051,"drone</w>":11052,"tough</w>":11053,"participate</w>":11054,"cove</w>":11055,"actly</w>":11056,"watched</w>":11057,"welsh</w>":11058,"signal</w>":11059,"confeder":11060,"spectacular</w>":11061,"mother":11062,"healing</w>":11063,"prix</w>":11064,"fically</w>":11065,"consisting</w>":11066,"yummy</w>":11067,"lush</w>":11068,"kol":11069,"listing</w>":11070,"spher":11071,"client</w>":11072,"1962</w>":11073,"tap</w>":11074,"symph":11075,"require</w>":11076,"airline</w>":11077,"21st</w>":11078,"rolled</w>":11079,"spending</w>":11080,"opposed</w>":11081,"apocaly":11082,"von</w>":11083,"totally</w>":11084,"enni":11085,"resol":11086,"stitu":11087,"fleece</w>":11088,"vocal</w>":11089,"vable</w>":11090,"rence</w>":11091,"agues</w>":11092,"slowly</w>":11093,"bloom</w>":11094,"collaboration</w>":11095,"peg</w>":11096,"partner":11097,"cosmet":11098,"mugs</w>":11099,"gymn":11100,"dos</w>":11101,"husky</w>":11102,"answ":11103,"carrot</w>":11104,"tz":11105,"posts</w>":11106,"laces</w>":11107,"parrot</w>":11108,"sc</w>":11109,"jr</w>":11110,"ateau</w>":11111,"flowing</w>":11112,"acquired</w>":11113,"sliced</w>":11114,"daughters</w>":11115,"verses</w>":11116,"hms</w>":11117,"sees</w>":11118,"demon</w>":11119,"bigger</w>":11120,"none</w>":11121,"gameplay</w>":11122,"12th</w>":11123,"organ</w>":11124,"henna</w>":11125,"midd":11126,"flames</w>":11127,"correspon":11128,"dged</w>":11129,"hut</w>":11130,"stown</w>":11131,"pixel</w>":11132,"exactly</w>":11133,"cosmetics</w>":11134,"tos</w>":11135,"mbo</w>":11136,"derness</w>":11137,"compact</w>":11138,"peacock</w>":11139,"starring</w>":11140,"wau":11141,"indoors</w>":11142,"cane</w>":11143,"watermelon</w>":11144,"regarded</w>":11145,"thread</w>":11146,"paw</w>":11147,"advoc":11148,"sch</w>":11149,"ging":11150,"zombie</w>":11151,"kel</w>":11152,"crust</w>":11153,"tress</w>":11154,"reflected</w>":11155,"sby</w>":11156,"suggests</w>":11157,"naz":11158,"productions</w>":11159,"participants</w>":11160,"feels</w>":11161,"trim":11162,"organs</w>":11163,"mothers</w>":11164,"relations</w>":11165,"curve</w>":11166,"degre":11167,"asking</w>":11168,"skating</w>":11169,"personalised</w>":11170,"winnie</w>":11171,"links</w>":11172,"aro</w>":11173,"knoc":11174,"deals</w>":11175,"coul":11176,"compete</w>":11177,"enders</w>":11178,"pockets</w>":11179,"exist</w>":11180,"keeps</w>":11181,"1957</w>":11182,"ming":11183,"illusion</w>":11184,"attend":11185,"1955</w>":11186,"studying</w>":11187,"hilton</w>":11188,"sper":11189,"situated</w>":11190,"lists</w>":11191,"49":11192,"hull</w>":11193,"blow</w>":11194,"cler":11195,"ram":11196,"shrine</w>":11197,"fought</w>":11198,"nels</w>":11199,"parent</w>":11200,"1956</w>":11201,"carb</w>":11202,"expres":11203,"octopus</w>":11204,"ador</w>":11205,"atop</w>":11206,"rates</w>":11207,"nei":11208,"painter</w>":11209,"sneaker</w>":11210,"blowing</w>":11211,"fisher":11212,"seem</w>":11213,"ouring</w>":11214,"center":11215,"freeway</w>":11216,"citizens</w>":11217,"mercury</w>":11218,"addic":11219,"joining</w>":11220,"phrase</w>":11221,"tha</w>":11222,"drawer</w>":11223,"schedule</w>":11224,"degrees</w>":11225,"kenya</w>":11226,"fred</w>":11227,"robe</w>":11228,"melo":11229,"plated</w>":11230,"achie":11231,"cash":11232,"yn":11233,"worship</w>":11234,"ela</w>":11235,"articles</w>":11236,"queensland</w>":11237,"tum</w>":11238,"continuous</w>":11239,"false</w>":11240,"joseph</w>":11241,"diversity</w>":11242,"mets</w>":11243,"goose</w>":11244,"tones</w>":11245,"minster</w>":11246,"viewer</w>":11247,"onist</w>":11248,"passage</w>":11249,"agricultural</w>":11250,"wwe</w>":11251,"scan</w>":11252,"kunst</w>":11253,"borders</w>":11254,"certified</w>":11255,"archive</w>":11256,"manicure</w>":11257,"nah</w>":11258,"caps</w>":11259,"differences</w>":11260,"oul</w>":11261,"brown":11262,"15th</w>":11263,"bills</w>":11264,"deon</w>":11265,"shall</w>":11266,"noodles</w>":11267,"sman</w>":11268,"routes</w>":11269,"bled</w>":11270,"mixture</w>":11271,"blueberry</w>":11272,"1900</w>":11273,"immig":11274,"dolphin</w>":11275,"ivy</w>":11276,"phantom</w>":11277,"hudson</w>":11278,"kon":11279,"victoria</w>":11280,"4x":11281,"signing</w>":11282,"vietnam":11283,"cylinder</w>":11284,"upho":11285,"stacked</w>":11286,"hampton</w>":11287,"occur</w>":11288,"eving</w>":11289,"lian</w>":11290,"quer":11291,"depu":11292,"warhammer</w>":11293,"1914</w>":11294,"alog</w>":11295,"engraved</w>":11296,"convertible</w>":11297,"alliance</w>":11298,"bec</w>":11299,"tribe</w>":11300,"blosso":11301,"promotional</w>":11302,"steering</w>":11303,"violence</w>":11304,"stroke</w>":11305,"programme</w>":11306,"brochure</w>":11307,"orous</w>":11308,"ilo":11309,"lemon":11310,"sanctuary</w>":11311,"vietnamese</w>":11312,"ende":11313,"rix</w>":11314,"att</w>":11315,"feel":11316,"sailor</w>":11317,"sort</w>":11318,"drives</w>":11319,"promo</w>":11320,"blin":11321,"geek</w>":11322,"ashed</w>":11323,"components</w>":11324,"monast":11325,"editorial</w>":11326,"oma</w>":11327,"orchid</w>":11328,"cel</w>":11329,"width</w>":11330,"newest</w>":11331,"70s</w>":11332,"ninj":11333,"martial</w>":11334,"meat":11335,"sso</w>":11336,"transit</w>":11337,"prep</w>":11338,"recognition</w>":11339,"cardig":11340,"neath</w>":11341,"farming</w>":11342,"abil":11343,"hav":11344,"treaty</w>":11345,"bungalow</w>":11346,"surviv":11347,"disne":11348,"pharmac":11349,"affair</w>":11350,"perth</w>":11351,"popularity</w>":11352,"bugs</w>":11353,"bacter":11354,"leaf":11355,"flights</w>":11356,"guine":11357,"accessi":11358,"cavalry</w>":11359,"conversion</w>":11360,"cr</w>":11361,"cola</w>":11362,"strawberries</w>":11363,"barrier</w>":11364,"cambo":11365,"persian</w>":11366,"currency</w>":11367,"900</w>":11368,"pid</w>":11369,"layered</w>":11370,"bbq</w>":11371,"styled</w>":11372,"1959</w>":11373,"tm</w>":11374,"chains</w>":11375,"stanley</w>":11376,"aurora</w>":11377,"mania</w>":11378,"glen":11379,"compass</w>":11380,"arcade</w>":11381,"trench</w>":11382,"stest</w>":11383,"silver":11384,"macro</w>":11385,"ranger</w>":11386,"investigation</w>":11387,"ancing</w>":11388,"credits</w>":11389,"compr":11390,"mach</w>":11391,"wig":11392,"mirrors</w>":11393,"functions</w>":11394,"gour":11395,"anna</w>":11396,"weed</w>":11397,"crow</w>":11398,"czech</w>":11399,"microsoft</w>":11400,"surve":11401,"chun":11402,"measuring</w>":11403,"sat</w>":11404,"heart":11405,"leaning</w>":11406,"argued</w>":11407,"explosion</w>":11408,"gang</w>":11409,"davis</w>":11410,"lifted</w>":11411,"compla":11412,"sham":11413,"gesture</w>":11414,"haunted</w>":11415,"sole":11416,"audit":11417,"ltd</w>":11418,"soli":11419,"poems</w>":11420,"capable</w>":11421,"etsy</w>":11422,"fined</w>":11423,"silent</w>":11424,"stephen</w>":11425,"brazilian</w>":11426,"gentleman</w>":11427,"mc</w>":11428,"standards</w>":11429,"stim":11430,"critic</w>":11431,"contour</w>":11432,"designing</w>":11433,"makers</w>":11434,"chickens</w>":11435,"throwing</w>":11436,"experiences</w>":11437,"sock</w>":11438,"fastest</w>":11439,"arrangements</w>":11440,"baskets</w>":11441,"buddhist</w>":11442,"aco</w>":11443,"logan</w>":11444,"identify</w>":11445,"employed</w>":11446,"bang</w>":11447,"tigers</w>":11448,"coli</w>":11449,"impossible</w>":11450,"taiwan</w>":11451,"haired</w>":11452,"pounds</w>":11453,"vol</w>":11454,"awak":11455,"portfolio</w>":11456,"1958</w>":11457,"banners</w>":11458,"attending</w>":11459,"connecting</w>":11460,"criticized</w>":11461,"employment</w>":11462,"aw</w>":11463,"lone</w>":11464,"settlement</w>":11465,"chili</w>":11466,"underneath</w>":11467,"flooding</w>":11468,"routine</w>":11469,"turre":11470,"dow":11471,"hem</w>":11472,"anian</w>":11473,"keto</w>":11474,"shabby</w>":11475,"enhan":11476,"cemetery</w>":11477,"pent":11478,"kayak</w>":11479,"oxy":11480,"edo</w>":11481,"enz":11482,"cube</w>":11483,"granted</w>":11484,"relaxed</w>":11485,"releases</w>":11486,"celebrations</w>":11487,"affairs</w>":11488,"trouble</w>":11489,"ceo</w>":11490,"surprised</w>":11491,"lex</w>":11492,"lando</w>":11493,"vern</w>":11494,"tickets</w>":11495,"nick":11496,"xl</w>":11497,"isher</w>":11498,"install</w>":11499,"davidson</w>":11500,"flash":11501,"maids</w>":11502,"1961</w>":11503,"1918</w>":11504,"writes</w>":11505,"orted</w>":11506,"lumin":11507,"anderson</w>":11508,"rapid</w>":11509,"elevation</w>":11510,"saudi</w>":11511,"travels</w>":11512,"ibility</w>":11513,"specifically</w>":11514,"turb":11515,"slu":11516,"drive":11517,"sadd":11518,"falcon</w>":11519,"chalk":11520,"danger</w>":11521,"nag":11522,"thered</w>":11523,"ole":11524,"moth</w>":11525,"buried</w>":11526,"renew":11527,"cyclo":11528,"harve":11529,"anium</w>":11530,"mel</w>":11531,"zers</w>":11532,"locks</w>":11533,"ninja</w>":11534,"sidewalk</w>":11535,"updated</w>":11536,"timeless</w>":11537,"danish</w>":11538,"separated</w>":11539,"pointed</w>":11540,"strong":11541,"locomotive</w>":11542,"gm</w>":11543,"appropriate</w>":11544,"showcasing</w>":11545,"host":11546,"14th</w>":11547,"guitarist</w>":11548,"impression</w>":11549,"muffins</w>":11550,"steve</w>":11551,"haircut</w>":11552,"vat":11553,"angered</w>":11554,"wright</w>":11555,"cliffs</w>":11556,"wisdom</w>":11557,"tulle</w>":11558,"23":11559,"adjac":11560,"euro</w>":11561,"spel":11562,"flowering</w>":11563,"jamaica</w>":11564,"pdf</w>":11565,"bart":11566,"bure":11567,"olds</w>":11568,"sas":11569,"lake":11570,"seoul</w>":11571,"oe</w>":11572,"dj</w>":11573,"skiing</w>":11574,"prair":11575,"bart</w>":11576,"feelings</w>":11577,"dame</w>":11578,"highlands</w>":11579,"wizard</w>":11580,"loom</w>":11581,"favor</w>":11582,"challenges</w>":11583,"lang":11584,"overcoat</w>":11585,"vessels</w>":11586,"pudding</w>":11587,"adjacent</w>":11588,"scape</w>":11589,"storms</w>":11590,"screening</w>":11591,"kilometres</w>":11592,"lewis</w>":11593,"yarn</w>":11594,"otherwise</w>":11595,"bells</w>":11596,"commission":11597,"uphol":11598,"sely</w>":11599,"where":11600,"genre</w>":11601,"rehear":11602,"origami</w>":11603,"segment</w>":11604,"caster</w>":11605,"awa</w>":11606,"android</w>":11607,"madison</w>":11608,"chalkboard</w>":11609,"sleeved</w>":11610,"subway</w>":11611,"suffering</w>":11612,"cooper":11613,"1920x":11614,"aspects</w>":11615,"gram":11616,"prece":11617,"guards</w>":11618,"polka</w>":11619,"villages</w>":11620,"saved</w>":11621,"brisbane</w>":11622,"disci":11623,"sibility</w>":11624,"110</w>":11625,"myself</w>":11626,"entit":11627,"trig":11628,"absor":11629,"glory</w>":11630,"jab</w>":11631,"zebra</w>":11632,"absolutely</w>":11633,"tactical</w>":11634,"och</w>":11635,"giants</w>":11636,"engineers</w>":11637,"richmond</w>":11638,"orlando</w>":11639,"mining</w>":11640,"famili":11641,"yd</w>":11642,"genuine</w>":11643,"mattress</w>":11644,"ras":11645,"blu</w>":11646,"symptoms</w>":11647,"vc</w>":11648,"mysterious</w>":11649,"cos</w>":11650,"oli</w>":11651,"adapted</w>":11652,"alpine</w>":11653,"clark</w>":11654,"biography</w>":11655,"hitting</w>":11656,"concerns</w>":11657,"fries</w>":11658,"edible</w>":11659,"filter</w>":11660,"wasn</w>":11661,"pallet</w>":11662,"1948</w>":11663,"rapidly</w>":11664,"ono</w>":11665,"oat":11666,"trials</w>":11667,"arc</w>":11668,"shaw</w>":11669,"abc</w>":11670,"skate</w>":11671,"tricks</w>":11672,"oph":11673,"manila</w>":11674,"nj</w>":11675,"pg</w>":11676,"legendary</w>":11677,"tribune</w>":11678,"prove</w>":11679,"aware</w>":11680,"enchan":11681,"siding</w>":11682,"boxer</w>":11683,"twins</w>":11684,"dox</w>":11685,"trading</w>":11686,"rejected</w>":11687,"reven":11688,"shallow</w>":11689,"frosting</w>":11690,"invited</w>":11691,"wilderness</w>":11692,"90":11693,"hide</w>":11694,"tah</w>":11695,"wax</w>":11696,"reinde":11697,"accents</w>":11698,"artan</w>":11699,"festivals</w>":11700,"louis":11701,"multic":11702,"assistance</w>":11703,"desire</w>":11704,"credited</w>":11705,"showcase</w>":11706,"logies</w>":11707,"patterned</w>":11708,"recommended</w>":11709,"appliances</w>":11710,"dinosaurs</w>":11711,"niger":11712,"trained</w>":11713,"sophist":11714,"drill</w>":11715,"tis</w>":11716,"knows</w>":11717,"intensity</w>":11718,"communications</w>":11719,"constant</w>":11720,"comparison</w>":11721,"rub</w>":11722,"100":11723,"tane":11724,"electricity</w>":11725,"refr":11726,"margar":11727,"handbag</w>":11728,"encoun":11729,"cis</w>":11730,"conveni":11731,"mete":11732,"hug</w>":11733,"tissue</w>":11734,"calgary</w>":11735,"ady</w>":11736,"sprink":11737,"quilting</w>":11738,"chill</w>":11739,"magazines</w>":11740,"highland</w>":11741,"vendor</w>":11742,"1953</w>":11743,"courses</w>":11744,"amphibi":11745,"apa</w>":11746,"rugs</w>":11747,"snowfla":11748,"dorm</w>":11749,"attire</w>":11750,"briefly</w>":11751,"cheer</w>":11752,"foil</w>":11753,"blooming</w>":11754,"practices</w>":11755,"disneyland</w>":11756,"acles</w>":11757,"charlie</w>":11758,"civic</w>":11759,"dial</w>":11760,"sapph":11761,"revival</w>":11762,"frag":11763,"distur":11764,"turbo</w>":11765,"rv</w>":11766,"rin":11767,"ambas":11768,"hugging</w>":11769,"grin":11770,"pouch</w>":11771,"interchange</w>":11772,"camper</w>":11773,"27":11774,"flip</w>":11775,"hired</w>":11776,"textures</w>":11777,"destruction</w>":11778,"ring":11779,"soft":11780,"fest</w>":11781,"ono":11782,"peru</w>":11783,"stro</w>":11784,"bricks</w>":11785,"ginger":11786,"knots</w>":11787,"substan":11788,"tune</w>":11789,"ilation</w>":11790,"crescent</w>":11791,"illes</w>":11792,"eleven</w>":11793,"byzantine</w>":11794,"elo":11795,"virtu":11796,"kang":11797,"oasis</w>":11798,"folded</w>":11799,"let":11800,"server</w>":11801,"matt</w>":11802,"archives</w>":11803,"poly</w>":11804,"sporting</w>":11805,"finance</w>":11806,"suspended</w>":11807,"lagoon</w>":11808,"partnership</w>":11809,"mart</w>":11810,"township</w>":11811,"capitol</w>":11812,"luck</w>":11813,"discussion</w>":11814,"vacations</w>":11815,"craw":11816,"metr":11817,"min</w>":11818,"hobbit</w>":11819,"temperatures</w>":11820,"geon</w>":11821,"medies</w>":11822,"oatmeal</w>":11823,"existence</w>":11824,"ano":11825,"lunar</w>":11826,"turn":11827,"matters</w>":11828,"ays</w>":11829,"inate</w>":11830,"cosmo":11831,"mills</w>":11832,"churches</w>":11833,"cabins</w>":11834,"samurai</w>":11835,"pheno":11836,"stuck</w>":11837,"spag":11838,"hetti</w>":11839,"taxi</w>":11840,"traditions</w>":11841,"devices</w>":11842,"telephone</w>":11843,"cas</w>":11844,"info</w>":11845,"seaside</w>":11846,"buses</w>":11847,"schemes</w>":11848,"gingerbread</w>":11849,"alpha</w>":11850,"reindeer</w>":11851,"foliage</w>":11852,"criticism</w>":11853,"raspberry</w>":11854,"camou":11855,"twit":11856,"ark":11857,"broc":11858,"experiment</w>":11859,"monte":11860,"chronicle</w>":11861,"anne</w>":11862,"occurs</w>":11863,"sector</w>":11864,"diverse</w>":11865,"ambassad":11866,"diagno":11867,"camoufl":11868,"350</w>":11869,"morrow</w>":11870,"1946</w>":11871,"chry":11872,"tes":11873,"trick</w>":11874,"ik</w>":11875,"reputation</w>":11876,"polis</w>":11877,"ssex</w>":11878,"submitted</w>":11879,"spaghetti</w>":11880,"sedan</w>":11881,"funds</w>":11882,"merly</w>":11883,"receives</w>":11884,"homeless</w>":11885,"hairstyle</w>":11886,"spot":11887,"manufacturing</w>":11888,"ral":11889,"divine</w>":11890,"rank</w>":11891,"platter</w>":11892,"feminine</w>":11893,"1917</w>":11894,"flats</w>":11895,"wire":11896,"guided</w>":11897,"attor":11898,"naturally</w>":11899,"plantation</w>":11900,"tawa</w>":11901,"myth":11902,"ross</w>":11903,"describe</w>":11904,"somerset</w>":11905,"formerly</w>":11906,"crowds</w>":11907,"insect</w>":11908,"fires</w>":11909,"magnificent</w>":11910,"edges</w>":11911,"appointment</w>":11912,"cooper</w>":11913,"bly</w>":11914,"armour</w>":11915,"dive</w>":11916,"conclusion</w>":11917,"130</w>":11918,"adoptable</w>":11919,"dae</w>":11920,"bahamas</w>":11921,"paleo</w>":11922,"1954</w>":11923,"loading</w>":11924,"tony</w>":11925,"guinea</w>":11926,"abu</w>":11927,"exhau":11928,"telescope</w>":11929,"adam</w>":11930,"discuss</w>":11931,"ani</w>":11932,"visits</w>":11933,"migh":11934,"novels</w>":11935,"flood</w>":11936,"sak":11937,"lighter</w>":11938,"broccoli</w>":11939,"maur":11940,"photographers</w>":11941,"dynamic</w>":11942,"rim</w>":11943,"entitled</w>":11944,"leeds</w>":11945,"pulling</w>":11946,"yogur":11947,"26":11948,"edmon":11949,"table":11950,"fortress</w>":11951,"westin</w>":11952,"requires</w>":11953,"scor":11954,"recovery</w>":11955,"signage</w>":11956,"bark</w>":11957,"arta</w>":11958,"jar":11959,"vod":11960,"experts</w>":11961,"incorporated</w>":11962,"vitam":11963,"pouring</w>":11964,"fundra":11965,"violin</w>":11966,"suggestions</w>":11967,"beanie</w>":11968,"float</w>":11969,"bula</w>":11970,"duchess</w>":11971,"monogram</w>":11972,"survived</w>":11973,"praise</w>":11974,"yogurt</w>":11975,"hoop</w>":11976,"tering</w>":11977,"charges</w>":11978,"distinct</w>":11979,"thames</w>":11980,"anne":11981,"alexand":11982,"cardigan</w>":11983,"joe</w>":11984,"relative</w>":11985,"firefighters</w>":11986,"queens</w>":11987,"manner</w>":11988,"mson</w>":11989,"excav":11990,"turtles</w>":11991,"attic</w>":11992,"collect</w>":11993,"happened</w>":11994,"efa</w>":11995,"organisms</w>":11996,"oakland</w>":11997,"squares</w>":11998,"lamb</w>":11999,"finest</w>":12000,"pug</w>":12001,"electronics</w>":12002,"beams</w>":12003,"gratu":12004,"innovative</w>":12005,"samples</w>":12006,"shim":12007,"loaf</w>":12008,"imple":12009,"creativity</w>":12010,"temples</w>":12011,"portal</w>":12012,"combine</w>":12013,"wells</w>":12014,"atever</w>":12015,"crystals</w>":12016,"uefa</w>":12017,"whatever</w>":12018,"apest</w>":12019,"anas</w>":12020,"souven":12021,"battles</w>":12022,"kennedy</w>":12023,"jeff":12024,"asingly</w>":12025,"brave</w>":12026,"deliver</w>":12027,"isation</w>":12028,"among":12029,"hypo":12030,"amongst</w>":12031,"partners</w>":12032,"sto</w>":12033,"brew":12034,"improvement</w>":12035,"backs</w>":12036,"neither</w>":12037,"injuries</w>":12038,"gene</w>":12039,"bathtub</w>":12040,"weak</w>":12041,"sharks</w>":12042,"representative</w>":12043,"ritz</w>":12044,"copyright</w>":12045,"scattered</w>":12046,"doctors</w>":12047,"innovation</w>":12048,"polished</w>":12049,"mus</w>":12050,"liked</w>":12051,"biker</w>":12052,"seasonal</w>":12053,"raven</w>":12054,"caf":12055,"utility</w>":12056,"tamp":12057,"increasingly</w>":12058,"regularly</w>":12059,"depicted</w>":12060,"stors</w>":12061,"pear</w>":12062,"itions</w>":12063,"rup</w>":12064,"suspe":12065,"1938</w>":12066,"knitted</w>":12067,"11th</w>":12068,"bearded</w>":12069,"grocery</w>":12070,"beautifully</w>":12071,"alley</w>":12072,"bangla":12073,"lac</w>":12074,"notic":12075,"grapes</w>":12076,"puer":12077,"physics</w>":12078,"claus</w>":12079,"pennsylvania</w>":12080,"corridor</w>":12081,"mari":12082,"trainer</w>":12083,"languages</w>":12084,"wellington</w>":12085,"glam</w>":12086,"ombre</w>":12087,"onions</w>":12088,"controls</w>":12089,"boul":12090,"prague</w>":12091,"composer</w>":12092,"assy</w>":12093,"plying</w>":12094,"drag</w>":12095,"dé":12096,"conduct</w>":12097,"wag":12098,"petro":12099,"1937</w>":12100,"panic</w>":12101,"1936</w>":12102,"pea</w>":12103,"optical</w>":12104,"kitty</w>":12105,"kittens</w>":12106,"pled</w>":12107,"skateboard</w>":12108,"travelling</w>":12109,"translation</w>":12110,"ottawa</w>":12111,"wonders</w>":12112,"departure</w>":12113,"outing</w>":12114,"guess</w>":12115,"massage</w>":12116,"freder":12117,"row":12118,"significantly</w>":12119,"skill</w>":12120,"guer":12121,"veteran</w>":12122,"entist</w>":12123,"franklin</w>":12124,"brian</w>":12125,"orthodox</w>":12126,"happen</w>":12127,"alan</w>":12128,"verte":12129,"intense</w>":12130,"swir":12131,"surviving</w>":12132,"crews</w>":12133,"twitter</w>":12134,"morocco</w>":12135,"podium</w>":12136,"1947</w>":12137,"depicts</w>":12138,"stool</w>":12139,"elephants</w>":12140,"revenge</w>":12141,"iest</w>":12142,"completion</w>":12143,"scientist</w>":12144,"controversi":12145,"jim":12146,"criminal</w>":12147,"auck":12148,"gravel</w>":12149,"erson</w>":12150,"basil</w>":12151,"profession":12152,"prairie</w>":12153,"earliest</w>":12154,"finland</w>":12155,"holders</w>":12156,"modular</w>":12157,"bathing</w>":12158,"avo":12159,"nightmare</w>":12160,"yo</w>":12161,"hollow</w>":12162,"transition</w>":12163,"volcano</w>":12164,"emotions</w>":12165,"breath":12166,"inclusive</w>":12167,"panoramic</w>":12168,"eter":12169,"transit":12170,"congratu":12171,"penguins</w>":12172,"auckland</w>":12173,"mim":12174,"gypsy</w>":12175,"tu</w>":12176,"armen":12177,"pancakes</w>":12178,"hungary</w>":12179,"prehen":12180,"ye</w>":12181,"aqua</w>":12182,"selective</w>":12183,"cited</w>":12184,"containers</w>":12185,"tulip</w>":12186,"deleg":12187,"torpedo</w>":12188,"ffles</w>":12189,"yoda</w>":12190,"earl</w>":12191,"propag":12192,"ruled</w>":12193,"baroque</w>":12194,"arrested</w>":12195,"1915</w>":12196,"slate</w>":12197,"magno":12198,"nostal":12199,"ballroom</w>":12200,"peanuts</w>":12201,"assist</w>":12202,"wolves</w>":12203,"brighton</w>":12204,"monastery</w>":12205,"detective</w>":12206,"cater":12207,"labour</w>":12208,"carey</w>":12209,"sweets</w>":12210,"losses</w>":12211,"skil":12212,"veterans</w>":12213,"spell</w>":12214,"derby</w>":12215,"concerned</w>":12216,"cornwall</w>":12217,"mals</w>":12218,"straps</w>":12219,"ingredient</w>":12220,"industries</w>":12221,"petersburg</w>":12222,"driveway</w>":12223,"moss</w>":12224,"ffield</w>":12225,"shelving</w>":12226,"yester":12227,"cameras</w>":12228,"ee":12229,"ohi":12230,"quebec</w>":12231,"dives</w>":12232,"1910</w>":12233,"accessible</w>":12234,"mally</w>":12235,"xmas</w>":12236,"adaptation</w>":12237,"geometry</w>":12238,"bend</w>":12239,"oxygen</w>":12240,"sophy</w>":12241,"editing</w>":12242,"vent</w>":12243,"crocodile</w>":12244,"lowest</w>":12245,"numb":12246,"talent</w>":12247,"publishing</w>":12248,"wer":12249,"purse</w>":12250,"moda</w>":12251,"jig":12252,"rounded</w>":12253,"rust</w>":12254,"teens</w>":12255,"faster</w>":12256,"stranger</w>":12257,"burst</w>":12258,"greens</w>":12259,"norfolk</w>":12260,"joy":12261,"hex":12262,"iner":12263,"ssil</w>":12264,"erup":12265,"alarm</w>":12266,"charle":12267,"courts</w>":12268,"spinach</w>":12269,"bn</w>":12270,"metic</w>":12271,"handles</w>":12272,"clearly</w>":12273,"brea":12274,"esco</w>":12275,"eled</w>":12276,"vienna</w>":12277,"dresser</w>":12278,"missile</w>":12279,"icide</w>":12280,"fossil</w>":12281,"ctives</w>":12282,"rajas":12283,"morgan</w>":12284,"planted</w>":12285,"calf</w>":12286,"origins</w>":12287,"vard</w>":12288,"explain</w>":12289,"preserve</w>":12290,"attractions</w>":12291,"mustard</w>":12292,"isers</w>":12293,"hali":12294,"apped</w>":12295,"neighb":12296,"efficient</w>":12297,"shoulders</w>":12298,"disco</w>":12299,"antiques</w>":12300,"enterprise</w>":12301,"flamingo</w>":12302,"oro":12303,"bug":12304,"bonus</w>":12305,"rescu":12306,"prepares</w>":12307,"soda</w>":12308,"smash</w>":12309,"storey</w>":12310,"indicated</w>":12311,"opportunities</w>":12312,"occasions</w>":12313,"rectangle</w>":12314,"cooler</w>":12315,"ukra":12316,"pay":12317,"grammy</w>":12318,"matically</w>":12319,"portugu":12320,"thumbnail</w>":12321,"philosophy</w>":12322,"sequences</w>":12323,"flows</w>":12324,"computers</w>":12325,"paper":12326,"hungarian</w>":12327,"steep</w>":12328,"bonsai</w>":12329,"tomorrow</w>":12330,"picking</w>":12331,"ported</w>":12332,"jedi</w>":12333,"caa</w>":12334,"blackboard</w>":12335,"accept</w>":12336,"cyberpunk</w>":12337,"portions</w>":12338,"gib":12339,"ich":12340,"collective</w>":12341,"childrens</w>":12342,"pioneer</w>":12343,"ecli":12344,"iff</w>":12345,"destroy</w>":12346,"aren</w>":12347,"indians</w>":12348,"torto":12349,"advertisement</w>":12350,"ymouth</w>":12351,"anic</w>":12352,"roast</w>":12353,"hung</w>":12354,"rangers</w>":12355,"divisions</w>":12356,"representatives</w>":12357,"stayed</w>":12358,"hate</w>":12359,"atly</w>":12360,"mighty</w>":12361,"chihu":12362,"external</w>":12363,"nepal</w>":12364,"siege</w>":12365,"holland</w>":12366,"siber":12367,"adams</w>":12368,"elder</w>":12369,"fax</w>":12370,"portuguese</w>":12371,"scratch</w>":12372,"nati</w>":12373,"circum":12374,"symphony</w>":12375,"orb":12376,"sco</w>":12377,"normally</w>":12378,"barbe":12379,"textiles</w>":12380,"thor</w>":12381,"moose</w>":12382,"pedestrian</w>":12383,"eline</w>":12384,"polyg":12385,"puerto</w>":12386,"mock":12387,"compl":12388,"panama</w>":12389,"accompl":12390,"cadil":12391,"aca</w>":12392,"cucu":12393,"suitcase</w>":12394,"achment</w>":12395,"quilts</w>":12396,"eli</w>":12397,"complic":12398,"preview</w>":12399,"hiding</w>":12400,"1916</w>":12401,"topic</w>":12402,"belgian</w>":12403,"phenomen":12404,"syrup</w>":12405,"indigen":12406,"elizabeth</w>":12407,"dwarf</w>":12408,"cry</w>":12409,"charter</w>":12410,"distinctive</w>":12411,"1200</w>":12412,"graphical</w>":12413,"pating</w>":12414,"scores</w>":12415,"posse":12416,"pilgri":12417,"taught</w>":12418,"establish</w>":12419,"ukraine</w>":12420,"dove</w>":12421,"watercolour</w>":12422,"coon</w>":12423,"tux":12424,"decline</w>":12425,"00x":12426,"provincial</w>":12427,"gent</w>":12428,"rica</w>":12429,"abun":12430,"casa</w>":12431,"mammals</w>":12432,"ig</w>":12433,"tz</w>":12434,"cue</w>":12435,"preserved</w>":12436,"embr":12437,"thri":12438,"uk":12439,"enters</w>":12440,"1952</w>":12441,"aero":12442,"lugg":12443,"stics</w>":12444,"coffin</w>":12445,"purposes</w>":12446,"carav":12447,"tulips</w>":12448,"cultiv":12449,"garbage</w>":12450,"indigenous</w>":12451,"centers</w>":12452,"esis</w>":12453,"geographic</w>":12454,"reader</w>":12455,"washed</w>":12456,"attitude</w>":12457,"responsibility</w>":12458,"deaths</w>":12459,"imagine</w>":12460,"renovated</w>":12461,"milky</w>":12462,"aber":12463,"campaig":12464,"ambi":12465,"bah":12466,"bruce</w>":12467,"camouflage</w>":12468,"ramp</w>":12469,"wrapping</w>":12470,"luggage</w>":12471,"enem":12472,"threatened</w>":12473,"trun":12474,"urs</w>":12475,"commonwealth</w>":12476,"ninth</w>":12477,"sushi</w>":12478,"partially</w>":12479,"radar</w>":12480,"westminster</w>":12481,"lizard</w>":12482,"deputy</w>":12483,"willow</w>":12484,"ramad":12485,"stain</w>":12486,"fitting</w>":12487,"gadgets</w>":12488,"couldn</w>":12489,"daisy</w>":12490,"classification</w>":12491,"lum":12492,"locked</w>":12493,"remedies</w>":12494,"endangered</w>":12495,"tarot</w>":12496,"ody":12497,"whisky</w>":12498,"integrated</w>":12499,"sapphire</w>":12500,"greetings</w>":12501,"juras":12502,"commons</w>":12503,"jurassic</w>":12504,"ieties</w>":12505,"creations</w>":12506,"miner":12507,"jay</w>":12508,"evalu":12509,"sist</w>":12510,"theastern</w>":12511,"koi</w>":12512,"coupe</w>":12513,"deployed</w>":12514,"ni</w>":12515,"movements</w>":12516,"responded</w>":12517,"worthy</w>":12518,"puzz":12519,"az</w>":12520,"ducks</w>":12521,"planner</w>":12522,"searching</w>":12523,"vodka</w>":12524,"transmis":12525,"mack":12526,"75":12527,"unt</w>":12528,"shrubs</w>":12529,"casual":12530,"yesterday</w>":12531,"hagen</w>":12532,"poet</w>":12533,"archy</w>":12534,"hung":12535,"ylon</w>":12536,"jon":12537,"authors</w>":12538,"regency</w>":12539,"param":12540,"mechanic</w>":12541,"sheffield</w>":12542,"rex</w>":12543,"nd":12544,"thunder</w>":12545,"vast</w>":12546,"kerala</w>":12547,"bengal</w>":12548,"allies</w>":12549,"tox":12550,"cé</w>":12551,"dai</w>":12552,"taco</w>":12553,"classified</w>":12554,"ohio</w>":12555,"studied</w>":12556,"continuing</w>":12557,"hungry</w>":12558,"cluster</w>":12559,"boost</w>":12560,"cincin":12561,"munich</w>":12562,"georgia</w>":12563,"fisher</w>":12564,"helmets</w>":12565,"zipper</w>":12566,"arabia</w>":12567,"exciting</w>":12568,"casualties</w>":12569,"catering</w>":12570,"chihua":12571,"nelson</w>":12572,"tonight</w>":12573,"aler":12574,"sarees</w>":12575,"grave</w>":12576,"demonstration</w>":12577,"kata</w>":12578,"forbi":12579,"benjam":12580,"teenager</w>":12581,"cigarette</w>":12582,"gem":12583,"seeking</w>":12584,"ratings</w>":12585,"funding</w>":12586,"sophisticated</w>":12587,"pi</w>":12588,"horns</w>":12589,"obvi":12590,"processing</w>":12591,"prest":12592,"lilac</w>":12593,"substitu":12594,"conservative</w>":12595,"pia</w>":12596,"minimum</w>":12597,"magnolia</w>":12598,"squash</w>":12599,"mess</w>":12600,"camo</w>":12601,"revolutionary</w>":12602,"newcastle</w>":12603,"elegance</w>":12604,"hippie</w>":12605,"galleries</w>":12606,"marriott</w>":12607,"160</w>":12608,"coca</w>":12609,"maz":12610,"certific":12611,"dolphins</w>":12612,"gordon</w>":12613,"speed":12614,"bella</w>":12615,"checking</w>":12616,"enemies</w>":12617,"apers</w>":12618,"peppers</w>":12619,"communist</w>":12620,"tampa</w>":12621,"orium</w>":12622,"hydr":12623,"pins</w>":12624,"onym":12625,"fashioned</w>":12626,"linked</w>":12627,"cincinnati</w>":12628,"builders</w>":12629,"repairs</w>":12630,"whil":12631,"dog":12632,"trinity</w>":12633,"dunes</w>":12634,"arrows</w>":12635,"zz</w>":12636,"francis</w>":12637,"uploaded</w>":12638,"sequel</w>":12639,"clever</w>":12640,"ellation</w>":12641,"city":12642,"quant":12643,"pencils</w>":12644,"involving</w>":12645,"layed</w>":12646,"convo":12647,"placement</w>":12648,"1949</w>":12649,"whilst</w>":12650,"bach</w>":12651,"divor":12652,"resource</w>":12653,"refriger":12654,"trap</w>":12655,"capsu":12656,"derman</w>":12657,"marit":12658,"equivalent</w>":12659,"explains</w>":12660,"describing</w>":12661,"pigs</w>":12662,"thermal</w>":12663,"pipes</w>":12664,"struggle</w>":12665,"atus</w>":12666,"elections</w>":12667,"fortune</w>":12668,"landed</w>":12669,"seriously</w>":12670,"topics</w>":12671,"reproduction</w>":12672,"cambodia</w>":12673,"kl":12674,"modern":12675,"envelope</w>":12676,"corve":12677,"battleship</w>":12678,"inning</w>":12679,"bearing</w>":12680,"cubs</w>":12681,"automotive</w>":12682,"boulev":12683,"intercep":12684,"boulevard</w>":12685,"paras":12686,"gossi":12687,"teries</w>":12688,"lanterns</w>":12689,"stencil</w>":12690,"panther</w>":12691,"whist":12692,"raf</w>":12693,"1919</w>":12694,"agents</w>":12695,"welding</w>":12696,"hr</w>":12697,"lob":12698,"transformed</w>":12699,"1951</w>":12700,"arabian</w>":12701,"76":12702,"ros</w>":12703,"encies</w>":12704,"lanes</w>":12705,"pigeon</w>":12706,"stall</w>":12707,"turing</w>":12708,"grams</w>":12709,"desc":12710,"obtained</w>":12711,"nebula</w>":12712,"22":12713,"speakers</w>":12714,"organizations</w>":12715,"cracker</w>":12716,"benjamin</w>":12717,"mythical</w>":12718,"transform</w>":12719,"cows</w>":12720,"grows</w>":12721,"span</w>":12722,"researchers</w>":12723,"intensi":12724,"tooth":12725,"immun":12726,"confidence</w>":12727,"found":12728,"kick":12729,"rob":12730,"bank":12731,"penalty</w>":12732,"jars</w>":12733,"astronomy</w>":12734,"neo</w>":12735,"comments</w>":12736,"axis</w>":12737,"venture</w>":12738,"ripe</w>":12739,"1929</w>":12740,"rocking</w>":12741,"rowing</w>":12742,"dense</w>":12743,"directions</w>":12744,"majestic</w>":12745,"nell</w>":12746,"tamil</w>":12747,"walkthrough</w>":12748,"brides</w>":12749,"attorney</w>":12750,"typho":12751,"stomach</w>":12752,"circulation</w>":12753,"unesco</w>":12754,"howard</w>":12755,"destroyer</w>":12756,"50th</w>":12757,"unity</w>":12758,"sustained</w>":12759,"ava</w>":12760,"hero":12761,"1935</w>":12762,"mck":12763,"acknow":12764,"parish</w>":12765,"physi":12766,"triumph</w>":12767,"gymnast":12768,"familiar</w>":12769,"pated</w>":12770,"mod</w>":12771,"hart":12772,"readers</w>":12773,"versy</w>":12774,"controversy</w>":12775,"gradually</w>":12776,"persu":12777,"aux</w>":12778,"genesis</w>":12779,"merchand":12780,"atti</w>":12781,"warming</w>":12782,"tably</w>":12783,"efs</w>":12784,"hottest</w>":12785,"wii</w>":12786,"thigh</w>":12787,"doodles</w>":12788,"disaster</w>":12789,"tesla</w>":12790,"commu":12791,"andrew</w>":12792,"herb</w>":12793,"cans</w>":12794,"infant</w>":12795,"ionally</w>":12796,"inty</w>":12797,"trailers</w>":12798,"dat":12799,"skillet</w>":12800,"constellation</w>":12801,"thermo":12802,"dh":12803,"marking</w>":12804,"resin</w>":12805,"nsw</w>":12806,"ornate</w>":12807,"edmonton</w>":12808,"thick":12809,"runners</w>":12810,"kuala</w>":12811,"illness</w>":12812,"narrative</w>":12813,"intimate</w>":12814,"piter</w>":12815,"settled</w>":12816,"lished</w>":12817,"decide</w>":12818,"necklaces</w>":12819,"vous</w>":12820,"indian":12821,"comprehen":12822,"twood</w>":12823,"bility</w>":12824,"pler</w>":12825,"tron</w>":12826,"afghan":12827,"seek</w>":12828,"carrots</w>":12829,"strips</w>":12830,"pilots</w>":12831,"quis":12832,"bangladesh</w>":12833,"entertaining</w>":12834,"eyebro":12835,"afghanistan</w>":12836,"1940s</w>":12837,"45":12838,"anth":12839,"semin":12840,"whipped</w>":12841,"renamed</w>":12842,"trout</w>":12843,"ambassador</w>":12844,"holm</w>":12845,"murray</w>":12846,"vre</w>":12847,"committed</w>":12848,"forti":12849,"sufficient</w>":12850,"racks</w>":12851,"collecting</w>":12852,"spur</w>":12853,"oscar</w>":12854,"emphas":12855,"requirements</w>":12856,"pleasant</w>":12857,"representation</w>":12858,"col</w>":12859,"prisoners</w>":12860,"48":12861,"mosqu":12862,"bumper</w>":12863,"hara</w>":12864,"motors</w>":12865,"duo</w>":12866,"depending</w>":12867,"zel</w>":12868,"jewel</w>":12869,"bases</w>":12870,"fate</w>":12871,"rav":12872,"compound</w>":12873,"hou</w>":12874,"veil</w>":12875,"half":12876,"aker</w>":12877,"etary</w>":12878,"nerd</w>":12879,"affect</w>":12880,"eo":12881,"banquet</w>":12882,"bare</w>":12883,"peas</w>":12884,"hobb":12885,"handed</w>":12886,"approached</w>":12887,"moral</w>":12888,"federation</w>":12889,"exploration</w>":12890,"dozen</w>":12891,"sheer</w>":12892,"applications</w>":12893,"film":12894,"adela":12895,"cooling</w>":12896,"reservo":12897,"specul":12898,"remodeling</w>":12899,"maya</w>":12900,"simon</w>":12901,"lays</w>":12902,"angler</w>":12903,"declined</w>":12904,"chihuahua</w>":12905,"sided</w>":12906,"versat":12907,"greenery</w>":12908,"settings</w>":12909,"krish":12910,"remark":12911,"stops</w>":12912,"comb</w>":12913,"door":12914,"drome</w>":12915,"indicate</w>":12916,"onymous</w>":12917,
[...]
