#version: 0.2 - Trained by `huggingface/tokenizers`
t h
i n
th e</w>
e r
a n
o n</w>
a r
r e
s t
a t
in g</w>
i t
e r</w>
r o
o r
o f</w>
e n
e d</w>
i n</w>
a l
an d</w>
o n
e s</w>
o u
p er
a c
i l
s on</w>
o r</w>
t o</w>
i c
per son</w>
h o
i on</w>
d e
a n</w>
r a
a t</w>
c o
l o
i s</w>
a l</w>
l e
a s</w>
c h
u r
a s
i s
i g
u n
l e</w>
b e
a m
i r
t o
s e
w it
a g
wit h</w>
r i
e n</w>
f or</w>
i m
w h
s t</w>
l u
t s</w>
at ion</w>
l i
n e
s h
w e
b o
a p
a d
p o
v e</w>
m o
t e
s i
d i
l y</w>
l a
s e</w>
c t
s p
b u
b y</w>
c on
st r
en t</w>
er s</w>
a r</w>
m e
i t</w>
a y</w>
t i
s u
al l</w>
v e
d s</w>
a b
o l
o c
v i
f ro
d ing</w>
in t
co m
a k
th e
e l
q u
ig h
n o
d o
p ho
p ro
a u
c e</w>
w as</w>
s c
2 0
h a
s s</w>
f e
v er
p ar
t h</w>
ou n
ag e</w>
f or
th at</w>
fro m</w>
en t
e t</w>
p l
s ig
c h</w>
il lu
m e</w>
i on
illu str
p h
w or
ro o
er e</w>
c ar
c e
in g
illustr ation</w>
g ra
d e</w>
o o
ur e</w>
t er</w>
ac k
ar t</w>
t r
at e</w>
i c</w>
v er</w>
th is</w>
co l
t y</w>
in e</w>
e x
it e</w>
c u
on e</w>
p re
p e
it y</w>
m an</w>
g ro
s ho
f u
ar e</w>
de sig
oc k</w>
ac k</w>
b r
i r</w>
ou r</w>
s s
d u
re e</w>
roo m</w>
st ock</w>
h e
d ay</w>
g e</w>
at ed</w>
th er</w>
b l
1 9
igh t</w>
s o
t ra
m u
20 1
t a
a d</w>
l d</w>
f f
m b
re d</w>
t er
w n</w>
al l
ac e</w>
i es</w>
h ou
pho to
m ar
p a
m an
m a
p u
c re
m ent</w>
g re
g u
ou t</w>
p or
t e</w>
un d</w>
h is</w>
c i
l as
a f
an d
r u
b ack
g e
at ion
y o
t u
ic e</w>
desig n</w>
p le</w>
b e</w>
k s</w>
d re
u p</w>
a v
wh ite</w>
t ing</w>
p la
ar d</w>
p r
k e
c or
it s</w>
gro und</w>
k ing</w>
d er
an t</w>
d er</w>
s er
oo d</w>
am e</w>
ne w</w>
h e</w>
h i
d ra
k e</w>
p ic
ab le</w>
d is
yo u</w>
gra ph
ing s</w>
t ed</w>
pho to</w>
ar y</w>
m on
lo w
ak e</w>
m in
i ve</w>
il l
ct or</w>
st or
w at
back ground</w>
ou r
st er</w>
ic h</w>
en ts</w>
b a
st y
g o
l es</w>
l l</w>
a m</w>
hou se</w>
on g</w>
t im
il l</w>
vi e
f ir
e v
ur ing</w>
bu il
m or
re s</w>
t w
m i
o k</w>
p s</w>
is h</w>
we d
st u
ct ion</w>
f t</w>
m s</w>
d ed</w>
f ree</w>
w o
y s</w>
sh ir
l and</w>
c k</w>
st e
s k
de n</w>
int er
o l</w>
ol d</w>
v ing</w>
u s
ac h</w>
f i
wh ich</w>
fu l</w>
al s</w>
ou t
an g
p p
y e
bl ack</w>
j u
ro y
s o</w>
ve ctor</w>
on s</w>
s a
h er</w>
m y</w>
j e
wed ding</w>
w ere</w>
il e</w>
in e
as t</w>
en g
mb er</w>
al ly</w>
as h
f in
f l
ac t
c t</w>
l l
sp e
m en</w>
ho me</w>
ro u
g ar
c lo
photo graph
ar s</w>
ad e</w>
in t</w>
c lu
or s</w>
g h</w>
ou s</w>
s m
ch e
re n
y our</w>
r an
ic al</w>
g i
c ent
shir t</w>
b i
w ing</w>
wor ld</w>
ha ve</w>
tw o</w>
w ay</w>
si de</w>
u s</w>
vie w</w>
i l</w>
r y</w>
p at
d uring</w>
g o</w>
o p
i de
u m</w>
h as</w>
sh i
en ce</w>
the ir</w>
fir st</w>
is t</w>
l ine</w>
no t</w>
bu t</w>
ch ar
g ir
at t
al e</w>
n ing</w>
i an</w>
w s</w>
n s</w>
c an
e l</w>
p i
a ir
n u
o ff
ag es</w>
an im
t ure</w>
e le
i a</w>
sty le</w>
lo w</w>
o ther</w>
lo c
b as
se t</w>
ha d</w>
m at
n or
0 0</w>
l ar
t t
ap er</w>
s y
ar t
j o
al ty</w>
af ter</w>
d it
b lu
po s
im age</w>
an s</w>
ation s</w>
be au
si c</w>
w i
c an</w>
w ar
ou ld</w>
l s</w>
c oun
n o</w>
tim e</w>
h u
lo o
y ing</w>
p aper</w>
photograph y</w>
roy alty</w>
oun d</w>
com p
o ver</w>
f ash
pa int
t ri
b ri
b ir
buil ding</w>
c ity</w>
w all
in s</w>
i d</w>
t at
p e</w>
an ce</w>
c las
a st
m p
the y</w>
v ed</w>
st re
b ro
fash ion</w>
f o
to p</w>
l it
te l</w>
t ion</w>
com m
s ou
i al</w>
am er
c ro
t ur
mor e</w>
at u
g ame</w>
blu e</w>
in to</w>
f low
car to
be st</w>
v is
at ing</w>
ide as</w>
w in
il y</w>
f e</w>
w all</w>
an t
b le</w>
r it
b re
wh o</w>
ce p
so me</w>
d y</w>
c as
ri st
f f</w>
ra l</w>
ation al</w>
de c
photo s</w>
b er
m er</w>
en d</w>
ho tel</w>
c ra
20 0
w al
s es</w>
b all</w>
r ic
c k
m ade</w>
in k</w>
tat to
is h
ac h
i or</w>
wh ere</w>
al so</w>
e ar
carto on</w>
f am
n er</w>
gir l</w>
mo st</w>
b ed</w>
ag a
s ur
at es</w>
col le
w a
u l
n ed</w>
ve l</w>
ro n
ab out</w>
f il
sc ho
ch rist
wh en</w>
g en
g h
h el
t re
beau ti
c l
s un
st o
an y</w>
wat er</w>
im ages</w>
ar e
t able</w>
i z
w ood</w>
at ive</w>
en s</w>
pl an
a ir</w>
v es</w>
or t</w>
ic k
an ds</w>
wor k</w>
beauti ful</w>
m as</w>
wo man</w>
t es</w>
w ill</w>
no w</w>
we en</w>
bo ok</w>
it ch
ye ar</w>
la r</w>
n y</w>
d on</w>
o s</w>
ta in</w>
pla y
2 0</w>
in di
d a
c ur
pro du
ch il
amer ic
be en</w>
dre ss</w>
p en
d ge</w>
f un
in clu
t ro
c ar</w>
b ur
e st
v int
th rou
vint age</w>
n i
ver y</w>
w er</w>
at e
c es</w>
s il
li fe</w>
ho w</w>
sh e</w>
ig h</w>
b ack</w>
shi p</w>
be t
w e</w>
s im
be ach</w>
s ion</w>
x t</w>
str u
m er
k i
sm all</w>
mo vi
ion s</w>
li ke</w>
ar ch
pe o
fro n
ic s</w>
l on
lo ve</w>
in ing</w>
is e</w>
h ar
t on</w>
the se</w>
peo ple</w>
scho ol</w>
t or
f ri
christ mas</w>
do or</w>
f lo
n ational</w>
m ake</w>
h and</w>
m ay</w>
m ents</w>
c ho
mo der
m es</w>
c ap
for m
un i
be d
par k</w>
stor y</w>
g las
h igh</w>
g r
g s</w>
k itch
h or
p ri
m il
it ed</w>
d ar
t le</w>
m ak
l ight</w>
b ar
col or</w>
th er
it e
z e</w>
ne y</w>
wall paper</w>
1 8
m oun
1 0</w>
gre en</w>
am p
d o</w>
c er
pr int</w>
f ace</w>
ho l
fron t</w>
r e</w>
gar den</w>
th ing</w>
th ere</w>
tr u
paint ing</w>
th ou
lo go</w>
w oo
h al
qu o
bo o
moder n</w>
at er</w>
h er
bu s
ap p
e p
n ight</w>
l ong</w>
g et</w>
wh ile</w>
li ving</w>
t ree</w>
throu gh</w>
b or
dra wing</w>
tu res</w>
re s
po ster</w>
te m
f fe
tr an
wh at</w>
ti c</w>
ur y</w>
as y</w>
f ood</w>
wo men</w>
er y</w>
a ther</w>
ss es</w>
th ree</w>
kitch en</w>
su m
as s
c ts</w>
fam ily</w>
ic k</w>
p es</w>
y oun
tr y</w>
d en
do g</w>
st a
qu e</w>
on ly</w>
t y
l in
f oo
man y</w>
l ed</w>
st ic</w>
pre s
o ff</w>
ac t</w>
or ig
d es</w>
c au
k ed</w>
r ing</w>
a il
re ci
pat ter
stre et</w>
con cep
nor th</w>
e k</w>
par t</w>
w ould</w>
li c</w>
de cor
l igh
ap e</w>
c ou
b an
am es</w>
par ty</w>
f ur
se a</w>
t al</w>
mu sic</w>
lo g
for e</w>
te am</w>
t en
th an</w>
201 9</w>
lit tle</w>
po l
at ure</w>
gre at</w>
loc ated</w>
s ing
p an
st ri
us ed</w>
ser v
ro ad</w>
bo ard</w>
cu te</w>
st s</w>
youn g</w>
fo re
u e</w>
le ss</w>
bus ine
l and
lar ge</w>
i ous</w>
f ol
pl ace</w>
ba by</w>
w rit
th o
s on
w il
at s</w>
mo de
it ies</w>
fil m</w>
c ed</w>
ar ound</w>
bet ween</w>
ct ed</w>
e t
bed room</w>
c le
ri ver</w>
it ion</w>
s le
t en</w>
be fore</w>
v o
el d</w>
orig in
por t</w>
b al
un der</w>
a son</w>
ha ir</w>
ju st</w>
v al
f er
c a
americ an</w>
s al
do wn</w>
v en
t in
me di
in sp
nu mber</w>
t ak
pic tures</w>
ir e</w>
in ed</w>
f ac
inter ior</w>
pr in
are a</w>
s qu
ch es</w>
sp ace</w>
s it
in st</w>
aga inst</w>
su p
dar k</w>
char ac
ki ds</w>
l an
c y
s we
c am
sho w</w>
concep t</w>
c our
movi e</w>
pl ac
se l
d ent</w>
st er
lon don</w>
b ra
he ad</w>
s si
lo ok</w>
ch an
is ol
le y</w>
st an
ba th
ct ure</w>
e p</w>
di ff
f ar
a z
re ad
por tra
s co
e st</w>
ac ti
c ake</w>
bir th
le t</w>
or y</w>
tatto o</w>
pic ture</w>
clas sic</w>
v al</w>
ce ss</w>
se con
k et</w>
le as
m as
ye ars</w>
k no
out f
dec or</w>
sou th</w>
we st</w>
p al
n am
ce le
pla y</w>
ne ar</w>
ar ing</w>
arch ite
fun ny</w>
isol ated</w>
g old</w>
st ar</w>
se ason</w>
ser ies</w>
ver s
quo tes</w>
birth day</w>
we ll</w>
p ur
glas s</w>
m is
f ra
flow ers</w>
g ood</w>
j un
the m</w>
colle ction</w>
h app
a k</w>
ce ss
charac ter</w>
s oc
19 9
u se</w>
sum mer</w>
n it
f ic
he al
or e</w>
o ver
par t
l ing</w>
ke t
w ard</w>
v en</w>
pro je
fi eld</w>
r ight</w>
p ink</w>
off ice</w>
anim als</w>
d r
to wn</w>
g ol
b er</w>
st ed</w>
int er</w>
wi th
busine ss</w>
desig ns</w>
d d
e u
h igh
i f</w>
it al</w>
spe ci
be ing</w>
re l
pre mi
hi m</w>
ph one</w>
ion al</w>
e s
e se</w>
gen er
u ary</w>
r un
g er
sc ri
cele br
si ze</w>
at h</w>
s li
fu ll</w>
s w
su b
be g
c all
u p
patter n</w>
loo king</w>
sk y</w>
ish ed</w>
comp le
br it
for m</w>
ho o
hi story</w>
h and
en d
flow er</w>
tra vel</w>
car s</w>
bi g</w>
land sc
co ver</w>
j ack
gro up</w>
co o
g er</w>
l a</w>
e ach</w>
secon d</w>
ke y</w>
com e</w>
st ate</w>
d in
bath room</w>
w ar</w>
dis ney</w>
dre sses</w>
bo x</w>
dit ion</w>
s ale</w>
cra ft</w>
in d</w>
f la
w n
off ic
f our</w>
origin al</w>
e y
flo or</w>
s en
wat er
diff er
un ited</w>
chil dre
tatto os</w>
vi de
m ale</w>
w inter</w>
ap pe
c ir
o b
t it
re cor
in a</w>
sho p</w>
1 2</w>
te xt</w>
ev ent</w>
v ar
ve lo
0 00</w>
bo y</w>
c al
re leas
m ing</w>
0 s</w>
d ri
we l
g an
s h</w>
le ft</w>
f ran
gh t</w>
c at</w>
au str
j ap
d a</w>
happ y</w>
st ar
sig n</w>
la ke</w>
sel f</w>
foo t
austr al
childre n</w>
g a
win do
bo th</w>
m ag
cu sto
portra it</w>
f re
g ames</w>
di re
woo den</w>
sc en
c le</w>
stu di
en ing</w>
co stu
cent er</w>
c ame</w>
h ere</w>
201 8</w>
el low</w>
m a</w>
sp or
be ds</w>
he art</w>
ap art
v ill
col or
sy m
th en</w>
ad v
clo se</w>
l ater</w>
n a
is land</w>
c o</w>
5 0</w>
for d</w>
d ic
sy ste
k o
p h</w>
e g
l ish</w>
sc re
out door</w>
si ve</w>
de velo
qu i
s ed</w>
c y</w>
k er</w>
se e</w>
hol ding</w>
ne ss</w>
we ar</w>
t ter
per i
c el
t ter</w>
wh e
f le
d ro
pi e
fol low
il ing</w>
in v
1 5</w>
sh e
3 d</w>
reci pes</w>
ma p</w>
i e
su ch</w>
atu res</w>
archite cture</w>
war ds</w>
b en
3 0</w>
anim al</w>
cas e</w>
e ve</w>
m ed</w>
s po
al ong</w>
mode l</w>
in es</w>
un der
sty les</w>
st i
g a</w>
f ts</w>
fur nit
furnit ure</w>
t ake</w>
y ellow</w>
e asy</w>
cu l
car d</w>
t al
mb ers</w>
1 1</w>
kno wn</w>
20 20</w>
is o
er ed</w>
ba g</w>
m ill
e y</w>
po pu
d ig
w l</w>
bo dy</w>
st ers</w>
coun try</w>
las t</w>
comp any</w>
cau se</w>
po ol</w>
av y</w>
ne xt</w>
b att
thou gh</w>
fir e</w>
op en</w>
ro ck</w>
e ment</w>
se ver
ffe e</w>
ma in</w>
cre ative</w>
por t
d ents</w>
c ast
re sta
resta ur
19 8
st ra
b s</w>
on al</w>
on d</w>
fore st</w>
le g
t ting</w>
ss ed</w>
c ru
re g
e mp
e ts</w>
bri dge</w>
it al
ren ch</w>
lu x
c la
co ffee</w>
ic on</w>
sho es</w>
c li
an other</w>
or gan
per s</w>
ear ly</w>
vide o</w>
inclu ding</w>
d ol
per fe
pro te
f ig
us ing</w>
al bu
i um</w>
su l
af ric
clu b</w>
a in</w>
o per
f all</w>
te x
roo ms</w>
fe at
19 6
feat uring</w>
h un
le ad
st one</w>
ele ct
ch amp
i o</w>
da ys</w>
so me
v il
con tin
insp ir
sit ting</w>
ch ur
is m</w>
s ing</w>
e m
l am
i de</w>
differ ent</w>
sim ple</w>
y ard</w>
we aring</w>
a th
indi an</w>
brit ish</w>
pp ed</w>
me tal</w>
h on
wa ys</w>
en ds</w>
19 7
c ks</w>
c r
sc i
l ad
n e</w>
t an
as e</w>
pl ate</w>
co ol</w>
sym bo
mar ch</w>
sh el
eng land</w>
outf its</w>
b and</w>
ro w</w>
ho li
vis ion</w>
cent ury</w>
develo p
c ab
log y</w>
n ature</w>
s in
pp ing</w>
et te</w>
in st
moun tain</w>
ta ins</w>
dit ional</w>
f ish</w>
h y
su c
st ick
comm un
se p
ri c</w>
l im
m ent
landsc ape</w>
ic es</w>
st ing</w>
b b
in side</w>
n atu
f rench</w>
c ould</w>
gir ls</w>
con si
eu ro
fin d</w>
f it</w>
natu ral</w>
he ad
tim es</w>
b at
b ar</w>
act ion</w>
bre ak
ri l</w>
m al
de l
al ity</w>
d an
s at
e an</w>
on es</w>
stan ding</w>
sh ort</w>
syste m</w>
w ings</w>
201 7</w>
il s</w>
ap ril</w>
s ite</w>
u al</w>
ta il</w>
mo ther</w>
s ong</w>
pu b
st ates</w>
f ast</w>
n a</w>
con stru
fl at</w>
d ers</w>
2 5</w>
av es</w>
hu man</w>
restaur ant</w>
el s</w>
l er</w>
p et</w>
pub lic</w>
qu e
tre es</w>
b lo
li ve</w>
i e</w>
at or</w>
te ch
en ti
sp ring</w>
il ity</w>
ep iso
for ce</w>
pp er</w>
mu se
perfe ct</w>
m y
m ic
f ant
sever al</w>
we ek</w>
1 6</w>
a p</w>
col ors</w>
sa id</w>
be cause</w>
1 8</w>
s ame</w>
w ho
th y</w>
e d
cu p</w>
le ather</w>
bri de</w>
gra ph</w>
co ver
is ed</w>
per for
fe sti
pro vi
sho t</w>
le ar
re ce
fant asy</w>
on line</w>
albu m</w>
su per
bro wn</w>
v ic
d ou
chur ch</w>
an ge</w>
sil ver</w>
roy al</w>
ne w
1 3</w>
1 4</w>
t v</w>
e very</w>
sho ws</w>
tran s
mil it
jun e</w>
indi a</w>
ju ly</w>
bo at</w>
di d</w>
boo ks</w>
z z
i i</w>
d ings</w>
er ing</w>
au gu
1 0
g al
s ket
in du
r ac
f ound</w>
do wn
call ed</w>
jack et</w>
cou ple</w>
muse um</w>
c er</w>
t ers</w>
c a</w>
an ci
p lu
e ast</w>
re si
tr o</w>
fu n</w>
ss ion</w>
t ab
go ver
s ol
201 6</w>
ex am
uni vers
ou l
n ame</w>
can ad
l ace</w>
ther n</w>
pl ant</w>
j an
se en</w>
o wn</w>
19 4
premi ere</w>
ic i
foot ball</w>
po wer</w>
st ill</w>
fin al</w>
iz ed</w>
ar ch</w>
hal f</w>
re tur
b un
re al</w>
po int</w>
th ings</w>
t a</w>
f ive</w>
d ining</w>
play ed</w>
e ver
buil t</w>
apart ment</w>
al i
no ve
wor king</w>
be l
pl an</w>
serv ice</w>
ak es</w>
chil d</w>
am az
mak ing</w>
ct ive</w>
f ru
mu l
beau ty</w>
v ers</w>
pla ying</w>
st ation</w>
per son
ho we
do m</w>
howe ver</w>
writ ing</w>
fla g</w>
l ands</w>
sing le</w>
oc to
pic al</w>
r ace</w>
v as</w>
s mo
hi stor
f a
t ren
lo t</w>
h ands</w>
milit ary</w>
i red</w>
pres ent
th ir
l y
stu dents</w>
ti es</w>
festi val</w>
ne ws</w>
plac es</w>
g all
gi ft</w>
in cre
t our</w>
con tro
sep te
t our
septe mber</w>
gover n
v in
t ty</w>
c at
s an</w>
sil hou
te st</w>
h ind</w>
hal lo
lux ury</w>
ra in
ho t</w>
hallo ween</w>
c ing</w>
sho wing</w>
min i
su n</w>
mu ch</w>
sp on
custo m</w>
res ort</w>
studi o</w>
fe male</w>
an a</w>
mo on</w>
ack s</w>
1 7</w>
proje ct</w>
hor se</w>
su it</w>
f av
lin es</w>
201 5</w>
spor ts</w>
t ar
de s
st on</w>
acti v
p il
ti ps</w>
ll ing</w>
squ are</w>
co tt
follow ing</w>
ne ed</w>
gre y</w>
h am
out side</w>
d on
1 7
be hind</w>
e ds</w>
p ra
ge st</w>
der ed</w>
eng lish</w>
ic le</w>
ti ons</w>
bir d</w>
e ting</w>
stor e</w>
can vas</w>
ha ir
wor k
bo wl</w>
shi ps</w>
air s</w>
mar ket</w>
ar my</w>
cho col
ro und</w>
or ange</w>
st age</w>
be came</w>
s now</w>
de scri
episo de</w>
g y</w>
holi day</w>
b ay</w>
pu bl
is ing</w>
windo w</w>
ap pro
l ist</w>
ch ing</w>
graph ic</w>
ma j
r ings</w>
bo tt
cl ou
inter national</w>
ph il
wat ch</w>
s au
la y
ine se</w>
a bo
sin ce</w>
ill ed</w>
di e</w>
rece i
ev en</w>
oc ean</w>
mill ion</w>
g lo
augu st</w>
t ou
to ge
su g
1 00</w>
jo h
tra ditional</w>
an ese</w>
chocol ate</w>
ti l</w>
ve ly</w>
ch inese</w>
toge ther</w>
v ol
cu t</w>
u res</w>
we e
clas s</w>
i m</w>
me d
octo ber</w>
am s</w>
plan ts</w>
pre si
p er</w>
b ou
in f
gol den</w>
k es</w>
sun set</w>
reci pe</w>
2 4</w>
wal k</w>
fi re
d i</w>
s n
pie ce</w>
sp ort</w>
un til</w>
2 1</w>
ag ue</w>
com b
c rit
ear th</w>
austral ia</w>
wor ks</w>
m ach
bas ed</w>
e f
mat ch</w>
ve h
d ance</w>
qu ar
de f
o il</w>
costu me</w>
jap anese</w>
ac ro
pa int</w>
h all</w>
movi es</w>
cast le</w>
p as
sle eve</w>
u k</w>
b le
p t</w>
bo w</w>
loo ks</w>
ag s</w>
ag o</w>
hel p</w>
y wood</w>
stick er</w>
ch ick
ar ri
ch i
ha m</w>
ish ing</w>
fl or
pl ans</w>
lo s</w>
photo graph</w>
p ass
e ffe
re ad</w>
ill s</w>
anim e</w>
re tro</w>
it u
mor ning</w>
e ver</w>
fra me</w>
clo thing</w>
19 5
201 4</w>
cro ss</w>
m ens</w>
art ist</w>
h at</w>
sh ar
ct ions</w>
re sul
act ers</w>
char acters</w>
do gs</w>
play er</w>
inspir ation</w>
po w
f oun
man ag
nove mber</w>
do ors</w>
s y</w>
releas ed</w>
h d</w>
igh ts</w>
sli m</w>
com ing</w>
st ars</w>
m en
s ical</w>
de st
o t</w>
tru ck</w>
at o
i st
silhou ette</w>
en ded</w>
l ate</w>
me mor
ch air</w>
wal king</w>
read y</w>
color ful</w>
ad o
abo ve</w>
dra wings</w>
ver sion</w>
to ok</w>
constru ction</w>
a way</w>
ang el
gener al</w>
heal thy</w>
ver se</w>
ail s</w>
d ate</w>
act or</w>
ha ving</w>
1 9</w>
ab str
1 6
dra wn</w>
contin u
av ail
str y</w>
bu l
en jo
an ts</w>
ever y
we ster
speci al</w>
jan uary</w>
cre am</w>
gr and</w>
dd le</w>
li es</w>
with out</w>
mo ti
dig ital</w>
tho se</w>
wor d</w>
sc ul
univers ity</w>
ll ywood</w>
m ou
th s</w>
ar ts</w>
is su
fi ed</w>
de ce
f res
fe atures</w>
s am
ci l</w>
cover ed</w>
di st
br an
2 2</w>
ho mes</w>
or ies</w>
abstr act</w>
anci ent</w>
gall ery</w>
m p</w>
gu ide</w>
di am
m on</w>
chan ge</w>
fe w</w>
c ent</w>
cre ate</w>
popu lar</w>
a y
c akes</w>
o d
dra g
pol ice</w>
te le
com pu
sh oul
ligh ts</w>
avail able</w>
le ague</w>
ver t
v ac
cer e
st and</w>
com ic</w>
ro r</w>
pre ss</w>
al though</w>
k a</w>
ig n</w>
se arch</w>
gu it
mo tor
pos ition</w>
d am
tem por
fres h</w>
cent ral</w>
tak en</w>
loc al</w>
uni que</w>
air craft</w>
ex ter
far m</w>
f it
an ti
ll s</w>
v an
tra ining</w>
vic tor
hel d</w>
fe br
c amer
febr uary</w>
americ a</w>
to day</w>
tro pical</w>
amaz ing</w>
l or
c ast</w>
dece mber</w>
dre am</w>
thir d</w>
acro ss</w>
wester n</w>
me mbers</w>
spe c
p ack
4 0</w>
j our
ol s</w>
beg an</w>
pl es</w>
au th
con ne
ho me
re mo
pos ed</w>
ad s</w>
tu red</w>
ta in
re ma
sci ence</w>
ie ty</w>
de li
or der</w>
tu m
pur ple</w>
la un
du e</w>
z e
mo b
th ers</w>
ne ver</w>
com pe
con cer
si x</w>
perfor man
ch ina</w>
form ed</w>
symbo l</w>
la y</w>
201 3</w>
scul p
g ed</w>
appe ar
n avy</w>
ro un
coun ty</w>
y or
h ill</w>
mak e
t un
po st</w>
wi de</w>
ate ly</w>
wil d</w>
ch ang
chick en</w>
it ing</w>
k now</w>
i d
pa ir</w>
glas ses</w>
bi ke</w>
so ft</w>
scen e</w>
m ir
ate st</w>
n ails</w>
ar ti
sh ould</w>
lu tion</w>
f ile</w>
to wer</w>
co at</w>
batt le</w>
hou ses</w>
f el
e mb
t ly</w>
ar ds</w>
co ast</w>
str ic
ey e</w>
desig ned</w>
sp ar
m ac
2 3</w>
pro gra
vil le</w>
maj or</w>
f ly</w>
paint ed</w>
be li
si ons</w>
ro man
je wel
le a
vill age</w>
ti al</w>
ac cess
f ather</w>
f igh
t il
r y
tra in</w>
tit le</w>
ru ssi
a wards</w>
m aga
l ap
201 2</w>
19 3
angel es</w>
maga z
in ts</w>
w on</w>
po sters</w>
to o</w>
mi ddle</w>
r s</w>
n ers</w>
n al</w>
fu l
b loo
ma ster</w>
ch ed</w>
with in</w>
champ ion
on ed</w>
an n
moun tains</w>
bas e</w>
m ad
x ic
de ta
s day</w>
ser ved</w>
b ak
bor n</w>
a x
govern ment</w>
sp i
e du
tr ack</w>
break fast</w>
mat er
or ing</w>
heal th</w>
com ics</w>
produ ction</w>
ss ing</w>
p lo
car e</w>
w ine</w>
se le
sup er</w>
run ning</w>
dra w</w>
go ing</w>
d ence</w>
tempor ary</w>
po lit
s and
afric an</w>
stor m</w>
h an
w ant</w>
jewel ry</w>
se qu
2 8</w>
st ron
p age</w>
e f</w>
z o
hi b
shoul der</w>
colle ge</w>
scre en</w>
k ing
pa pers</w>
mi x
2 7</w>
ger man</w>
to ys</w>
sho wer</w>
g y
for t</w>
form ation</w>
prin cess</w>
so f
ap ple</w>
b an</w>
re spon
le aves</w>
for mer</w>
all s</w>
a de
ru n</w>
sw im
fri ends</w>
edu c
p ack</w>
o d</w>
be ar</w>
pu t</w>
cere mon
a ster</w>
commun ity</w>
g as</w>
se cre
s l
d y
g es</w>
1 5
na il</w>
am ong</w>
ac cor
f ab
r a</w>
s ch
cra fts</w>
me xic
qu ality</w>
presi dent</w>
insp ired</w>
fu ture</w>
en ed</w>
vie ws</w>
fer ence</w>
n ur
bo ys</w>
que en</w>
pro fe
v ir
ran ge</w>
exter ior</w>
ve ge
con tain</w>
gra y</w>
br ight</w>
int ed</w>
vi l</w>
f ic</w>
p un
buil dings</w>
ex peri
f air
canad a</w>
i phone</w>
car e
ge o
read ing</w>
g n
fru it</w>
ing ton</w>
2 6</w>
bir ds</w>
on ce</w>
c and
sp ir
ra in</w>
ty pe</w>
bu y</w>
in n</w>
b a</w>
val ley</w>
swe et</w>
fig ure</w>
h ang
fran ce</w>
o w
af e</w>
li br
cour t</w>
st atu
r on</w>
com es</w>
hoo d</w>
a i</w>
bri d
par is</w>
po p</w>
water color</w>
pre tty</w>
hair styles</w>
bott le</w>
ho llywood</w>
mon ey</w>
ne ck
mar vel</w>
compu ter</w>
co p
ber ry</w>
lo st</w>
proje cts</w>
inclu ded</w>
201 1</w>
st ad
te a</w>
sup port</w>
develop ment</w>
boo ts</w>
spec ies</w>
su pp
nam ed</w>
me t</w>
au gh
de ath</w>
magaz ine</w>
al ter
pro per
te e</w>
pr act
h ard</w>
ste el</w>
se am
mach ine</w>
pos it
201 0</w>
wall s</w>
mob ile</w>
no w
br and</w>
im port
min u
u t</w>
g oo
ide a</w>
camer a</w>
si ble</w>
ic les</w>
ne l</w>
paint ings</w>
en ces</w>
ne t
g an</w>
cur ren
st art</w>
fam ous</w>
play ers</w>
ra di
i als</w>
bu tter
ste p</w>
p ed</w>
w ars</w>
cent re</w>
cep tion</w>
pre par
recei ved</w>
ele ments</w>
qu est
ach ed</w>
k y</w>
le vel</w>
exam ple</w>
at i
o f
jap an</w>
gar d
2 9</w>
g am
the at
stor age</w>
de ad</w>
sh or
me l
ex ten
do es</w>
in de
w in</w>
to y</w>
d oc
cre ated</w>
int en
l ation</w>
flor al</w>
6 0</w>
ev ents</w>
sket ch</w>
plac ed</w>
t on
no v
ent ly</w>
cl im
fri end</w>
sh ap
dou ble</w>
th an
medi a</w>
se e
bu d
recor d</w>
performan ce</w>
in it
m c
dr in
car ri
tak ing</w>
drag on</w>
r ise</w>
aga in</w>
le tter</w>
g ive</w>
g un
g or
th u
adv ent
outf it</w>
g ing</w>
tab les</w>
f act
ceremon y</w>
sh ape</w>
min i</w>
w on
hoo die</w>
l at
cro w
di y</w>
w r
t ation</w>
ne t</w>
che ck</w>
d augh
accor ding</w>
sa ve</w>
sim il
me mber</w>
z ed</w>
ou s
dis play</w>
ch ic
con temporary</w>
te mp
in ation</w>
offic ial</w>
ko re
seam less</w>
vis it</w>
stad ium</w>
oc i
motor cy
al low
mar ri
m ic</w>
ass oci
ital y</w>
ro of</w>
medi um</w>
an ing</w>
ke ep</w>
gra ss</w>
patter ns</w>
y er</w>
ey es</w>
wall papers</w>
bet ter</w>
ic a</w>
ex pe
1 3
to m</w>
costu mes</w>
buil d</w>
e ss
fre e
writ ten</w>
tem ple</w>
k m</w>
ful ly</w>
art work</w>
guit ar</w>
sat ur
bu s</w>
mon th</w>
ser ve</w>
e qui
sp ac
euro pe</w>
decor ation</w>
the me</w>
l eng
h ur
libr ary</w>
t or</w>
a ward</w>
l ion</w>
bl an
stu dent</w>
w re
1 4
ra m</w>
as h</w>
fav or
w ol
swim ming</w>
pic s</w>
releas e</w>
pri v
far m
be come</w>
a w
car pet</w>
co ck
tech no
au to
we ight</w>
soc ial</w>
z y</w>
vi a</w>
con t
contro l</w>
ac i
ir on</w>
ev ening</w>
iz ation</w>
au tum
us a</w>
m it
d ru
fl ying</w>
make up</w>
mak es</w>
at a</w>
de ss
gard ens</w>
co lo
cir cle</w>
ag ed</w>
s our
f oc
c amp
ach ing</w>
di ag
acti ve</w>
austral ian</w>
ent al</w>
t t</w>
cle ar</w>
bas ket
l ou
an nu
h en
in stru
av ing</w>
pres ent</w>
ph y</w>
g le</w>
bo x
o es</w>
re por
s a</w>
re view</w>
of ten</w>
back yard</w>
sk ir
basket ball</w>
ck et</w>
produ cts</w>
ic ally</w>
200 9</w>
autum n</w>
ligh ting</w>
m i</w>
produ ct</w>
cu p
al ist</w>
s ne
se ction</w>
b on
sk in</w>
ra il
activ ities</w>
s an
e sc
alter n
des k</w>
afric a</w>
th es</w>
access ories</w>
il ed</w>
rou te</w>
c in
po se</w>
dess er
dis h</w>
sho w
ent ion</w>
comple te</w>
la be
j er
suc cess
pat io</w>
diam ond</w>
s and</w>
al le
u su
var ious</w>
la u
gro un
windo ws</w>
re search</w>
car ds</w>
joh n</w>
f ine</w>
tra ve
n ar
b ags</w>
yor k</w>
sur roun
wor ds</w>
ph y
ex hib
der ing</w>
en vi
tru cks</w>
ro le</w>
mas k</w>
bre ad</w>
her o</w>
p ast</w>
me t
min im
shir ts</w>
ger many</w>
di stric
ann oun
200 8</w>
k en</w>
king dom</w>
go t</w>
sou thern</w>
lad y</w>
wee k
ele g
ne ck</w>
pre vi
lo ad</w>
s is</w>
di vision</w>
clo thes</w>
fab ric</w>
mu g</w>
it h</w>
g ri
int ro
k in
prin ts</w>
color ing</w>
ast er
op ening</w>
fe et</w>
g ran
0 0
envi ron
de ser
a c</w>
b al</w>
ct ing</w>
sur face</w>
gi fts</w>
f r
ne ar
lear n</w>
rain bow</w>
ital ian</w>
w an
l un
ma id</w>
b our
m ur
gra du
fri day</w>
e mer
tra il</w>
par ts</w>
ent er
cy cl
neck lace</w>
pu pp
ch ap
gu e</w>
lor d</w>
chic ago</w>
comm on</w>
fri end
intro du
mat ic</w>
ang le</w>
peri od</w>
8 0</w>
ho sp
sig ned</w>
t ch</w>
med ical</w>
pl at
ke ts</w>
ous ly</w>
d ry</w>
pal ace</w>
y a</w>
e aster</w>
mag ic</w>
priv ate</w>
ti e</w>
he avy</w>
we b
e dition</w>
s ure</w>
stron g</w>
ve ment</w>
as se
air port</w>
c is
daugh ter</w>
sculp ture</w>
gu est</w>
b ab
al ways</w>
pro ble
ul t</w>
sm iling</w>
mu st</w>
br ick</w>
statu e</w>
f an
theat re</w>
cir cu
care er</w>
po t</w>
g l
shir e</w>
ch airs</w>
inst all
r ang
tr a</w>
re ally</w>
euro pe
w ra
bas e
sa w</w>
se ven</w>
ad es</w>
con st
champion ship</w>
en er
me ss
tem plate</w>
anti que</w>
re fle
re st</w>
sk y
elect ric</w>
re ception</w>
ac tu
win d</w>
ob je
indu stri
s now
t ile</w>
co lu
annu al</w>
sun day</w>
sne ak
i b
ce iling</w>
son gs</w>
nu mbers</w>
re ve
ant a</w>
ad ded</w>
gi ving</w>
f ishing</w>
sig ns</w>
sk u
profe ssi
at tr
at temp
eng ine</w>
ad vert
an y
leng th</w>
nor thern</w>
ap par
ac ade
st and
up on</w>
import ant</w>
sa ys</w>
sp an
ti ve</w>
europe an</w>
a u</w>
plan e</w>
gi ven</w>
re gu
l atest</w>
p it
plu s</w>
ado w</w>
di t</w>
w ns</w>
y ed</w>
ci al</w>
illustr ations</w>
comm er
as ian</w>
im pro
in o</w>
le ad</w>
la w</w>
distric t</w>
ep ing</w>
w ent</w>
ar m
for ces</w>
lar gest</w>
se as
me tri
v a</w>
ru stic</w>
h ab
beg in
w ro
ol y
favor ite</w>
cas ual</w>
doc u
satur day</w>
a er
bo t
g hou
fi f
pla stic</w>
ra y</w>
ct i
su it
in te
je ans</w>
x im
le go</w>
tak es</w>
wi fe</w>
de ep</w>
ad d</w>
clas s
g ate</w>
sur vi
serv ices</w>
cam pa
coo k
din ner</w>
200 7</w>
eng ine
fl ight</w>
educ ation</w>
woo d
wro te</w>
gre eting</w>
techno logy</w>
en a</w>
an o</w>
th ink</w>
mar ine</w>
st af
au di
l o</w>
base ball</w>
mar y</w>
m m</w>
s che
f an</w>
ste ad</w>
n er
sol di
gol f</w>
pos es</w>
lead ing</w>
s se
al y
inclu des</w>
re present
foo t</w>
h a</w>
decor ations</w>
simil ar</w>
e i
e as
cla im
mi d</w>
spe ak
me as
dro p</w>
k ar
ty pes</w>
ghou t</w>
k in</w>
throu ghout</w>
metri c</w>
eg y
veh icle</w>
cour se</w>
descri bed</w>
groun ds</w>
ag ing</w>
ing er</w>
mi d
inclu de</w>
ro me</w>
y ou
k en
high way</w>
ex pl
wil li
m un
de ci
emp lo
tex ture</w>
mar k</w>
graph y</w>
ho ld</w>
sh ed</w>
stru cture</w>
stu dy</w>
c ri
e at</w>
am a</w>
ent ry</w>
who le</w>
proper ty</w>
thou ght</w>
est ab
to tal</w>
de sp
act re
a vi
cor por
sho pping</w>
ge ar</w>
c ats</w>
photograph er</w>
as ed</w>
col our</w>
ap s</w>
ent ran
co ron
bi o
are as</w>
vill a</w>
decor ating</w>
pan ts</w>
rel ig
che ese</w>
ct ors</w>
h im
che ster</w>
st a</w>
tele vision</w>
fur ther</w>
3 1</w>
bre ak</w>
brid al</w>
l in</w>
desig ner</w>
aster n</w>
vac ation</w>
ban k</w>
eleg ant</w>
pie ces</w>
si a</w>
me eting</w>
st ay</w>
ener gy</w>
har d
we b</w>
tri p</w>
o x
d or
ad ed</w>
k n
clou ds</w>
f ar</w>
cor ner</w>
bal lo
me mes</w>
hang ing</w>
bat man</w>
mon ths</w>
be er</w>
experi ence</w>
tin y</w>
ur ban</w>
k ind</w>
sim p
sug ar</w>
apart ments</w>
de ck</w>
ni fic
b y
k u
mar t
ch all
the tic</w>
lap top</w>
n g</w>
wh y</w>
whe el</w>
plan et</w>
te en</w>
c it
ro ll</w>
un it</w>
col d</w>
po ints</w>
f ans</w>
dri ve</w>
li fe
bud get</w>
def en
is s</w>
br ac
w ers</w>
ic u
st ands</w>
col on
inf lu
nam ent</w>
19 0
landsc ap
pro cess</w>
li ed</w>
mode ls</w>
f lu
an e</w>
fo x</w>
ev ed</w>
ge or
co sp
e dit
pu s</w>
s lo
gre ek</w>
w ash
ma y
for ms</w>
ab ility</w>
tan k</w>
in ve
er a</w>
cul ture</w>
p tion</w>
in formation</w>
cosp lay</w>
in ch</w>
sto p</w>
c afe</w>
entran ce</w>
im p
un ion</w>
cre w</w>
k a
c m</w>
z a</w>
cott age</w>
some thing</w>
qu il
enjo y</w>
re qui
hu m
man u
pre ssion</w>
e cu
suc cess</w>
inv ol
1 st</w>
deta ils</w>
comp an
sho wn</w>
b by</w>
pl ic
gal ax
p on
n on</w>
al a</w>
s old</w>
att ack</w>
sku ll</w>
war m</w>
cap tain</w>
b ad
s ound</w>
j a
yo ga</w>
f our
ul tim
ar m</w>
consi dered</w>
staf f</w>
b ble</w>
e ag
retur n</w>
ic ons</w>
ach es</w>
h i</w>
cre te</w>
d un
ge l</w>
sen ior</w>
quo te</w>
deser t</w>
ge ts</w>
ill ing</w>
li d</w>
b es</w>
low er</w>
ll ed</w>
su ff
ex er
continu ed</w>
lim ited</w>
mis sion</w>
pla ys</w>
jo b</w>
b ad</w>
tt ers</w>
bl es</w>
l t</w>
com man
mic ro
est ate</w>
coo king</w>
se ts</w>
reg ion</w>
cho o
progra m</w>
sp a</w>
pr ice</w>
dire ctor</w>
soc cer</w>
fin ished</w>
concer t</w>
t s
down town</w>
th ro
att le</w>
pos sible</w>
se par
li sted</w>
200 6</w>
m b</w>
ch er
rel ation
lea f</w>
act ors</w>
gre en
f illed</w>
mu sc
n ice</w>
sh u
e m</w>
r is
tur n</w>
desp ite</w>
bur g</w>
prin ce</w>
las h</w>
ch ain</w>
al most</w>
ri es</w>
loc ation</w>
professi onal</w>
tri bu
advent ure</w>
de fin
k y
pro mo
h it</w>
stu ff</w>
com par
ag u
hosp ital</w>
ele ph
re co
t ig
colo red</w>
ch ie
mou th</w>
ge tting</w>
v an</w>
de fe
inv it
g room</w>
i ds</w>
n ic
hor ses</w>
is lands</w>
skir t</w>
campa ign</w>
ac y</w>
c all</w>
produ ced</w>
industri al</w>
resul t</w>
fire place</w>
mul ti
we st
col our
ter min
ex per
fe atu
pat h</w>
ro man</w>
at ors</w>
n av
mix ed</w>
sa fe
bar n</w>
ch art</w>
swe ater</w>
ber t</w>
log ical</w>
del ic
ca p</w>
dis played</w>
c les</w>
til es</w>
be low</w>
20 0</w>
gu n</w>
veh icles</w>
to wards</w>
o thers</w>
5 00</w>
dr ink</w>
lan gu
bro n
d ney</w>
ent ed</w>
tu tor
me al</w>
featu red</w>
p ng</w>
a es
eng ag
ic ks</w>
cook ies</w>
p ment</w>
rac ing</w>
cour te
wil d
val ent
mu sical</w>
bro ad
histor ic</w>
i ally</w>
mo ved</w>
sneak ers</w>
part ici
phil i
sc ar
farm house</w>
star ted</w>
d r</w>
pal m</w>
ga ve</w>
busine ss
rou ght</w>
we ll
tri es</w>
in stead</w>
se ssion</w>
russi an</w>
e dge</w>
pen cil</w>
blo ck</w>
mir ror</w>
wat ches</w>
win ning</w>
fe der
courte sy</w>
r at
se n</w>
f on
cro wn</w>
ti onal</w>
cott on</w>
e ight</w>
la bor
d c</w>
af ter
publ ished</w>
sup por
z en</w>
us es</w>
wa ve</w>
estab l
r ice</w>
issu e</w>
ho st</w>
as si
galax y</w>
part ment</w>
pat i
ri ding</w>
e qu
re di
d one</w>
inde pen
7 0</w>
minu tes</w>
an ato
motorcy cle</w>
mi x</w>
ad dition</w>
down load</w>
e con
ban ner</w>
do ctor</w>
sty lish</w>
do min
comm is
t all</w>
spe ed</w>
sho e</w>
ar i</w>
d ly</w>
ou gh</w>
e ating</w>
ath le
roman tic</w>
ex plo
engag ement</w>
eng ers</w>
th ur
span ish</w>
sug ge
spe e
fe el</w>
premi um</w>
cre atures</w>
part icu
mexic o</w>
qu et</w>
re du
18 9
e astern</w>
clo se
class room</w>
con crete</w>
hol ds</w>
hou rs</w>
bu tt
z er</w>
op ened</w>
ing redi
y l</w>
di ed</w>
ll a</w>
or ity</w>
e x</w>
indu stry</w>
lear ning</w>
be an</w>
gi ant</w>
br ing</w>
econ o
diag ram</w>
s ay</w>
gro wing</w>
t te</w>
clo ck</w>
r o</w>
ju st
polit ical</w>
1 2
am i</w>
wor l
so on</w>
go wn</w>
graph ics</w>
3 5</w>
re la
pu mp
w ed</w>
ren dering</w>
gar age</w>
vi du
r are</w>
friend ly</w>
da ily</w>
web site</w>
emp ty</w>
emp ire</w>
de v
equi pment</w>
commer cial</w>
butter fly</w>
se y</w>
a we
clo sed</w>
wor th</w>
tran spar
run s</w>
al p
indi vidu
b la
a ff
tre at
al o
me et</w>
con ference</w>
n d</w>
effe ct</w>
shap ed</w>
person al</w>
co ach</w>
inter est
b it</w>
cre ek</w>
ac hi
st ick</w>
ro ck
form ing</w>
sal ad</w>
en ding</w>
gra de</w>
p ing</w>
ne u
fil ms</w>
tu al</w>
ac ry
coun t</w>
or n</w>
at ory</w>
ment al</w>
de tail</w>
s la
cle an</w>
e ded</w>
secre t</w>
ne igh
mo ve</w>
con dition</w>
ch ev
d ant</w>
ri de</w>
a ver
s or
h in
tren ds</w>
ag re
crow d</w>
b il
she et</w>
d im
publ ic
de mo
pas s</w>
mil es</w>
do ing</w>
fel t</w>
bl ack
v s</w>
re fer
f er</w>
te en
wan ted</w>
s ons</w>
p y
k i</w>
eg g</w>
sof a</w>
s av
mil k</w>
develop ed</w>
appear ed</w>
ex ecu
aes thetic</w>
cam p</w>
bran ch</w>
scen es</w>
fit ness</w>
z i
b ath</w>
re al
sta in
pe ts</w>
p aci
ent u
de partment</w>
t land</w>
b roo
s ent</w>
av en
m o</w>
we ather</w>
ab and
bot tom</w>
wol f</w>
a h</w>
form al</w>
fe ature</w>
sk i</w>
ch et</w>
ill a</w>
t ition</w>
b ig
int ing</w>
t i</w>
e th
go al</w>
den ti
four th</w>
arti sts</w>
con tr
acry lic</w>
b ac
t ic
cap ital</w>
r i</w>
le tter
b ic
k ne
ne eds</w>
sig nific
bloo d</w>
comm it
ro i
an ni
thou se</w>
en cy</w>
den tial</w>
200 5</w>
kore an</w>
blo g</w>
mu s
appar el</w>
var iety</w>
ar ms</w>
b ing</w>
man ga</w>
chie f</w>
tru e</w>
on g
bor der</w>
pi zz
s its</w>
li e</w>
e ss</w>
u pper</w>
ev al</w>
ve t</w>
thur sday</w>
anato my</w>
pre ss
en ough</w>
si t</w>
iz e</w>
b is
se tt
h es</w>
sing ap
ve gan</w>
clou d</w>
cre dit</w>
soc iety</w>
f y</w>
br u
transpar ent</w>
de pic
histor ical</w>
as ia</w>
bo w
gu ard</w>
sing er</w>
li er</w>
gu ar
e ps</w>
every thing</w>
emb roi
nor th
be ll</w>
ite ms</w>
pr inted</w>
bo ats</w>
wed ne
ct u
ack ed</w>
li t</w>
be y
il er</w>
squ ad
him self</w>
con test</w>
k it
sp ain</w>
se at</w>
ste l</w>
inve st
back pack</w>
provi ded</w>
le ss
ran ked</w>
di e
po st
eg gs</w>
z er
ir us</w>
sy dney</w>
p a</w>
m r</w>
fair y</w>
n ames</w>
2 nd</w>
sc ale</w>
medi eval</w>
celebr ity</w>
sou th
col l
ll er</w>
her it
da vi
wedne sday</w>
min d</w>
har b
safe ty</w>
ct ly</w>
th re
n at
dol l</w>
n as
con ver
sc ra
h o</w>
lad ies</w>
e ce</w>
tu es
mon day</w>
singap ore</w>
coron av
vin yl</w>
st y</w>
success ful</w>
lar ger</w>
den im</w>
u ps</w>
st un
ev es</w>
m ight</w>
co vers</w>
b ang
d n</w>
d an</w>
coronav irus</w>
fi el
f ail
ch ic</w>
b ill
tues day</w>
labe l</w>
announ ced</w>
sour ce</w>
di es</w>
retur ned</w>
brac ele
eleph ant</w>
flo oring</w>
b on</w>
bas ket</w>
tur ned</w>
dit ions</w>
al and</w>
rou gh</w>
cro chet</w>
comple ted</w>
br us
moun t</w>
paci fic</w>
n ative</w>
co st</w>
sh adow</w>
mer maid</w>
k ong</w>
d den</w>
k it</w>
ate g
d ation</w>
gy m</w>
cap e</w>
n is</w>
previ ous</w>
wit ch</w>
rail way</w>
st airs</w>
p ir
drin ks</w>
gra di
sket ches</w>
igh t
al d</w>
pro vin
har ry</w>
p and
f al
m al</w>
re sc
pow er
4 5</w>
k id</w>
f ted</w>
be t</w>
for ward</w>
aer ial</w>
re ar</w>
vo lu
t roo
se cur
var i
tra ff
o t
no te</w>
ki e</w>
p en</w>
to ron
s ar
bur y</w>
bo ston</w>
si des</w>
9 0</w>
ro cks</w>
vers ary</w>
stre ets</w>
ligh t
advert ising</w>
toron to</w>
te ac
net work</w>
actre ss</w>
ser y</w>
mater ial</w>
dan cing</w>
qu es</w>
nur sery</w>
canad ian</w>
am ic</w>
tu ral</w>
pract ice</w>
y u
scre en
lit er
d or</w>
pe ar
phili pp
co ast
decor ative</w>
se tting</w>
herit age</w>
hur ric
fig ures</w>
re fu
li ber
ze aland</w>
radi o</w>
i ans</w>
fact ory</w>
me dit
reco gn
bi ble</w>
v oc
pizz a</w>
awe some</w>
anim ation</w>
le ast</w>
wee ks</w>
ve l
art icle</w>
landscap ing</w>
stand ard</w>
mar ble</w>
sau ce</w>
coun cil</w>
so lid</w>
ca the
f air</w>
sy n
pur ch
y l
od le</w>
sp r
anni versary</w>
sh are</w>
che ap</w>
recor ded</w>
dre ssed</w>
wr ite</w>
oun ds</w>
go d</w>
st at
foc us</w>
bb it</w>
langu age</w>
inst itu
provi de</w>
compe tition</w>
c ities</w>
li ons</w>
hand made</w>
y et</w>
fin ish</w>
al u
i re
ro bo
s ac
dest roy
in j
victor y</w>
r d</w>
manag er</w>
so lution</w>
f alls</w>
i v
relation ship</w>
gr and
dist ance</w>
off ers</w>
fac ts</w>
exhib ition</w>
p el
secur ity</w>
n ic</w>
lam p</w>
ho le</w>
dra l</w>
bra in</w>
mo ving</w>
ben ch</w>
acade my</w>
sh ore</w>
environ ment</w>
to ps</w>
i ble</w>
ei ther</w>
f ence</w>
con tain
writ er</w>
whe els</w>
dis cu
enter tain
enti al</w>
c ine
desser t</w>
aband oned</w>
200 4</w>
spir it</w>
f ight</w>
el ing</w>
a war
ch am
letter ing</w>
ho p</w>
to dd
7 5</w>
j am
st ated</w>
cock tail</w>
p ages</w>
cab in</w>
fic ation</w>
hor iz
par ties</w>
g ent
con du
sco tland</w>
o ak</w>
mon ster</w>
re spe
k le</w>
su s</w>
ele ment</w>
an g</w>
comm and</w>
figh ter</w>
begin ning</w>
uni verse</w>
pro m</w>
y our
le tters</w>
on ic</w>
to ols</w>
week end</w>
vi ol
offic er</w>
re li
ingredi ents</w>
he av
traff ic</w>
business man</w>
squad ron</w>
lar ly</w>
cathe dral</w>
spee ch</w>
ad o</w>
ju mp
posit ive</w>
din o
dam age</w>
hor ror</w>
p in
cel l
j an</w>
ex pen
w ish</w>
in dic
woo ds</w>
is s
lo ss</w>
russi a</w>
curren t</w>
pre v
per formed</w>
dri ving</w>
b rought</w>
w aves</w>
se lling</w>
gradi ent</w>
diff ic
de mon
n ine</w>
e ding</w>
bal con
po tat
bro ken</w>
s anta</w>
d ata</w>
smo o
ch er</w>
origin ally</w>
ic y</w>
war ri
4 0
re public</w>
co t</w>
fra med</w>
brit ain</w>
g lu
h il
popu lation</w>
ar ab
won der
k il
ra ther</w>
activ ity</w>
ap po
mo tor</w>
manag ement</w>
teac her</w>
l as</w>
ti an</w>
di a</w>
hu ge</w>
vie t
z es</w>
t ent</w>
ter y</w>
h our</w>
wor ked</w>
al ed</w>
l en
home made</w>
h ills</w>
sli de</w>
so lu
th in
am ent</w>
ha w
sal t</w>
ad op
in et</w>
sig n
sp read</w>
l ine
jour nal</w>
lay out</w>
b loc
cop y</w>
ke y
par ents</w>
en ced</w>
oc cas
fle et</w>
ac cep
ultim ate</w>
symbo ls</w>
g g
mon d</w>
fran cis
deci ded</w>
qu ick</w>
comple x</w>
spo t</w>
celebr ate</w>
eag le</w>
plan ning</w>
3 2</w>
h au
back grounds</w>
stra w
sm ile</w>
an gel</w>
d am</w>
out line</w>
organ ization</w>
mo vement</w>
fac es</w>
delic ious</w>
acti ons</w>
cli p</w>
the mes</w>
se ating</w>
ex pla
coun tries</w>
st ren
est im
f i</w>
st e</w>
m it</w>
un ic
le g</w>
am oun
un k</w>
me chan
on a</w>
sou p</w>
v als</w>
the ater</w>
cho ice</w>
mon o
k night</w>
er ship</w>
entertain ment</w>
man chester</w>
ali stic</w>
moti v
sur pr
men u</w>
cor n</w>
th row</w>
so lar</w>
shel f</w>
le mon</w>
ad ult</w>
3 0
ne on</w>
tren dy</w>
r is</w>
se attle</w>
stren g
incre di
tre at</w>
i denti
mp h</w>
ear rings</w>
c ise</w>
tig er</w>
repor ted</w>
h us
hurric ane</w>
sun glasses</w>
al one</w>
speci ally</w>
ire land</w>
l ink</w>
l ers</w>
n es</w>
c ric
spac es</w>
ent ire</w>
qu art
ev entu
l oun
rel ated</w>
fam il
victor ian</w>
h ong</w>
5 0
b o</w>
ge ous</w>
pen dant</w>
francis co</w>
ca ve</w>
x i</w>
eventu ally</w>
associ ation</w>
ser ving</w>
tech ni
ch a
mas s</w>
gre ss</w>
spe ct
r ich</w>
ric s</w>
pe ace</w>
go es</w>
to mat
dec is
ic ed</w>
18 8
stra ight</w>
ch al
s er</w>
ten nis</w>
m ine</w>
sil k</w>
stor ies</w>
im ag
i x</w>
an aly
ste ps</w>
bu bble</w>
pi e</w>
li st
k illed</w>
pic tured</w>
g en</w>
tem per
p au
zo o</w>
un its</w>
w a</w>
pi x
claim ed</w>
al low</w>
cab inet</w>
19 th</w>
ent y</w>
tu s</w>
tu be</w>
mexic an</w>
cru ise</w>
press ure</w>
te ams</w>
lo dge</w>
go d
cand y</w>
vege tables</w>
de er</w>
d u</w>
appear ance</w>
ri bb
m my</w>
ni ke</w>
f au
f l</w>
ex tra</w>
sm art</w>
some times</w>
ex clu
lan e</w>
in door</w>
v ity</w>
bic y
mo ment</w>
k ings</w>
20 00</w>
ta ined</w>
i er</w>
ar a</w>
pres ents</w>
ra ised</w>
high est</w>
im ent</w>
k ers</w>
rema ined</w>
re as
t as
usu ally</w>
follow ed</w>
me tho
re ached</w>
co w
cre ation</w>
cau sed</w>
mini ster</w>
ta ining</w>
pan el</w>
ri er</w>
p in</w>
bu tter</w>
wild life</w>
ren t</w>
le ts</w>
ro c
or din
surroun ded</w>
wal ks</w>
cab ine
lin ed</w>
celebr ation</w>
aver age</w>
foo ds</w>
gu y</w>
car r
su ite</w>
off er</w>
su its</w>
geo metric</w>
i ors</w>
tour nament</w>
recor ds</w>
bron ze</w>
s ke
lead er</w>
gi ves</w>
s wi
pump kin</w>
re pe
bi e</w>
bou quet</w>
lea ve</w>
c lar
i p
ci vil</w>
ad d
n y
altern ate</w>
work ers</w>
establ ished</w>
e ly</w>
mo m</w>
perfor ms</w>
st ate
cre ating</w>
c ran
p ig
i stic</w>
te ly</w>
pupp y</w>
balcon y</w>
ber ries</w>
brus h</w>
w ire</w>
colu m
bro ther</w>
ac cess</w>
we ap
af fe
man s</w>
choo se</w>
200 3</w>
bra z
decor ated</w>
illustr ated</w>
bu ll</w>
soldi ers</w>
con serv
eng er</w>
ho c
allow ed</w>
commun ic
me dic
ment ary</w>
br ig
t ted</w>
sun rise</w>
wo mens</w>
3 6</w>
ce ment</w>
cher ry</w>
oper ation</w>
ad ditional</w>
lo bby</w>
se wing</w>
n ation</w>
ad ap
5 th</w>
zz le</w>
regu lar</w>
g lit
be at
si b
p ak
shel l</w>
no tes</w>
on to</w>
me aning</w>
pl ates</w>
cas es</w>
stre ssed</w>
p sy
t ons</w>
gun s</w>
recor ding</w>
hoc key</w>
aven ue</w>
lo ck</w>
spi der</w>
wel come</w>
f s</w>
wh is
quar ter</w>
chang es</w>
leg end</w>
al ready</w>
re nov
re l</w>
o m</w>
po tter</w>
fi x
wa iting</w>
li p</w>
st ones</w>
relig ious</w>
go als</w>
an ces</w>
ri dge</w>
p al</w>
mu ral</w>
pr o</w>
laun ch</w>
memor ial</w>
p ond</w>
pu l
gen cy</w>
nu t</w>
jo ined</w>
cu tting</w>
camp ing</w>
min e
ish es</w>
pri me</w>
no ted</w>
tur key</w>
ro ses</w>
pro bab
ar gu
ran ge
m ers</w>
s ands</w>
u r</w>
glo bal</w>
j ames</w>
star ting</w>
or i
p ine</w>
b ill</w>
gor geous</w>
be e</w>
pi ano</w>
re r</w>
b all
dis cover</w>
sit u
hum or</w>
sho o
l ying</w>
christ ian</w>
si an</w>
che e
str ation</w>
go th
jun gle</w>
willi am</w>
sele ction</w>
con tribu
pre gn
3 rd</w>
figh ting</w>
k er
loun ge</w>
me ans</w>
por ch</w>
you th</w>
k o</w>
bour ne</w>
sa ying</w>
r ights</w>
re y</w>
rela x
ing ham</w>
ex c
glo be</w>
ma int
att ends</w>
ho pe</w>
g la
sa int</w>
no te
l ic
bey ond</w>
f lash</w>
butt on</w>
mo tion</w>
u mb
for ced</w>
jour ney</w>
t am
tra de</w>
cal i
todd ler</w>
est s</w>
lun ch</w>
ex tre
ac ts</w>
lo vely</w>
re port</w>
ky o</w>
pol ish</w>
the ast</w>
near by</w>
blu e
p it</w>
ir ish</w>
le n</w>
t ical</w>
pe ak</w>
portra its</w>
stun ning</w>
in i</w>
s low</w>
pos ing</w>
3 3</w>
ben e
d ated</w>
pil low</w>
holi days</w>
4 th</w>
ou se</w>
at ic</w>
ac u
bed rooms</w>
mo de</w>
tran sport</w>
sco o
ne eded</w>
mar ke
the med</w>
ctu ral</w>
a head</w>
go wns</w>
mp ic</w>
ear lier</w>
f inger</w>
we l</w>
ig ra
e specially</w>
li ves</w>
joh n
it i</w>
kne e</w>
le ton</w>
low s</w>
marri ed</w>
o tic</w>
e vi
stick ers</w>
p ic</w>
par ade</w>
ad mini
gro w
la w
life style</w>
carto ons</w>
tou ch</w>
n am</w>
th ail
drin king</w>
200 1</w>
di vi
li ke
egy pt</w>
ro lling</w>
thail and</w>
whe ther</w>
tutor ial</w>
requi red</w>
sm ith</w>
si ster</w>
as es</w>
ba i</w>
ballo on</w>
com mon
qu ick
inspir ational</w>
w ich</w>
f loo
d v
exer cise</w>
to te</w>
bel t</w>
si zed</w>
sun ny</w>
gro ups</w>
vir g
re alistic</w>
organ ic</w>
actu ally</w>
to kyo</w>
t an</w>
st ance</w>
cer amic</w>
sle eping</w>
cr is
sta ined</w>
ow ner</w>
m n
i son</w>
tran spor
oper ations</w>
li a</w>
y on</w>
d ir
studi os</w>
valent ine</w>
i ed</w>
mis s</w>
re d
usu al</w>
multi ple</w>
ig e</w>
dol ls</w>
pro ce
ir s</w>
proble ms</w>
scri pt</w>
ap ol
com for
philipp ines</w>
con tra
s ity</w>
wat ching</w>
d river</w>
min t</w>
g low</w>
al ized</w>
pack aging</w>
fla v
si x
te aching</w>
3 7</w>
he at</w>
d ang
coun ter</w>
m ig
shar k</w>
18 6
jer sey</w>
lan tic</w>
d ary</w>
clo set</w>
ma in
vo ice</w>
near ly</w>
du bai</w>
chang ed</w>
unic orn</w>
pre ssed</w>
bur gh</w>
sal es</w>
bracele t</w>
ru g
il ities</w>
m bl
pri mary</w>
ar ies</w>
pass ed</w>
syste ms</w>
cro ssing</w>
your self</w>
tr acks</w>
gre atest</w>
no vel</w>
cra zy</w>
ast ro
sou l</w>
box es</w>
ir ing</w>
che f</w>
effe cts</w>
b c</w>
ho ly</w>
cor ps</w>
re cent</w>
stri bu
mas cot</w>
co con
u t
fic tion</w>
chil d
invit ation</w>
cou ra
sub je
el l
fiel ds</w>
le aving</w>
grow th</w>
uni form</w>
partici p
se cu
fif th</w>
ra bbit</w>
par king</w>
to ld</w>
hel met</w>
tal king</w>
u es</w>
en ge</w>
it ch</w>
re ference</w>
sh er
proble m</w>
oly mpic</w>
cabine ts</w>
crit ics</w>
hus band</w>
ribb on</w>
sm all
at lantic</w>
le gs</w>
vide os</w>
gu i
pri or</w>
sn ake</w>
st ro
ex i
o wl</w>
ph ia</w>
expl ore</w>
signific ant</w>
k nit
geor ge</w>
wed dings</w>
re gi
mic ha
car ib
sub sequ
troo ps</w>
cric ket</w>
mb ia</w>
re views</w>
gi an</w>
ing ly</w>
di stribu
close up</w>
seas ons</w>
to o
vis it
ist an</w>
3 00</w>
ic e
ac ted</w>
carib bean</w>
f all
sho ot</w>
mon u
it self</w>
batt al
prin ci
con clu
alp ha
o id</w>
in ches</w>
invol ved</w>
vert ical</w>
200 2</w>
av engers</w>
is es</w>
ter m</w>
r an</w>
fe b</w>
fu r</w>
mess age</w>
bou ti
chall enge</w>
pol y
moun ted</w>
inter view</w>
ven ue</w>
contain er</w>
g il
probab ly</w>
lon ger</w>
bl on
call igra
coast al</w>
wal es</w>
mon key</w>
ro ads</w>
b in
sh ing</w>
every one</w>
st ant</w>
ter ed</w>
gu ests</w>
marri age</w>
fin ally</w>
inter est</w>
stre am</w>
ber g</w>
y ach
sp here</w>
me at</w>
mb le</w>
chap ter</w>
3 4</w>
c ers</w>
jack ets</w>
fro zen</w>
val ue</w>
sau r</w>
par li
si on
su sp
ff ed</w>
produ ce</w>
re ti
b it
bar bie</w>
he arts</w>
marke ting</w>
d ge
man d
p pers</w>
bo o</w>
to pped</w>
di stressed</w>
ele v
fin anci
foun dation</w>
no on</w>
sco red</w>
sp ent</w>
di et</w>
pre ci
z one</w>
over all</w>
cocon ut</w>
vi et</w>
bas ic</w>
sle eves</w>
am p</w>
p leas
b alls</w>
expe cted</w>
5 5</w>
re placed</w>
hou ston</w>
cam pus</w>
re ach</w>
ad ding</w>
f act</w>
le ve
g ers</w>
scho ols</w>
m ar</w>
ca tho
bu dd
po cket</w>
quart ers</w>
tren d</w>
gre ece</w>
hon ey</w>
pear l</w>
sco pe</w>
a del
crit ic
minu te</w>
oc cur
ex cell
tra iler</w>
r ate</w>
tr ying</w>
j ar</w>
sh a
expen sive</w>
st ly</w>
wor n</w>
to il
win d
ff s</w>
cli part</w>
ben ef
ne g
carr ying</w>
mater ials</w>
sci enti
ct ic</w>
res our
k h
inter net</w>
can al</w>
gro w</w>
exam ples</w>
deli very</w>
no thing</w>
coo kie</w>
de al</w>
re se
bouti que</w>
nu mer
b one</w>
eas ily</w>
less ons</w>
mu sh
no min
bott les</w>
some one</w>
init ially</w>
emplo ye
hel ic
pic k</w>
co me
ve st</w>
appro xim
catho lic</w>
ga ther
desser ts</w>
der y</w>
te ch</w>
beli eved</w>
wre st
tit led</w>
j or
per forming</w>
do odle</w>
amoun t</w>
on y</w>
ge tty</w>
minim alist</w>
cel l</w>
bicy cle</w>
blan k</w>
soc ks</w>
to ol</w>
musc le</w>
20 th</w>
new sp
sco tt
be ard</w>
wonder ful</w>
her oes</w>
alpha bet</w>
quick ly</w>
bak ing</w>
ic ian</w>
ion ed</w>
4 8</w>
dino saur</w>
im medi
f ying</w>
se l</w>
ho te
gener ally</w>
tw in</w>
s mart
pil ot</w>
sel ves</w>
mar ks</w>
j ac
engine ering</w>
auth or</w>
b ars</w>
imp act</w>
dv d</w>
is er</w>
bir th</w>
cur tain</w>
vis ual</w>
robo t</w>
who se</w>
a f</w>
inter iors</w>
am y</w>
la wn</w>
hab it
an ced</w>
bo ards</w>
p an</w>
s ad</w>
a e
fac ade</w>
blan ket</w>
p lot</w>
individu al</w>
ant ly</w>
li qu
dire cted</w>
helic op
treat ment</w>
de st</w>
fol k</w>
b ands</w>
ac ting</w>
bu ff
st air
le v
lau gh
sky line</w>
prote ction</w>
d ates</w>
f at</w>
re serve</w>
op port
ter race</w>
dec o</w>
v ase</w>
e vil</w>
elect ron
interest ing</w>
th in</w>
he ight</w>
stain less</w>
vol un
ar ena</w>
supp lies</w>
comb at</w>
bo y
blon de</w>
fre qu
oly m
sh ine</w>
embroi dery</w>
car ry</w>
win ds</w>
w are</w>
calligra phy</w>
cti vely</w>
ter rit
al co
lay er</w>
gr un
h amp
crit ical</w>
il es</w>
re qu
de sk
pi g</w>
lan ding</w>
mel bourne</w>
m ill</w>
install ation</w>
m aps</w>
con tains</w>
umb re
ch el
o k
incre ase</w>
la in</w>
ve gas</w>
cap tured</w>
colour s</w>
flo ating</w>
ban ana</w>
charac ter
4 2</w>
mou se</w>
ther e
celebr ities</w>
smo ke</w>
ex cep
low ing</w>
ant ine</w>
inf an
d ale</w>
br a</w>
cent ly</w>
at l
execu tive</w>
like ly</w>
hi p</w>
fit ted</w>
appe ar</w>
e ase</w>
th ick</w>
invest ig
davi d</w>
opport un
child hood</w>
hi dden</w>
ac e
en gra
audi ence</w>
re cently</w>
k ra
is le</w>
wat ers</w>
compan ies</w>
desk top</w>
sp in
hote ls</w>
cer tain</w>
ap plic
pa stel</w>
t ale</w>
t rou
t ary</w>
issu es</w>
shor ts</w>
fl ags</w>
id ent
n ap
s afe</w>
as ked</w>
viet nam</w>
ly rics</w>
sit es</w>
she ep</w>
be at</w>
o m
a be
p le
cycl ing</w>
phil adel
hon da</w>
bu ll
pro posed</w>
s are
high er</w>
note book</w>
cle aning</w>
small er</w>
n ia</w>
provin ce</w>
mat h</w>
sa ur
f lies</w>
ma xim
commit tee</w>
ar range
un known</w>
plat form</w>
appe ars</w>
philadel phia</w>
o h</w>
ad ul
z u
shi pping</w>
comman der</w>
respon se</w>
offic ers</w>
b oun
f ting</w>
head s</w>
di c</w>
3 8</w>
iz ing</w>
ap p</w>
gar den
ph er
bl ouse</w>
po e
ad or
d ad</w>
hou se
dire ction</w>
ep er</w>
blo ss
lou is</w>
ru b
bo ar
in se
so viet</w>
co de</w>
th us</w>
li ver
comb ination</w>
dra ma</w>
co al</w>
suit es</w>
be ast</w>
chan nel</w>
nav al</w>
ant i</w>
li ft</w>
me an
kore a</w>
incre ased</w>
leg al</w>
or nam
al ing</w>
mi ami</w>
straw berry</w>
batt le
pre school</w>
a b</w>
micha el</w>
be coming</w>
te ll</w>
k iss</w>
ti on
jo in</w>
i ii</w>
c able</w>
egy p
po ten
particu larly</w>
ther ap
ati ves</w>
gu ys</w>
ty po
d dy</w>
just ice</w>
ex pan
ex press</w>
bi kes</w>
el l</w>
an gu
le gen
after noon</w>
financi al</w>
e th</w>
6 5</w>
resi dential</w>
t in</w>
re gar
init ial</w>
per form</w>
i us</w>
p ag
d ar</w>
th ron
sc ore</w>
lo ft</w>
son ic</w>
ou red</w>
p itch
ele ction</w>
obje cts</w>
j i</w>
remo ved</w>
pe an
separ ate</w>
bas ement</w>
sa il
ra pi
au to</w>
4 7</w>
tro phy</w>
beli eve</w>
oc t</w>
glit ter</w>
ent er</w>
s burg</w>
is ra
am ing</w>
lo ts</w>
hun ting</w>
sk ills</w>
rou s</w>
out doors</w>
18 7
ol der</w>
present ed</w>
ni e</w>
al es</w>
introdu ced</w>
o wn
hi king</w>
clim bing</w>
b am
thin king</w>
dol lar</w>
ine ss</w>
resc ue</w>
deta iled</w>
ste am</w>
w ide
pun k</w>
dis hes</w>
4 1</w>
ran ch</w>
brig ade</w>
per cent</w>
power ful</w>
bo mb
vis ible</w>
p ap
li z
to yo
wor ker</w>
goth ic</w>
tu b</w>
je ep</w>
bo tan
corpor ate</w>
je well
m ical</w>
rema ins</w>
c ateg
b m
pro file</w>
as ing</w>
contin ue</w>
iss ance</w>
photograph ic</w>
3 9</w>
decis ion</w>
n ings</w>
bur n</w>
ph ones</w>
du tch</w>
screen shot</w>
tt a</w>
w ise</w>
ic onic</w>
cou ch</w>
st itch</w>
lo ved</w>
s wit
quest ions</w>
t ap
worl ds</w>
m am
ber lin</w>
state ment</w>
hel ped</w>
mal ay
const itu
si de
cup cakes</w>
an s
arri ved</w>
tour ist</w>
le e</w>
feder al</w>
dit ion
diffic ult</w>
sho ts</w>
vege table</w>
scott ish</w>
big gest</w>
liver pool</w>
benef its</w>
att ention</w>
cla y</w>
ag a</w>
battal ion</w>
f low</w>
sche du
tur tle</w>
fru its</w>
neigh bor
1 50</w>
alle n</w>
ne cess
can yon</w>
gre ater</w>
met res</w>
fro g</w>
9 9</w>
provi des</w>
toil et</w>
toyo ta</w>
ap le</w>
ke ys</w>
dire ct</w>
cor al</w>
fig ur
phy sical</w>
co pper</w>
po or</w>
ra w</w>
mine craft</w>
pro of</w>
6 th</w>
stu ffed</w>
s ink</w>
br igh
champion ships</w>
reas ons</w>
h it
m ass
vel vet</w>
bun ny</w>
co in</w>
shel ves</w>
6 0
do es
go s</w>
n ight
mak er</w>
does n</w>
co zy</w>
no v</w>
du ck</w>
evi dence</w>
f en
stri ped</w>
pen gu
au lt</w>
f a</w>
199 9</w>
or dered</w>
oper a</w>
associ ated</w>
hen ry</w>
da y
tt es</w>
volun te
che ss</w>
im per
e ter</w>
infan try</w>
br un
wra p</w>
di an</w>
k s
shap es</w>
s que</w>
and er
altern ative</w>
cor re
sch e</w>
g host</w>
archite ctural</w>
attemp t</w>
con ditions</w>
li ps</w>
si zes</w>
mo di
de b
fol low</w>
de but</w>
previ ously</w>
vie wed</w>
er e
w as
surroun ding</w>
ar row</w>
le o
pic k
ad a</w>
free dom</w>
att end</w>
par d</w>
ra il</w>
spi ral</w>
ne st</w>
in fin
dec lar
egyp tian</w>
ligh tly</w>
sle ep</w>
bra ss</w>
m ps</w>
ak s</w>
esc ape</w>
s k</w>
ra t</w>
run way</w>
plan ned</w>
sh ak
cal end
quil t</w>
shi eld</w>
ac com
su pre
leve ls</w>
ur a</w>
approxim ately</w>
form ers</w>
famil ies</w>
ev o
pur pose</w>
we ars</w>
med al</w>
en ix</w>
y ards</w>
adul ts</w>
the m
grun ge</w>
bo b</w>
soldi er</w>
jack son</w>
al ex
dim en
ri d</w>
tour s</w>
ru g</w>
im pres
4 9</w>
pati ent</w>
por tu
tal k</w>
fac ing</w>
resi dents</w>
sk in
o le</w>
fo li
champ ion</w>
institu te</w>
carri ed</w>
simp ly</w>
fon t</w>
del hi</w>
resul ts</w>
a quar
mu mb
smart phone</w>
concep tual</w>
ing ing</w>
4 00</w>
champ ions</w>
thou sands</w>
cy cle</w>
com position</w>
man sion</w>
ju ice</w>
v ent
glu ten</w>
ve ter
ch ron
4 4</w>
wash ington</w>
de c</w>
mar ked</w>
in ci
c i</w>
bur ger</w>
v it
ag on</w>
ve ctors</w>
mat ter</w>
jewell ery</w>
r ig
oc cu
ro bert</w>
sen se</w>
de te
them selves</w>
se as</w>
lo g</w>
flo ors</w>
9 5</w>
r ical</w>
he ar
cont ent</w>
b ound</w>
dre ssing</w>
ru les</w>
plu sh</w>
ch rome</w>
c on</w>
cer ti
ti er</w>
bro thers</w>
cine ma</w>
al o</w>
ess ential</w>
c ad
5 2</w>
fan cy</w>
gener ation</w>
st oc
win ner</w>
sh ade</w>
dam aged</w>
2 8
so le</w>
l il
constru cted</w>
supp ly</w>
contr act</w>
can cer</w>
in ations</w>
ag en</w>
ak a</w>
ric ul
mumb ai</w>
alco ho
pu zzle</w>
memor ies</w>
progra m
emer gency</w>
cle ar
colu mbia</w>
j et</w>
tre as
par ks</w>
coll age</w>
ct ures</w>
lo aded</w>
col labor
le dge</w>
st ery</w>
c ure</w>
g al</w>
a qu
fin ding</w>
pupp ies</w>
mo stly</w>
cand le</w>
s oun
work shop</w>
ro t</w>
parli ament</w>
di dn</w>
gra ff
ct ional</w>
celebr ates</w>
4 3</w>
cor e</w>
calend ar</w>
tra y</w>
cul tural</w>
pla in</w>
and a</w>
who le
v ine</w>
p ay</w>
gradu ation</w>
for d
motorcy cles</w>
i j
b ake</w>
mon t</w>
s word</w>
am ed</w>
high ly</w>
fu el</w>
defen se</w>
indepen dent</w>
sa iling</w>
b i</w>
j az
wa it</w>
o live</w>
in o
al ong
t ac
enjo ying</w>
to wn
er ran
m ad</w>
ack ing</w>
be ige</w>
sk i
ma x</w>
ren der</w>
premi er</w>
ch or
al i</w>
che st</w>
bat tery</w>
4 6</w>
along side</w>
fur n
umbre lla</w>
and er</w>
offic ials</w>
air plane</w>
n au
char ge</w>
graff iti</w>
descri ption</w>
199 8</w>
7 th</w>
un usual</w>
present ation</w>
excell ent</w>
le s
ag ricul
wor e</w>
z el
dist in
e ye
co ok</w>
pat ri
ce des</w>
re plac
ho g</w>
be ef</w>
d all
si r</w>
cl ick</w>
streng th</w>
do me</w>
incredi ble</w>
le m</w>
s ent
5 1</w>
ri son</w>
por sche</w>
la b
appo inted</w>
braz il</w>
n ation
cir ca</w>
v ention</w>
laun ched</w>
demo cr
sele cted</w>
fail ed</w>
r ack</w>
fel l</w>
auth or
au stri
s ad
ty pical</w>
beg ins</w>
typo graphy</w>
l ac
ro ws</w>
de dic
is lam
cl in
so il</w>
w ic
exten ded</w>
quest ion</w>
influ ence</w>
ne ther
dis covered</w>
jo int</w>
f c</w>
helicop ter</w>
w ast
tru st</w>
g ur
car ni
wal k
ou ts</w>
por tion</w>
h at
se ll</w>
i stan
br ands</w>
do t</w>
i da</w>
mer cedes</w>
arm or</w>
medit erran
se eds</w>
ve y</w>
ide al</w>
po le</w>
yl or</w>
p ine
studi es</w>
scri p
ali en</w>
gu l
amaz on</w>
comple tely</w>
p c</w>
off ered</w>
au g</w>
moti onal</w>
boo k
8 0
sing ing</w>
curren tly</w>
ang ry</w>
gam ing</w>
chap el</w>
ck y</w>
st al
re ct
mediterran ean</w>
remo ve</w>
under water</w>
whe el
u d</w>
se x
spo on</w>
a e</w>
scri ption</w>
sp lit</w>
lon g
qu ite</w>
h all
mil lions</w>
5 4</w>
pass ing</w>
yach t</w>
ta g</w>
scar f</w>
foun tain</w>
fre sh
fun ction</w>
de pression</w>
at mo
mar sh
e o</w>
mit ted</w>
bak ed</w>
t one</w>
govern or</w>
demon str
bill board</w>
ob serv
imper ial</w>
re ason</w>
rema ining</w>
k ill</w>
bal let</w>
visit ors</w>
destroy ed</w>
6 4</w>
pr is
de p
do me
laun dry</w>
to ward</w>
head quarters</w>
ac ci
co s
car bon</w>
estim ated</w>
pu r</w>
th ai</w>
exclu sive</w>
p s
g ary</w>
ballo ons</w>
be ll
us ers</w>
ru le</w>
fu tur
bro w
tri angle</w>
new ly</w>
fan ta
in nov
we al
she pher
bur ning</w>
for mu
ta ste</w>
en s
me an</w>
sam ple</w>
un is
re ly</w>
1 1
ham mer</w>
see ing</w>
supre me</w>
be ars</w>
dre ams</w>
con ven
mat ching</w>
install ed</w>
ru ral</w>
pan els</w>
l ag
reve aled</w>
m att
techni ques</w>
cali for
lan ter
in c</w>
appro ach</w>
l ack</w>
r ated</w>
s af
attr active</w>
fall ing</w>
qu ali
ven ice</w>
jun ior</w>
ox ford</w>
bre ed</w>
produ cer</w>
r h
pow der</w>
li ved</w>
fer red</w>
super hero</w>
an cy</w>
fe eling</w>
de m
b and
come dy</w>
sc ent</w>
cu sh
dall as</w>
re pair</w>
m all</w>
horiz on
compar ed</w>
f ill</w>
pr inting</w>
o logy</w>
be y</w>
unis ex</w>
ici ans</w>
cr y
y ers</w>
par alle
t ics</w>
h ats</w>
dire ctly</w>
defe ated</w>
bran ches</w>
int ended</w>
cour ty
m ile</w>
co w</w>
p ure</w>
weap ons</w>
ll ig
19 20
bas s</w>
u g
prote ct</w>
k un
kno w
van cou
y ment</w>
d son</w>
199 7</w>
ac he</w>
vancou ver</w>
car ved</w>
bo ld</w>
break ing</w>
pos sib
wre ath</w>
mart in</w>
w an</w>
coun ter
z ing</w>
tt i</w>
sl ice</w>
pra ised</w>
resi dence</w>
g lam
com fort</w>
call ing</w>
ati vely</w>
chang ing</w>
me tro
nas a</w>
py ra
sep t</w>
comfor table</w>
ow ned</w>
sun g</w>
pa sta</w>
di ac</w>
warri or</w>
sur g
cur tains</w>
stre t
volu me</w>
la id</w>
phy s
w ick
transpor tation</w>
bm w</w>
fore ign</w>
p se</w>
er al</w>
bou ght</w>
formu la</w>
pa in</w>
buff alo</w>
pho enix</w>
ve sse
ter ms</w>
asse mb
rug by</w>
war dro
5 6</w>
18 th</w>
nether lands</w>
par ad
reg iment</w>
cover ing</w>
pu ll</w>
tra ins</w>
can not</w>
dis ease</w>
s or</w>
op tions</w>
0 1</w>
univers al</w>
comb ined</w>
ch ance</w>
episo des</w>
w y
jaz z</w>
newsp aper</w>
e ing</w>
lo tus</w>
hon or</w>
who m</w>
ster ling</w>
posit ions</w>
char les</w>
bam boo</w>
jump ing</w>
pl ant
en coura
ur ies</w>
be ha
co ol
lat ter</w>
re vo
bo ho</w>
me tal
o z</w>
jo ker</w>
pat ro
mo sa
o on</w>
gr ill</w>
in ner</w>
potat o</w>
d ur
don e
ta ylor</w>
work out</w>
fl ic
medic ine</w>
n inten
clas si
numer ous</w>
ess ay</w>
sh ades</w>
rist s</w>
john son</w>
tho mas</w>
mo sque</w>
ninten do</w>
no se</w>
re comm
ill er</w>
in done
particu lar</w>
spe ctive</w>
hand le</w>
199 6</w>
tar get</w>
u se
o ven</w>
col lar</w>
wh ale</w>
ad ing</w>
c av
illu min
pro pos
ath ers</w>
re member</w>
bre eds</w>
ru s</w>
econo mic</w>
conne cted</w>
kil o
read s</w>
me me</w>
harb or</w>
can di
cit iz
stat us</w>
ke eping</w>
ic ing</w>
suit able</w>
lo gos</w>
m aple</w>
rock y</w>
ak ed</w>
cro ss
i ke
n ity</w>
h an</w>
che ck
gu il
6 8</w>
pr e</w>
lu m</w>
ro lls</w>
s wing</w>
re ment</w>
s lightly</w>
gi e</w>
sc and
min or</w>
l ars</w>
my tho
fri ed</w>
g one</w>
nur se</w>
ch i</w>
n ations</w>
in y</w>
k is
att ached</w>
sig nature</w>
199 5</w>
con fir
pau l</w>
mon it
k ni
bal ance</w>
inte llig
pak istan</w>
lin col
whole sale</w>
sum mit</w>
wardro be</w>
for k</w>
el la</w>
g on
gra m</w>
maint a
c en
awar ded</w>
ssi ons</w>
anim ated</w>
albu ms</w>
ke pt</w>
du ke</w>
mu slim</w>
fanta stic</w>
bu ck
tur quo
turquo ise</w>
suppor ted</w>
as s</w>
tri ed</w>
restaur ants</w>
leo pard</w>
ri ver
indepen dence</w>
immedi ately</w>
any thing</w>
chall eng
analy sis</w>
ak i</w>
air y</w>
deli ver
pp y</w>
bar cel
sc i</w>
beg in</w>
rub ber</w>
roo f
fic ial</w>
pow ered</w>
commis sion</w>
h l</w>
la b</w>
wh it
h ap
pos ite</w>
subje ct</w>
tter y</w>
k ins</w>
bo l
aquar ium</w>
assemb ly</w>
c s</w>
atl anta</w>
ar ctic</w>
broo k
gro ve</w>
pro cess
form at</w>
dest ination</w>
be l</w>
ent ered</w>
9 th</w>
ex otic</w>
poten tial</w>
ti p</w>
shoo ting</w>
me als</w>
so ph
se ven
ro pe</w>
or ial</w>
ir d</w>
bloc ks</w>
de pen
lim e</w>
cap ture</w>
nor mal</w>
c d</w>
beha vi
water fall</w>
he dge
clim ate</w>
chev ro
ster ed</w>
sur f
cont act</w>
co ins</w>
califor nia</w>
ar rang
the ory</w>
organ is
n ba</w>
k ay
sim s</w>
mis sing</w>
revo lution</w>
docu ment</w>
sho ps</w>
w ash</w>
ar med</w>
goo gle</w>
de ad
g az
al e
cro p</w>
lead ers</w>
ab ly</w>
mo o
die go</w>
ste in</w>
monu ment</w>
god de
ci vil
speci fic</w>
woo l</w>
re p
tech n
courty ard</w>
cat ch</w>
islam ic</w>
line ar</w>
adv ant
y ar
v amp
ff in</w>
fa ith</w>
ad vis
ssi ve</w>
att ended</w>
te eth</w>
ser ious</w>
to wel</w>
t ar</w>
continu es</w>
be e
memor y</w>
photograph s</w>
ast ed</w>
obje ct</w>
ex change</w>
bri des
pi er</w>
barcel ona</w>
inte gr
cau ght</w>
5 3</w>
cu ts</w>
nu tr
shar ed</w>
lead s</w>
nar row</w>
back drop</w>
or nament</w>
chevro let</w>
new born</w>
am el</w>
clas sical</w>
moti ve</w>
avi ation</w>
b ones</w>
se ed</w>
tun nel</w>
in su
be comes</w>
stor y
olym pics</w>
li p
en e
in fe
categ ory</w>
in er</w>
fe ar</w>
199 4</w>
thu mb
horizon tal</w>
resour ces</w>
b at</w>
agre ed</w>
ser ves</w>
sto red</w>
tur ns</w>
fau x</w>
loo ked</w>
han g</w>
ing u
op y</w>
com posed</w>
on tar
beat les</w>
an ch
re n</w>
worl d
ta ils</w>
de termin
jour n
bran ding</w>
zo diac</w>
futur istic</w>
for tun
tri bal</w>
issu ed</w>
n fl</w>
stru ctures</w>
mini ature</w>
pla za</w>
v in</w>
re tri
reg ional</w>
em per
smo king</w>
sp rings</w>
c ig
over head</w>
r ist</w>
g roo
shor tly</w>
ic an</w>
sim ul
ma inten
ris k</w>
shu tter
j a</w>
l ations</w>
tr e</w>
ontar io</w>
mat ches</w>
cor n
mainten ance</w>
ef for
bath rooms</w>
as signed</w>
o ts</w>
pi pe</w>
garden ing</w>
differ ence</w>
adv anced</w>
id as</w>
e co
leg is
ident ity</w>
s age</w>
ri a</w>
allow s</w>
chev y</w>
hedge hog</w>
ar o
than ks</w>
co m</w>
vie wers</w>
own ers</w>
foot age</w>
de g
therap y</w>
cle an
lux e</w>
od les</w>
e igh
tour ism</w>
ef fort</w>
ff y</w>
av oid</w>
sat in</w>
reli ef</w>
stair case</w>
i sts</w>
196 0s</w>
197 0s</w>
tou rists</w>
la p</w>
sing les</w>
compe tit
do dge</w>
tro it</w>
boo t</w>
prev ent</w>
lat in</w>
ske leton</w>
s ri</w>
cas ino</w>
de troit</w>
mul ti</w>
ren a
ta x
re tail</w>
ol a</w>
sto res</w>
cow boy</w>
cur ly</w>
f ish
ma il</w>
con gress</w>
dar k
organ ized</w>
tw enty</w>
ag ency</w>
cup cake</w>
rou gh
arri ves</w>
ru ins</w>
dec al</w>
impro ve</w>
n on
pa id</w>
sof tw
ad idas</w>
ga in</w>
at ar</w>
dru m</w>
zer o</w>
fac ility</w>
car go</w>
pe ter</w>
k at
rena issance</w>
minim al</w>
e house</w>
cap ac
fra mes</w>
al t</w>
du ty</w>
mosa ic</w>
it a</w>
roo ts</w>
air man</w>
off en
ff le</w>
sh es</w>
bun k</w>
hou sing</w>
ly n</w>
we t</w>
bla zer</w>
pe t
me adow</w>
cal m</w>
sugge sted</w>
7 0
bu ted</w>
pas ses</w>
con verse</w>
knit ting</w>
sand wich</w>
metal lic</w>
5 7</w>
softw are</w>
5 8</w>
than ks
e ff
eth nic</w>
manu fact
thanks giving</w>
fl am
lo ves</w>
sac red</w>
relig ion</w>
ike a</w>
lo vers</w>
6 00</w>
show ed</w>
blu es</w>
str ing</w>
ri o</w>
sc oring</w>
ta i
be ij
bl in</w>
neg ative</w>
de l</w>
fic tional</w>
ac le</w>
arri vals</w>
te ddy</w>
beij ing</w>
dol ph
north west</w>
na p</w>
wal t</w>
tra dition</w>
gr ant</w>
chan deli
t ors</w>
ha i</w>
un a</w>
custo mer</w>
ma c</w>
ang els</w>
mas sive</w>
war ning</w>
ele mentary</w>
jo y</w>
mag ical</w>
ig an</w>
bo rough</w>
harb our</w>
d ating</w>
vol can
ro y</w>
k el
mas ks</w>
le ans</w>
colon ial</w>
too th</w>
199 2</w>
glo ves</w>
diam on
deg ree</w>
tex tured</w>
trans formers</w>
on ia</w>
virg in
smoo th
bu ying</w>
secre tary</w>
re stor
nor way</w>
sy l
parad ise</w>
s ap
cro at
bo llywood</w>
sol o</w>
foot wear</w>
fin als</w>
contra st</w>
wa ii</w>
chee se
lincol n</w>
ite m</w>
pra yer</w>
ro ad
world wide</w>
k ir
y land</w>
ig er
angu lar</w>
f is
ado ws</w>
h n
as k</w>
w is
tum bl
neighbor hood</w>
fac e
tomat o</w>
kitch ens</w>
vis ited</w>
f ing
y m
en e</w>
shutter stock</w>
an kle</w>
fore ver</w>
photograph ed</w>
cam bridge</w>
isra el</w>
r ising</w>
pu b</w>
hol der</w>
r ation</w>
a id</w>
bo ss</w>
introdu ction</w>
er o
6 6</w>
r hy
sn acks</w>
de ter
199 0</w>
shepher d</w>
writ ers</w>
se x</w>
ju mp</w>
organ iz
con vention</w>
or ch
bed ding</w>
go ds</w>
effe ctive</w>
en ess</w>
mag ne
bo dies</w>
environ mental</w>
ro cket</w>
ve ments</w>
che er
pa irs</w>
or a</w>
gi a</w>
st ations</w>
la kes</w>
tur ning</w>
ou ter</w>
smoo th</w>
me ter</w>
we ak
e ar</w>
sn ack</w>
bus y</w>
chel sea</w>
v o</w>
car t</w>
vis iting</w>
mil an</w>
tre k</w>
clo th</w>
mi st
zel da</w>
lin en</w>
prote in</w>
botan ical</w>
tu p</w>
h its</w>
maj ority</w>
cu ps</w>
spo ts</w>
d ying</w>
pen insu
ligh thouse</w>
pir ate</w>
cli ff</w>
liqu id</w>
u n</w>
att an</w>
carni val</w>
wa i
we ird</w>
in k
purch ase</w>
decor ate</w>
che mical</w>
st ack</w>
be aches</w>
vamp ire</w>
wra pped</w>
opportun ity</w>
con fi
ric hard</w>
wast e</w>
emper or</w>
g ment</w>
hand some</w>
tex ts</w>
exten sion</w>
sare e</w>
soun d
know ledge</w>
2 4
bra ids</w>
8 5</w>
car ol
al ism</w>
divi ded</w>
ment ed</w>
pe ach</w>
arab ic</w>
po inting</w>
pi er
bu cket</w>
pregn ant</w>
tr y
hin du</w>
stra p</w>
am ph
conne ct</w>
ak ing</w>
exper im
sur f</w>
goo ds</w>
diamon ds</w>
temper ature</w>
hel ping</w>
re aching</w>
sh i</w>
ag ne</w>
lead ership</w>
advent ures</w>
au di</w>
o re
go at</w>
stri ke</w>
tou ch
pr ices</w>
me ters</w>
gra in</w>
ru m</w>
rac es</w>
vir us</w>
itu de</w>
me ets</w>
po lar</w>
rece ive</w>
alu min
ffe l</w>
re ality</w>
t ang
se al</w>
loc ations</w>
fe eding</w>
char m</w>
malay sia</w>
person nel</w>
hel ps</w>
figh ters</w>
any one</w>
tri m</w>
de vil</w>
dra matic</w>
i el</w>
dre w</w>
con fe
ad mi
chi p</w>
secon ds</w>
sm iles</w>
mo ments</w>
spac e
cu s</w>
bo he
ist ics</w>
d ental</w>
re solution</w>
5 9</w>
ter rier</w>
stre ss</w>
se ats</w>
assi stant</w>
con flic
jor dan</w>
or che
call s</w>
s u</w>
pic nic</w>
hard wood</w>
du st</w>
than k</w>
suc ce
make over</w>
char ts</w>
dra ft</w>
bus h</w>
pass enger</w>
su bur
199 3</w>
a i
li x</w>
engine er</w>
po ttery</w>
prepar e</w>
ab solu
so ap</w>
t ape</w>
re u
cla im</w>
ornam ents</w>
ven e
teen age</w>
199 1</w>
profe ss
cop ies</w>
s end</w>
circu lar</w>
nu ts</w>
de par
evo lution</w>
performan ces</w>
ent ing</w>
kni fe</w>
archite ct</w>
mad rid</w>
liber ty</w>
broad cast</w>
bad ge</w>
ma xi</w>
195 0s</w>
sou theast</w>
kn it</w>
sc ary</w>
scen ery</w>
dis plays</w>
inter pre
m ate</w>
educ ational</w>
d le</w>
exi sting</w>
bri ef
run ner</w>
im e</w>
auth ority</w>
7 7</w>
att acks</w>
hi p
j o</w>
le st</w>
suff ered</w>
ast s</w>
virgin ia</w>
cand les</w>
8 th</w>
g i</w>
lay ers</w>
instru ments</w>
necess ary</w>
ang les</w>
k shire</w>
sh ang
carri er</w>
k u</w>
197 0</w>
vi c</w>
ex p
fil ming</w>
7 6</w>
pack age</w>
ig n
be side</w>
six th</w>
electron ic</w>
ele ss</w>
sequ ence</w>
dedic ated</w>
g ru
re main</w>
emb lem</w>
is n</w>
wrest ling</w>
ban ks</w>
tutor ials</w>
il ers</w>
saf ari</w>
ge ly</w>
spo ke</w>
ac cent</w>
box ing</w>
re treat</w>
mu st
tra l</w>
celebr ating</w>
subsequ ently</w>
pine apple</w>
van ity</w>
t wel
mar ina</w>
arti stic</w>
heav en</w>
conne ction</w>
ac cu
j ack</w>
some where</w>
peninsu la</w>
neu tral</w>
con cent
paralle l</w>
n is
c ade</w>
comp on
mon t
bohe mi
ho t
pol icy</w>
no t
tru th</w>
o val</w>
develo p</w>
refle ction</w>
er ies</w>
hun dre
me ant</w>
d al
w ants</w>
por k</w>
adv ance</w>
pu tting</w>
pean ut</w>
bl ing</w>
per spective</w>
speak s</w>
colour ful</w>
ab bey</w>
dis co
mo sco
mar ines</w>
adv ice</w>
clas ses</w>
arch i
ear ned</w>
maxim um</w>
gro wn</w>
dome stic</w>
7 2</w>
offic ially</w>
ici ent</w>
in corpor
bis hop</w>
c age</w>
ss y</w>
allow ing</w>
metho d</w>
plan ets</w>
phil o
situ ation</w>
fac ed</w>
i o
f allen</w>
sour ces</w>
atmo sphere</w>
mer ry</w>
over looking</w>
t act
sh aring</w>
respon sible</w>
ny c</w>
alcoho l</w>
pat ch</w>
i bi
ric k</w>
d ges</w>
mis s
mosco w</w>
ta x</w>
champ agne</w>
admini stration</w>
ador able</w>
e sp
b ond</w>
re in
quar ter
sc rat
wa ist</w>
pand a</w>
el f</w>
gu es
in spe
bac on</w>
audi o</w>
pick up</w>
su stain
light ning</w>
pri son</w>
cap it
wor st</w>
air lines</w>
v ice</w>
tri ple</w>
198 0s</w>
d airy</w>
el and</w>
l is
pro min
sam u
apol is</w>
arri val</w>
c c</w>
sand als</w>
le y
prepar ed</w>
or ders</w>
op tion</w>
je sus</w>
ph ase</w>
gues thouse</w>
you tube</w>
fav our
lic en
mo du
speak ing</w>
fe ather</w>
meas u
p ile</w>
or leans</w>
l ily</w>
tomat oes</w>
zer land</w>
swit zerland</w>
c king</w>
il le</w>
as pe
renov ation</w>
willi ams</w>
r ho
communic ation</w>
f are</w>
arrang ed</w>
dang er
ve land</w>
f ame</w>
access ory</w>
hundre ds</w>
con sul
ric h
tri al</w>
re ef</w>
198 9</w>
foun ded</w>
mo l
dro ps</w>
week ly</w>
mo tel</w>
arrange ment</w>
man or</w>
por ce
refer red</w>
cre amy</w>
dy nam
j as
ci a</w>
th or
occas ion</w>
e ttes</w>
9 0s</w>
tab let</w>
i v</w>
st ive</w>
g in</w>
v ul
lo y
pres ence</w>
chi ps</w>
under ground</w>
lo se</w>
ab les</w>
pass engers</w>
fl an
potat oes</w>
wh i
ene my</w>
porce lain</w>
re min
custo mers</w>
la ven
bro ke</w>
mytho logy</w>
be ans</w>
r ating</w>
sw iss</w>
godde ss</w>
tim ber</w>
ac coun
dro pped</w>
lo gi
hy dro
inv as
sam sung</w>
6 3</w>
play ground</w>
consi der</w>
solu tions</w>
me try</w>
en der</w>
hun t</w>
ha ven</w>
ar ed</w>
sal mon</w>
0 2</w>
me sh</w>
s se</w>
circu it</w>
i ved</w>
mo roc
dest inations</w>
sun shine</w>
territ ory</w>
leg acy</w>
ra ff
inter nal</w>
photo shop</w>
stre tch</w>
ati vity</w>
t x</w>
b age</w>
psy cho
ac compan
lo ver</w>
cou ples</w>
ol dest</w>
actre sses</w>
0 9</w>
b ag
tw ice</w>
redu ced</w>
as is</w>
int h</w>
jo bs</w>
k ick</w>
prote ctive</w>
sculp tures</w>
fl yer</w>
propos al</w>
effor ts</w>
off ering</w>
st ol</w>
reve al</w>
laven der</w>
f illing</w>
0 3</w>
il li
str a</w>
ph ar
k im
econo my</w>
vis ions</w>
s ight</w>
cel ls</w>
legen ds</w>
lu s</w>
play station</w>
hor se
7 8</w>
a a</w>
tw ist</w>
e e</w>
j en
pre dic
star ts</w>
k an
au st
fer r
hand bags</w>
w ron
vi br
de plo
ar gent
al ised</w>
brook lyn</w>
inj ury</w>
ang er</w>
n ast
de t
un able</w>
pri de</w>
le ment</w>
simp sons</w>
mat es</w>
depic ting</w>
stri p</w>
invit ations</w>
bloss om</w>
k al
slo pe</w>
ag gre
avi an</w>
stan g</w>
gl aci
k ish</w>
man n</w>
ill ery</w>
far mer</w>
loo se</w>
b bles</w>
je wish</w>
ch rist</w>
ed ward</w>
warri ors</w>
defe at</w>
re present</w>
j am</w>
spo tted</w>
st ood</w>
0 5</w>
to wers</w>
mu stang</w>
manag ed</w>
lam ps</w>
re vi
po land</w>
fore ground</w>
pan or
ch u
ing e</w>
mar ath
profess or</w>
consi der
trave ling</w>
f las
cra fted</w>
con su
te am
t ire</w>
arti ficial</w>
cle veland</w>
cast ing</w>
ste amp
6 2</w>
att acked</w>
mir ro
steamp unk</w>
pe pper</w>
tal es</w>
pe ter
fac ilities</w>
pengu in</w>
mal es</w>
con taining</w>
0 8</w>
die sel</w>
man i
sp ray</w>
sun flower</w>
may or</w>
weal th</w>
op ens</w>
r ally</w>
my stery</w>
d red</w>
r ine</w>
ish ment</w>
desig n
cra sh</w>
s ab
goo d
st en
capac ity</w>
sum ed</w>
al lo
te lls</w>
respe ctively</w>
si oned</w>
accom mo
oc e
circu s</w>
scand in
ele cted</w>
cele bs</w>
advert is
br e</w>
ag ent</w>
cal cul
us er</w>
custo mi
lar gely</w>
ke e</w>
d ock</w>
skin ny</w>
k ok</w>
u lar</w>
ke eper</w>
provi ding</w>
in sur
di um</w>
bohemi an</w>
ep ic</w>
excep t</w>
me m
8 00</w>
cel tic</w>
gal o
rail road</w>
ac count</w>
har mon
prote st</w>
mo od</w>
presi dential</w>
af p</w>
d ent
m at</w>
awar eness</w>
valent ines</w>
cra f
6 1</w>
oc cup
cri min
choo sing</w>
dep th</w>
ar es</w>
surpr ise</w>
suppor ting</w>
f at
iv ory</w>
snow y</w>
gar lic</w>
ho sted</w>
el se</w>
str ateg
kitch en
infin ity</w>
represent ing</w>
196 9</w>
re cru
ph an
der ly</w>
j ones</w>
distribu tion</w>
ch ro
occur red</w>
gul f</w>
ar sen
ff on</w>
liter ature</w>
ti ed</w>
mer ch
budd h
pro gress</w>
sal on</w>
ordin ary</w>
sle y</w>
se mi</w>
south west</w>
bb c</w>
prepar ing</w>
ph ra
ac hu
bill ion</w>
br ings</w>
ap art</w>
dou gh</w>
qui et</w>
d al</w>
recei ving</w>
tas k</w>
retur ns</w>
init i
thou gh
and re
196 8</w>
danger ous</w>
cheese cake</w>
dev ice</w>
ex tr
scienti fic</w>
person alized</w>
see ms</w>
h ill
chandeli er</w>
meas ure</w>
my ster
t end</w>
ur o</w>
sat is
sk ate
per man
relax ing</w>
cri me</w>
wr ist</w>
gradu ate</w>
origin als</w>
tre ats</w>
ren tal</w>
bl ur
ten ant</w>
app li
6 7</w>
e c
me tro</w>
0 4</w>
du blin</w>
0 7</w>
be ar
super man</w>
con vers
mo ck</w>
he ard</w>
reti red</w>
van illa</w>
hil ar
wh ite
tion ary</w>
up coming</w>
cycl one</w>
mo le
plan es</w>
0 6</w>
hu mans</w>
portu gal</w>
c out
spir it
disco very</w>
9 6</w>
vo te</w>
docu ments</w>
employe es</w>
astro no
applic ation</w>
survi val</w>
chan el</w>
post card</w>
st icks</w>
ron au
tr in
s no
fo g</w>
d ding</w>
ro asted</w>
fu sion</w>
br inging</w>
a board</w>
inst ant</w>
qu est</w>
cir cles</w>
proper ties</w>
pol o</w>
tal ks</w>
gen der</w>
declar ed</w>
f ou
ro d</w>
ver sions</w>
dre am
la ying</w>
ans wer</w>
tr unk</w>
ast ronau
dark ness</w>
al li
pris on
f ellow</w>
manu fac
mo ves</w>
198 0</w>
import ance</w>
agre ement</w>
coun try
pro mis
19 20</w>
clo sure</w>
re je
motiv ational</w>
p m</w>
u ts</w>
ka waii</w>
str ange</w>
o s
and ro
flor ida</w>
redu ce</w>
fin ds</w>
hu man
sche me</w>
mach ines</w>
f ake</w>
re model</w>
re sting</w>
tr actor</w>
attemp ted</w>
th r
u al
se af
swe den</w>
ri des</w>
me ly</w>
ra ise</w>
loo p</w>
mess ages</w>
bal i</w>
ru p
whe at</w>
ant on
198 4</w>
ep y</w>
be n</w>
re public
in scription</w>
te ach
pri ze</w>
pa th
fir m</w>
represent ed</w>
archite cts</w>
athle tic</w>
pla id</w>
or ts</w>
fran k
nutr ition</w>
7 1</w>
dy nast
democr atic</w>
m d</w>
pit ch</w>
b eng
str ate
nu clear</w>
embroi dered</w>
te sting</w>
ri an</w>
thre at
extre me</w>
thu mb</w>
farm ers</w>
tex as</w>
retur ning</w>
i ra
actu s</w>
cy lin
meas ures</w>
motiv ation</w>
friend ship</w>
def ence</w>
tu l
ing o</w>
b log
contin ental</w>
o sc
s in</w>
tar ian</w>
gri d</w>
and y</w>
polit an</w>
s ounds</w>
il i
coo ker</w>
arch ae
purch ased</w>
in um</w>
stri pes</w>
st ure</w>
fe ed</w>
g ings</w>
u ms</w>
resul ted</w>
g ar</w>
out let</w>
et ings</w>
elect rical</w>
pa ired</w>
8 8</w>
se tup</w>
e din
squ ad</w>
fi red</w>
w ishes</w>
exhib it</w>
g at
chi ffon</w>
squ ir
cin nam
car d
k its</w>
lan ka</w>
conserv ation</w>
mush room</w>
techn ical</w>
ju dge</w>
bra d
extre mely</w>
ag er</w>
gam e
commis sioned</w>
bang kok</w>
s nap</w>
mode ling</w>
a h
sen s
y an
mis sed</w>
oper ating</w>
dis count</w>
s witch</w>
ch y</w>
head ed</w>
g ging</w>
appe al</w>
in dig
equ al</w>
pre d
ap o
cr ack
f its</w>
re stric
t au
196 7</w>
av oc
me ga</w>
there fore</w>
cho sen</w>
gol a</w>
can nes</w>
par ked</w>
m enti
e ast
an ia</w>
po em</w>
ra i
198 6</w>
t ally</w>
impres sive</w>
ali sts</w>
restor ation</w>
engra ving</w>
fe stive</w>
every day</w>
shor t
v ine
speak er</w>
p ad
sh ri
198 7</w>
pit ts
ro se
p add
ro ns</w>
wood working</w>
accep ted</w>
ra ys</w>
ti ally</w>
2 5
tem plates</w>
mar s</w>
st ation
ex tra
pic ally</w>
nor theast</w>
h acks</w>
lo co
boy friend</w>
v ans</w>
m ist</w>
pro gre
cre ature</w>
t ag
m au
expan sion</w>
indone sia</w>
hun ter</w>
i th
les son</w>
on na</w>
gent le
li eu
spirit ual</w>
me hn
cout ure</w>
mehn di</w>
mis sions</w>
tur kish</w>
ga ined</w>
j el
roman ce</w>
we a
per gola</w>
supp lied</w>
rel atively</w>
brides maid</w>
silhou ettes</w>
lo sing</w>
attemp ts</w>
bo mb</w>
c actus</w>
repor ts</w>
op in
198 8</w>
exer cis
skir ts</w>
cinnam on</w>
17 th</w>
st amp</w>
z ar
se ctions</w>
promo tion</w>
wron g</w>
jun ction</w>
n or</w>
ch o</w>
bel le</w>
l b</w>
ri der</w>
cau cas
z ard</w>
196 0</w>
wash ing</w>
chal k</w>
char ity</w>
plat inum</w>
refu sed</w>
2 9
g au
her self</w>
k g</w>
youn ger</w>
194 0</w>
exercis es</w>
main ly</w>
o li
labor atory</w>
ex pression</w>
jo kes</w>
d war
br illi
o ak
arsen al</w>
horiz on</w>
w aving</w>
austri a</w>
il a</w>
mode st</w>
st ages</w>
mon sters</w>
c ci</w>
ho stel</w>
wal let</w>
she ets</w>
part ner</w>
port ers</w>
dis c</w>
nav ig
sand y</w>
strate gy</w>
twel ve</w>
g t</w>
den ver</w>
ap h
cas h</w>
bak ery</w>
o let</w>
ste m</w>
expe dition</w>
e di
habit at</w>
su e
cro ssed</w>
af ford
7 9</w>
tex tile</w>
ne ed
iso metric</w>
ven ues</w>
country side</w>
po ols</w>
pri mar
man h
co ordin
g inger</w>
resul ting</w>
shang hai</w>
p ad</w>
hun dred</w>
trans fer</w>
c attle</w>
on ing</w>
ad just
con ce
ap preci
uni forms</w>
auto matic</w>
go al
st an</w>
di ving</w>
stru ck</w>
design ated</w>
ex posed</w>
patro l</w>
ir a</w>
o red</w>
2 50</w>
under stand</w>
u de</w>
w ins</w>
cry st
ty pically</w>
pal ette</w>
fic ations</w>
198 5</w>
pro to
bro s</w>
reg ions</w>
a im
auto mobile</w>
leg gings</w>
fe min
el derly</w>
en na</w>
n s
musc les</w>
con sole</w>
sty ling</w>
condu cted</w>
ra ising</w>
li zed</w>
cho se</w>
consi sts</w>
emer ald</w>
bo eing</w>
intellig ence</w>
m ise</w>
hon ey
yor kshire</w>
bu g</w>
8 0s</w>
en o
bo dy
ent ary</w>
mel on</w>
6 9</w>
gi raff
app lied</w>
remo te</w>
gre w</w>
las er</w>
pir ates</w>
de sh</w>
teen th</w>
expla ined</w>
ar ab</w>
po p
war ehouse</w>
ten der</w>
spar k
196 6</w>
hilar ious</w>
prote cted</w>
mad onna</w>
fe athers</w>
scandin avian</w>
edin burgh</w>
l ens</w>
te al</w>
person ality</w>
shel ter</w>
replac ement</w>
log ist</w>
pow ers</w>
ma ster
clo ser</w>
bur gun
pa vil
k ur
ch e</w>
possib ly</w>
194 2</w>
lieu tenant</w>
shar es</w>
196 5</w>
oper ated</w>
ferr ari</w>
mus ician</w>
ultim ately</w>
afford able</w>
fl at
vill as</w>
bri stol</w>
mu d</w>
progra ms</w>
pyra mid</w>
zo mb
reu ters</w>
face book</w>
guit ars</w>
g ad
vir tual</w>
gol d
do ts</w>
insur ance</w>
am ster
affe cted</w>
le ban
mb er
att ri
e ments</w>
col oured</w>
ligh ted</w>
dec als</w>
her bs</w>
hap pen
en n
broad way</w>
hu l
actu al</w>
amster dam</w>
3 8
dir t</w>
per h
surg ery</w>
te es</w>
pen n
pi ed</w>
197 5</w>
si sters</w>
cre ates</w>
res orts</w>
gir l
offic es</w>
tan ks</w>
j i
dri ed</w>
ra p
incre asing</w>
vege tarian</w>
sp end</w>
7 4</w>
ce dar</w>
col lap
manh attan</w>
nat ur
pregn ancy</w>
f ine
sa y
wide ly</w>
ro se</w>
cau sing</w>
mon tre
claim s</w>
modi fied</w>
port land</w>
spr ing
el im
tran sm
voc als</w>
perh aps</w>
in ary</w>
mat te</w>
ha un
peri o
appro ved</w>
mole cu
re pl
sp ice</w>
o pp
colle ctions</w>
z oo
burgun dy</w>
bun ch</w>
for um</w>
tribu te</w>
individu als</w>
j agu
194 5</w>
comm ented</w>
ne go
de luxe</w>
lanter n</w>
confir med</w>
sp lash</w>
se arch
can cel
po ke
bu t
op posite</w>
re ments</w>
mic h
primar ily</w>
be es</w>
to ms</w>
dir ty</w>
kin ds</w>
hy bri
al lied</w>
haw k</w>
m ingham</w>
w ick</w>
ta il
fl ag
ra id</w>
mi di</w>
ri vers</w>
ran dom</w>
ul ty</w>
t ens</w>
poke mon</w>
sever e</w>
foc used</w>
ra ge</w>
perfe ctly</w>
rese arch
ob served</w>
advant age</w>
ath s</w>
shar p</w>
fil es</w>
laugh ing</w>
ro ller</w>
bal d</w>
sound track</w>
de e
clo wn</w>
bab ies</w>
kin der
196 4</w>
n c</w>
he els</w>
19 50</w>
en tic</w>
anch or</w>
mand ala</w>
t ine</w>
m l</w>
tro users</w>
ra ble</w>
auth entic</w>
happ iness</w>
7 3</w>
a o</w>
f ers</w>
194 4</w>
al ber
13 th</w>
favour ite</w>
seaf ood</w>
ac cur
con ve
ite ly</w>
seven th</w>
ken ne
por ts</w>
inter section</w>
van ia</w>
be ads</w>
d ron
ic king</w>
secon dary</w>
pla yo
carol ina</w>
spe ak</w>
cru iser</w>
thou sand</w>
ment ation</w>
resi dent</w>
b in</w>
dan cer</w>
labe ls</w>
ri f
swe dish</w>
simil ar
light weight</w>
co sta</w>
kitchen ette</w>
sa ints</w>
9 2</w>
po sted</w>
conver ted</w>
roo t</w>
gal a</w>
art illery</w>
defin ition</w>
s aving</w>
s al</w>
im a</w>
ad dress</w>
be ver
s me
sli ding</w>
re stored</w>
zi p</w>
inse cts</w>
e ars</w>
exten sive</w>
s low
ra i</w>
dition ally</w>
dem and</w>
our s</w>
bu l</w>
gar ten</w>
card board</w>
ly n
identi fied</w>
se a
dou b
it es</w>
ot to
swi m</w>
bun galo
tt le</w>
lear ned</w>
mich igan</w>
nego ti
develop ing</w>
ck er</w>
cock tails</w>
flu ffy</w>
success fully</w>
contro lled</w>
hard ware</w>
c ies</w>
u ss</w>
mbl ed</w>
197 9</w>
d av
sh ake</w>
cris is</w>
ar ian</w>
gather ing</w>
dynast y</w>
in ju
heav ily</w>
y an</w>
9 7</w>
invas ion</w>
m rs</w>
ma the
flav or</w>
k illing</w>
bri ef</w>
bas in</w>
pack ed</w>
wal ker</w>
survi ve</w>
bl end</w>
n an
bir mingham</w>
kit ten</w>
statu es</w>
swe at
9 8</w>
mo on
n ights</w>
au ction</w>
x box</w>
mar io</w>
pitts burgh</w>
di ary</w>
ion e
anton io</w>
ac res</w>
influ enced</w>
re presents</w>
aust in</w>
194 1</w>
sun light</w>
mur als</w>
de pot</w>
lip stick</w>
marath on</w>
defin ed</w>
ter ri
fran ch
cir cul
ck ed</w>
jam a
colle cted</w>
bo mber</w>
admi ral</w>
wood land</w>
br is
g ang
ra sp
techni que</w>
mi a</w>
termin al</w>
st on
lad der</w>
pl enty</w>
son y</w>
re ss</w>
the sis</w>
regar ding</w>
i ron
8 7</w>
sou ght</w>
butter flies</w>
nov a</w>
w agon</w>
ac re</w>
har vest</w>
eng aged</w>
won der</w>
ar ia</w>
ben z</w>
jo se
char ming</w>
st ating</w>
em ph
quar antine</w>
la ws</w>
dan cers</w>
hor n</w>
appro pri
nis san</w>
princi pal</w>
te sts</w>
it ation</w>
mater nity</w>
desig ners</w>
vi king</w>
di p</w>
arri ve</w>
montre al</w>
lux ur
vol k
il ton</w>
out standing</w>
co sts</w>
mun ici
experi enced</w>
g lowing</w>
cop y
de mic</w>
instru ctions</w>
br and
fi x</w>
k ent</w>
avoc ado</w>
av atar</w>
fash ion
bre e
fu sed</w>
up date</w>
9 4</w>
har ley</w>
al em</w>
c ils</w>
caucas ian</w>
un like</w>
vo ted</w>
brid ges</w>
we igh
key board</w>
t ack
vo y
je ts</w>
jer us
i k
ex ce
gre g
thron es</w>
dec ade</w>
en sure</w>
list ening</w>
promin ent</w>
nomin ated</w>
ha y
f u</w>
h as
inspir ing</w>
m s
cau ses</w>
jerus alem</w>
i an
heal th
rain y</w>
sue de</w>
de stri
common ly</w>
s ick</w>
dru m
ho ok</w>
re action</w>
pix ar</w>
op tim
le ice
boo th</w>
197 2</w>
leice ster</w>
pe destri
t ism</w>
ay a</w>
landscap es</w>
m are</w>
t d</w>
employe e</w>
vo gue</w>
in ser
cu is
ei ffel</w>
loc k
3 60</w>
scen ic</w>
pavil ion</w>
f as
plan ting</w>
gui des</w>
car amel</w>
hu a</w>
16 th</w>
san ct
8 1</w>
enjo yed</w>
secre ts</w>
poe try</w>
trans ferred</w>
con vin
conflic t</w>
son g
re place</w>
vi olet</w>
shi ft</w>
al mond</w>
sk ies</w>
coo ked</w>
qu ir
ph e
sa x
bow ls</w>
pro ud</w>
offen sive</w>
ab ilities</w>
cur ved</w>
defen sive</w>
dru g</w>
ent ering</w>
magne tic</w>
pu sh</w>
tit les</w>
teach ers</w>
cran e</w>
expl oring</w>
b ers</w>
vie wing</w>
sen ate</w>
hand writing</w>
follow s</w>
colum n</w>
in sul
li fting</w>
app ing</w>
bull dog</w>
equi pped</w>
bul let</w>
ug ly</w>
g as
head ing</w>
ti de</w>
car ving</w>
por table</w>
di ans</w>
9 1</w>
stri king</w>
p ione
v or
ar te</w>
af gh
st am
he ar</w>
de man
po d</w>
deliver ed</w>
ham ilton</w>
k new</w>
rough ly</w>
colum ns</w>
fa bul
volk sw
bur n
bel gi
stri pe</w>
p acks</w>
smooth ie</w>
1 20</w>
te ach</w>
swi ft</w>
pol lution</w>
fl our</w>
pas sion</w>
se ssions</w>
int on</w>
fo am</w>
per fu
con do</w>
ste ph
hal o</w>
volksw agen</w>
fin ishing</w>
m age</w>
com memor
stra w</w>
c ze
m t</w>
te lling</w>
fol ding</w>
bar rel</w>
dimen sions</w>
to mb</w>
nau tical</w>
insp ire</w>
con e</w>
shri mp</w>
lu cky</w>
y el
li est</w>
rela x</w>
bow ling</w>
drag ons</w>
kinder garten</w>
ex pand
com pos
sco tt</w>
fon ts</w>
har rison</w>
bas is</w>
ch im
are ly</w>
car l
i ously</w>
sal v
or tho
fire works</w>
impro ved</w>
ru bs</w>
car din
un ve
si vely</w>
oun ded</w>
b bed</w>
197 3</w>
metro politan</w>
ris es</w>
wi d
medit ation</w>
we ls</w>
cal if</w>
acu lar</w>
lau gh</w>
f old</w>
199 0s</w>
resi stance</w>
p ou
gu cci</w>
pro ved</w>
al b
bu ffe
roof top</w>
8 6</w>
dr a</w>
z a
agricul ture</w>
gr illed</w>
197 1</w>
ac ou
c air
198 2</w>
cush ion</w>
treas ure</w>
t ick
thre at</w>
st able</w>
he ights</w>
whis key</w>
9 3</w>
for get</w>
subsequ ent</w>
198 3</w>
dist ingu
cu ba</w>
fabul ous</w>
elect ric
cr ying</w>
ac qu
c kets</w>
v i</w>
orche stra</w>
ch ase</w>
ga p</w>
adop ted</w>
sustain able</w>
b au
re serv
scoo p</w>
luxur ious</w>
man go</w>
fer ry</w>
orig in</w>
mechan ical</w>
clin ic</w>
re verse</w>
7 00</w>
d d</w>
thron e</w>
n ou
p ale</w>
wal nut</w>
j im</w>
co ats</w>
edit or</w>
to e</w>
be aded</w>
bl ind</w>
gar ian</w>
gener ated</w>
b ap
sh adows</w>
la m</w>
vibr ant</w>
cro sses</w>
life time</w>
char ged</w>
l ated</w>
reti rement</w>
il ian</w>
promo ted</w>
194 3</w>
stru gg
boar ding</w>
furn ished</w>
sc at
y am
be am</w>
tor pe
promo te</w>
sugge st
se cure</w>
bi a</w>
c ents</w>
cam el</w>
histor ian</w>
athle tes</w>
guar an
le is
fac ial</w>
bel ly</w>
d f</w>
frequ ently</w>
cre ator</w>
gather ed</w>
sele ct</w>
fail ure</w>
em ir
w i</w>
ear th
swe e
197 6</w>
fle x
mini stry</w>
virg in</w>
mush rooms</w>
stan ces</w>
shi p
under standing</w>
corre ct</w>
up gra
particip ated</w>
gen e
val u
al ps</w>
dri vers</w>
tra ils</w>
fl ame</w>
hip ster</w>
clu bs</w>
y ne</w>
mix ing</w>
ti res</w>
g ab
v is</w>
al tar</w>
po ts</w>
belgi um</w>
de al
ban e</w>
popu lar
vol ley
1 000</w>
brilli ant</w>
ho sts</w>
e motional</w>
pil lows</w>
susp en
it o</w>
pack ing</w>
glaci er</w>
lo ving</w>
glam our</w>
mar kets</w>
volley ball</w>
croat ia</w>
i eld</w>
ste ak</w>
l i</w>
di plo
retri ever</w>
ess enti
de cre
ho g
guar dian</w>
pu p
bene ath</w>
ch ris</w>
thu si
8 2</w>
alex ander</w>
tumbl r</w>
inju red</w>
bro ch
schedu led</w>
ren dered</w>
re ver
green house</w>
ip ad</w>
min ne
bor ne</w>
stoc k
d na</w>
en thusi
dre ss
tim ore</w>
de stru
dec ades</w>
ori ental</w>
ma son</w>
eng ines</w>
scoo ter</w>
lin er</w>
con tained</w>
197 4</w>
pe aked</w>
nor we
relation ships</w>
be lon
sky scra
tre ated</w>
illumin ated</w>
193 0s</w>
pro mp
alumin um</w>
clo sing</w>
win ners</w>
g ather</w>
acci dent</w>
in ated</w>
g ates</w>
bal timore</w>
guar dians</w>
sc out</w>
o v
o y
s r</w>
bar o
e bay</w>
thu r</w>
mainta ined</w>
cre st</w>
bro ad</w>
colle cti
op en
t ight</w>
saur us</w>
pu lled</w>
gran ite</w>
su m</w>
docu mentary</w>
sp icy</w>
fing ers</w>
fore sts</w>
bl ade</w>
carri es</w>
shel ls</w>
ex pressed</w>
clas sy</w>
cas ser
hi ke</w>
po oh</w>
o tt</w>
go w</w>
da is
high lights</w>
ath ens</w>
197 8</w>
p y</w>
f und</w>
contribu ted</w>
by z
sw an</w>
micro phone</w>
ti ble</w>
determin ed</w>
v y</w>
conclu ded</w>
squir rel</w>
ar re
pre y</w>
appear ances</w>
im ate</w>
repl ica</w>
h en</w>
ma h
lon ely</w>
ne ver
cul t</w>
out break</w>
t ant</w>
tap e
dy e</w>
arri ving</w>
ti v
he aring</w>
enti rely</w>
8 4</w>
del ta</w>
he el</w>
ts man</w>
mur der</w>
mp er</w>
char coal</w>
sto ve</w>
cra b</w>
scho ol
fif a</w>
ell ite</w>
blog ger</w>
ap ples</w>
197 7</w>
lim it</w>
perman ent</w>
re pu
maint ain</w>
show cas
t to</w>
ch airman</w>
po pe</w>
convers ation</w>
mus icians</w>
wheel chair</w>
though ts</w>
o logical</w>
ex tin
sat ellite</w>
ass ass
buffe t</w>
begin ners</w>
p ound</w>
polit ics</w>
swe ar</w>
en velo
ra s</w>
g ly
du al</w>
eag les</w>
bene fit</w>
pract ical</w>
ro les</w>
ir an</w>
dis pu
scienti sts</w>
can opy</w>
otto man</w>
norwe gian</w>
sh ining</w>
ba y
u til
mo red</w>
par ag
at i</w>
hel l</w>
pro per</w>
consi st
blu sh</w>
vesse l</w>
legis l
ev ol
8 9</w>
pr ise</w>
ir o</w>
deter mine</w>
casser ole</w>
bul b</w>
accompan ied</w>
ra ms</w>
neigh bour
p sy</w>
author ities</w>
3 5
fi ber</w>
thir ty</w>
remo val</w>
use ful</w>
dri ven</w>
budd ha</w>
astronau t</w>
hall way</w>
monit or</w>
clou dy</w>
10 th</w>
wil son</w>
pe ac
regi ster</w>
cuis ine</w>
vis ed</w>
americ ans</w>
super ior</w>
mono chrome</w>
rain fall</w>
1920 s</w>
cent uries</w>
cham ber</w>
jagu ar</w>
k am
sh iny</w>
que ens
ass ault</w>
a x</w>
cur ry</w>
el ite</w>
gra b</w>
bu st</w>
respe ct</w>
mill er</w>
inci dent</w>
den mark</w>
republic an</w>
cycl ed</w>
g gle</w>
leban on</w>
or al</w>
193 9</w>
m ere</w>
19 30</w>
le x
tru ly</w>
ma je
e mo
l ington</w>
sur vey</w>
to wns</w>
pic ked</w>
ho les</w>
la ho
ter rain</w>
a j
expand ed</w>
fix ed</w>
f lix</w>
ra d
bak er</w>
196 3</w>
l ining</w>
tt en</w>
nar r
g gy</w>
che mi
mathe mat
leis ure</w>
n hl</w>
achi eve</w>
produ cers</w>
i ded</w>
ch a</w>
cu t
requ est</w>
on ion</w>
candi date</w>
re creation</w>
te sted</w>
cre epy</w>
sl ices</w>
no table</w>
net flix</w>
8 3</w>
in nings</w>
par k
appe aring</w>
brun ch</w>
tri ps</w>
athle te</w>
opp on
op position</w>
pro mise</w>
le w
illustr ator</w>
ok laho
acou stic</w>
bu n</w>
val ues</w>
h ound</w>
ac qui
prepar ation</w>
spac ious</w>
n ate</w>
syl vania</w>
wo ven</w>
admini str
hybri d</w>
ev acu
may be</w>
m 2</w>
concep ts</w>
mean while</w>
th under
co d
te dly</w>
giraff e</w>
glas gow</w>
close ly</w>
est one</w>
prin ce
ho mer</w>
carri age</w>
emir ates</w>
dru ms</w>
or i</w>
metho ds</w>
cast les</w>
lab or</w>
pur su
girl friend</w>
al ive</w>
snow man</w>
re quest
lon gest</w>
de buted</w>
fun ctional</w>
butt ons</w>
un g</w>
198 1</w>
so mer
m tv</w>
iz es</w>
constitu tion</w>
tw i
acade mic</w>
fashion able</w>
mi ke</w>
ex it</w>
g ans</w>
far ms</w>
sli p</w>
hi pp
re ign</w>
ti m</w>
k an</w>
tur t
interest ed</w>
ar thur</w>
l an</w>
re vol
re cycled</w>
ch in
kn ights</w>
tape stry</w>
ato mic</w>
g ate
cat ching</w>
de an</w>
sa il</w>
bis cu
dra wers</w>
house hold</w>
du vet</w>
alo gue</w>
appo int
me mb
descri bes</w>
tr ac
gen us</w>
resi den
perfu me</w>
sto pped</w>
t ags</w>
bre ath</w>
cre dit
say ings</w>
n ad
foli o</w>
ne l
a isle</w>
ru sh</w>
gar n
not ice</w>
adjust able</w>
d ice</w>
pri vac
broo k</w>
liter ary</w>
tri bun
exc ited</w>
privac y</w>
n ash
v ig
w ill
al leg
h ire</w>
s i</w>
wi g</w>
la bra
ct ion
re volu
il ey</w>
el le</w>
10 1</w>
e co</w>
k r
in ers</w>
pr int
s wa
al ities</w>
public ation</w>
refer ences</w>
ll ers</w>
ha wai
au ro
ing ed</w>
re con
s am</w>
dol lars</w>
a ired</w>
mp tion</w>
s ville</w>
blur red</w>
ex pos
hul k</w>
istan bul</w>
air e</w>
reve als</w>
r ant</w>
con secu
clim b</w>
cig are
cy ber
pak istan
ul tra</w>
sty lized</w>
k iller</w>
sc u
sh ab
ff ins</w>
cu b
val ent</w>
pe ace
fi a</w>
sub marine</w>
the less</w>
sa i</w>
head phones</w>
figur ine</w>
tw il
eas ier</w>
super market</w>
deb ate</w>
weap on</w>
busine sses</w>
water front</w>
emb ar
man sions</w>
attr action</w>
apol lo</w>
occu pied</w>
sp in</w>
foun der</w>
twil ight</w>
mag nific
pig e
ad ds</w>
k not</w>
man ic
eigh th</w>
defin itely</w>
he im</w>
pakistan i</w>
ch en
bre eding</w>
rac er</w>
t ations</w>
to l
ti red</w>
cheer ful</w>
an ce
p per
tra sh</w>
man ual</w>
celebr ated</w>
gro cer
cor d</w>
w ounded</w>
ev a</w>
recogn ized</w>
ig u
bu cks</w>
ap oc
esc ap
pu ts</w>
al ph
ac id</w>
oo l</w>
war ner</w>
pun ch</w>
repe at</w>
inter active</w>
don ald</w>
sh a</w>
invest ment</w>
wind sor</w>
behavi or</w>
menti oned</w>
colle ctor</w>
commun ities</w>
ta sty</w>
water proof</w>
ma sters</w>
st itch
spec im
pil lar</w>
expl or
pe dia</w>
ton gue</w>
volunte ers</w>
ab ad</w>
ba ham
rain forest</w>
kis sing</w>
e at
to ast</w>
ten ed</w>
break s</w>
colon y</w>
vers ity</w>
tour ing</w>
expos ure</w>
sy mp
colon el</w>
pu mp</w>
be an
se t
su me</w>
sho ck</w>
e liz
nur sing</w>
cott ages</w>
cro cod
guit ar
ar ily</w>
o ther
ic eland</w>
diam eter</w>
character istics</w>
opin ion</w>
consecu tive</w>
pitch er</w>
fil med</w>
land mark</w>
ac ce
pan try</w>
nash ville</w>
ri ders</w>
ro ts</w>
cor ri
han na</w>
brow se</w>
ti a</w>
car di
bracele ts</w>
e dit</w>
fran k</w>
la va</w>
de si
announ cement</w>
hel lo</w>
b ite</w>
tri u
bor gh
g lad
list en</w>
w ake</w>
sp ices</w>
buil der</w>
in si
app ly</w>
corpor ation</w>
cav al
mer cur
sup porters</w>
ce me
az z
pati ents</w>
lam borgh
bre ast</w>
soc i
ar i
touch down</w>
labra dor</w>
s ic
er ie</w>
star ry</w>
saur s</w>
quarter back</w>
pop corn</w>
w iring</w>
op er</w>
consi sted</w>
li on
gen u
sau sage</w>
e ge</w>
ex ist
f actor</w>
in come</w>
alber ta</w>
fact ors</w>
tick et</w>
rect angular</w>
chemi stry</w>
sp l
explo rer</w>
volunte er</w>
se ated</w>
mo ore</w>
exper t</w>
pon y</w>
surf ing</w>
walk way</w>
haw ks</w>
eliz abe
d its</w>
g li
ic ated</w>
h ad
lamborgh ini</w>
sex ual</w>
produ cing</w>
argent ina</w>
bu bbles</w>
h s</w>
suspen sion</w>
hu b</w>
over sized</w>
delic ate</w>
franch ise</w>
hawai ian</w>
ar mored</w>
ab led</w>
pan demic</w>
pro hib
achi eved</w>
af t</w>
instru ment</w>
ver si
enn ial</w>
mar k
mid night</w>
rhy th
er o</w>
dron e</w>
tou gh</w>
particip ate</w>
co ve</w>
act ly</w>
wat ched</w>
wel sh</w>
sig nal</w>
con feder
spect acular</w>
mo ther
heal ing</w>
pri x</w>
fic ally</w>
consi sting</w>
yu mmy</w>
lu sh</w>
k ol
li sting</w>
sp her
cli ent</w>
196 2</w>
ta p</w>
sym ph
requ ire</w>
air line</w>
2 1st</w>
ro lled</w>
sp ending</w>
op posed</w>
apoc aly
v on</w>
to tally</w>
en ni
res ol
st itu
fle ece</w>
voc al</w>
v able</w>
ren ce</w>
agu es</w>
slow ly</w>
bloo m</w>
collabor ation</w>
pe g</w>
part ner
cos met
mu gs</w>
gy mn
do s</w>
hu sky</w>
an sw
car rot</w>
t z
po sts</w>
lac es</w>
par rot</w>
s c</w>
j r</w>
ate au</w>
flow ing</w>
acqui red</w>
sl iced</w>
daugh ters</w>
ver ses</w>
h ms</w>
se es</w>
de mon</w>
big ger</w>
n one</w>
game play</w>
12 th</w>
or gan</w>
hen na</w>
mi dd
fl ames</w>
cor respon
d ged</w>
hu t</w>
sto wn</w>
pix el</w>
ex actly</w>
cosmet ics</w>
to s</w>
mb o</w>
der ness</w>
comp act</w>
peac ock</w>
star ring</w>
w au
in doors</w>
can e</w>
water melon</w>
regar ded</w>
th read</w>
pa w</w>
adv oc
sc h</w>
g ing
zomb ie</w>
ke l</w>
cru st</w>
tre ss</w>
refle cted</w>
s by</w>
sugge sts</w>
n az
produ ctions</w>
partici pants</w>
fe els</w>
tri m
or gans</w>
mo thers</w>
rel ations</w>
cur ve</w>
de gre
as king</w>
sk ating</w>
person alised</w>
win nie</w>
lin ks</w>
ar o</w>
kn oc
de als</w>
cou l
compe te</w>
end ers</w>
po ckets</w>
ex ist</w>
ke eps</w>
195 7</w>
m ing
illu sion</w>
att end
195 5</w>
stu dying</w>
hil ton</w>
s per
situ ated</w>
li sts</w>
4 9
hu ll</w>
b low</w>
cl er
ra m
sh rine</w>
fou ght</w>
ne ls</w>
par ent</w>
195 6</w>
car b</w>
ex pres
octo pus</w>
ad or</w>
ato p</w>
r ates</w>
ne i
paint er</w>
sneak er</w>
b lowing</w>
fish er
see m</w>
our ing</w>
cent er
free way</w>
citiz ens</w>
mercur y</w>
ad dic
jo ining</w>
phra se</w>
th a</w>
dra wer</w>
schedu le</w>
degre es</w>
ken ya</w>
f red</w>
ro be</w>
me lo
pl ated</w>
achi e
c ash
y n
wor ship</w>
el a</w>
art icles</w>
queens land</w>
tu m</w>
continu ous</w>
fal se</w>
jose ph</w>
di versity</w>
me ts</w>
goo se</w>
t ones</w>
min ster</w>
vie wer</w>
on ist</w>
pass age</w>
agricul tural</w>
w we</w>
sc an</w>
kun st</w>
bor ders</w>
certi fied</w>
arch ive</w>
manic ure</w>
na h</w>
cap s</w>
differ ences</w>
ou l</w>
bro wn
15 th</w>
b ills</w>
de on</w>
sh all</w>
no odles</w>
s man</w>
rou tes</w>
bl ed</w>
mix ture</w>
blue berry</w>
19 00</w>
im mig
dolph in</w>
iv y</w>
phan tom</w>
hu dson</w>
k on
victor ia</w>
4 x
sig ning</w>
viet nam
cylin der</w>
u pho
st acked</w>
hamp ton</w>
occu r</w>
ev ing</w>
li an</w>
qu er
de pu
war hammer</w>
19 14</w>
alo g</w>
engra ved</w>
conver tible</w>
alli ance</w>
be c</w>
tri be</w>
bloss o
pro motional</w>
ste ering</w>
viol ence</w>
stro ke</w>
program me</w>
broch ure</w>
o rous</w>
il o
le mon
sanct uary</w>
vietnam ese</w>
en de
ri x</w>
at t</w>
fe el
sail or</w>
s ort</w>
dri ves</w>
pro mo</w>
bl in
ge ek</w>
ash ed</w>
compon ents</w>
mon ast
edit orial</w>
o ma</w>
orch id</w>
ce l</w>
wid th</w>
ne west</w>
7 0s</w>
n inj
mar tial</w>
me at
ss o</w>
tran sit</w>
pre p</w>
recogn ition</w>
car dig
ne ath</w>
far ming</w>
ab il
ha v
treat y</w>
bungalo w</w>
survi v
dis ne
phar mac
aff air</w>
per th</w>
popular ity</w>
bu gs</w>
bac ter
le af
fl ights</w>
gu ine
acce ssi
caval ry</w>
con version</w>
c r</w>
col a</w>
straw berries</w>
bar rier</w>
cam bo
per sian</w>
curren cy</w>
9 00</w>
pi d</w>
lay ered</w>
bb q</w>
sty led</w>
195 9</w>
t m</w>
cha ins</w>
stan ley</w>
auro ra</w>
man ia</w>
gl en
comp ass</w>
ar cade</w>
t rench</w>
ste st</w>
sil ver
mac ro</w>
rang er</w>
investig ation</w>
an cing</w>
cre dits</w>
com pr
m ach</w>
w ig
mirro rs</w>
fun ctions</w>
g our
an na</w>
we ed</w>
cro w</w>
cze ch</w>
micro soft</w>
sur ve
ch un
meas uring</w>
s at</w>
he art
le aning</w>
argu ed</w>
explo sion</w>
gan g</w>
dav is</w>
li fted</w>
com pla
sh am
ge sture</w>
haun ted</w>
so le
au dit
l td</w>
so li
poe ms</w>
cap able</w>
et sy</w>
fin ed</w>
sil ent</w>
steph en</w>
braz ilian</w>
gentle man</w>
m c</w>
stand ards</w>
st im
crit ic</w>
con tour</w>
desig ning</w>
mak ers</w>
chick ens</w>
thro wing</w>
experi ences</w>
s ock</w>
fa stest</w>
arrange ments</w>
bas kets</w>
buddh ist</w>
ac o</w>
log an</w>
identi fy</w>
emplo yed</w>
ban g</w>
tig ers</w>
col i</w>
im possible</w>
tai wan</w>
ha ired</w>
p ounds</w>
v ol</w>
aw ak
port folio</w>
195 8</w>
ban ners</w>
att ending</w>
conne cting</w>
critic ized</w>
emplo yment</w>
a w</w>
l one</w>
sett lement</w>
chil i</w>
under neath</w>
floo ding</w>
rou tine</w>
tur re
do w
he m</w>
an ian</w>
ke to</w>
shab by</w>
en han
ceme tery</w>
p ent
kay ak</w>
ox y
e do</w>
en z
cu be</w>
gran ted</w>
relax ed</w>
releas es</w>
celebr ations</w>
aff airs</w>
trou ble</w>
ce o</w>
surpr ised</w>
le x</w>
land o</w>
ver n</w>
tic kets</w>
n ick
x l</w>
is her</w>
inst all</w>
davi dson</w>
flas h
ma ids</w>
196 1</w>
19 18</w>
writ es</w>
or ted</w>
lu min
ander son</w>
rapi d</w>
elev ation</w>
sau di</w>
trave ls</w>
ib ility</w>
speci fically</w>
tur b
s lu
dri ve
s add
fal con</w>
chal k
dang er</w>
n ag
ther ed</w>
o le
mo th</w>
bur ied</w>
re new
cy clo
har ve
an ium</w>
me l</w>
z ers</w>
loc ks</w>
ninj a</w>
side walk</w>
up dated</w>
tim eless</w>
dan ish</w>
separ ated</w>
po inted</w>
stron g
loco motive</w>
g m</w>
appropri ate</w>
showcas ing</w>
ho st
14 th</w>
guitar ist</w>
im pression</w>
mu ffins</w>
ste ve</w>
hair cut</w>
v at
ang ered</w>
w right</w>
cli ffs</w>
wis dom</w>
tul le</w>
2 3
ad jac
e uro</w>
sp el
flow ering</w>
jama ica</w>
p df</w>
b art
bu re
ol ds</w>
s as
la ke
se oul</w>
o e</w>
d j</w>
ski ing</w>
pra ir
b art</w>
feel ings</w>
d ame</w>
high lands</w>
wi zard</w>
loo m</w>
fav or</w>
challeng es</w>
l ang
over coat</w>
vesse ls</w>
pu dding</w>
adjac ent</w>
sc ape</w>
stor ms</w>
scre ening</w>
kilo metres</w>
lew is</w>
yar n</w>
other wise</w>
be lls</w>
commis sion
upho l
se ly</w>
wh ere
gen re</w>
re hear
orig ami</w>
se gment</w>
ca ster</w>
aw a</w>
andro id</w>
mad ison</w>
chalk board</w>
sle eved</w>
sub way</w>
suff ering</w>
coo per
1920 x
aspe cts</w>
gra m
pre ce
gu ards</w>
pol ka</w>
vill ages</w>
sav ed</w>
bris bane</w>
dis ci
sib ility</w>
1 10</w>
my self</w>
ent it
tr ig
ab sor
gl ory</w>
ja b</w>
ze bra</w>
absolu tely</w>
tact ical</w>
oc h</w>
gi ants</w>
engine ers</w>
rich mond</w>
or lando</w>
min ing</w>
famil i
y d</w>
genu ine</w>
matt ress</w>
ra s
bl u</w>
symp toms</w>
v c</w>
myster ious</w>
co s</w>
ol i</w>
adap ted</w>
alp ine</w>
clar k</w>
bio graphy</w>
hit ting</w>
concer ns</w>
fri es</w>
edi ble</w>
fil ter</w>
was n</w>
pal let</w>
194 8</w>
rapi dly</w>
on o</w>
o at
tri als</w>
ar c</w>
sha w</w>
ab c</w>
sk ate</w>
tr icks</w>
o ph
man ila</w>
n j</w>
p g</w>
legen dary</w>
tribun e</w>
pro ve</w>
aw are</w>
en chan
si ding</w>
box er</w>
tw ins</w>
do x</w>
tra ding</w>
reje cted</w>
re ven
sh allow</w>
fro sting</w>
inv ited</w>
wil derness</w>
9 0
hi de</w>
ta h</w>
wa x</w>
re inde
ac cents</w>
art an</w>
festi vals</w>
lou is
mul tic
assi stance</w>
des ire</w>
credit ed</w>
show case</w>
log ies</w>
patter ned</w>
recomm ended</w>
appli ances</w>
dino saurs</w>
n iger
tra ined</w>
soph ist
dr ill</w>
t is</w>
kno ws</w>
inten sity</w>
communic ations</w>
const ant</w>
compar ison</w>
ru b</w>
10 0
tan e
electric ity</w>
re fr
mar gar
hand bag</w>
en coun
c is</w>
conven i
me te
hu g</w>
t issue</w>
cal gary</w>
ad y</w>
spr ink
quil ting</w>
ch ill</w>
magaz ines</w>
high land</w>
ven dor</w>
195 3</w>
cour ses</w>
amph ibi
ap a</w>
ru gs</w>
snow fla
dor m</w>
att ire</w>
brief ly</w>
che er</w>
fo il</w>
bloo ming</w>
pract ices</w>
disne yland</w>
ac les</w>
char lie</w>
ci vic</w>
di al</w>
sap ph
revi val</w>
fra g
dist ur
tur bo</w>
r v</w>
r in
am bas
hu gging</w>
gr in
pou ch</w>
inter change</w>
camp er</w>
2 7
f lip</w>
hi red</w>
tex tures</w>
destru ction</w>
r ing
sof t
fe st</w>
on o
per u</w>
str o</w>
br icks</w>
ging er
kno ts</w>
sub stan
tun e</w>
il ation</w>
cre scent</w>
ill es</w>
ele ven</w>
byz antine</w>
e lo
vir tu
k ang
o asis</w>
fol ded</w>
le t
ser ver</w>
mat t</w>
archi ves</w>
po ly</w>
spor ting</w>
fin ance</w>
susp ended</w>
lag oon</w>
partner ship</w>
m art</w>
town ship</w>
capit ol</w>
lu ck</w>
discu ssion</w>
vac ations</w>
cra w
me tr
m in</w>
ho bbit</w>
temper atures</w>
ge on</w>
medi es</w>
oat meal</w>
exist ence</w>
an o
lun ar</w>
tur n
matt ers</w>
a ys</w>
in ate</w>
co smo
mill s</w>
chur ches</w>
cab ins</w>
samu rai</w>
ph eno
stu ck</w>
sp ag
he tti</w>
ta xi</w>
tra ditions</w>
dev ices</w>
tele phone</w>
c as</w>
inf o</w>
seas ide</w>
bu ses</w>
sche mes</w>
ginger bread</w>
alph a</w>
reinde er</w>
foli age</w>
critic ism</w>
rasp berry</w>
cam ou
t wit
ar k
bro c
exper iment</w>
mon te
chron icle</w>
an ne</w>
occur s</w>
se ctor</w>
di verse</w>
ambas sad
diag no
camou fl
3 50</w>
mor row</w>
194 6</w>
ch ry
te s
tr ick</w>
i k</w>
repu tation</w>
pol is</w>
sse x</w>
sub mitted</w>
spag hetti</w>
se dan</w>
fun ds</w>
mer ly</w>
recei ves</w>
home less</w>
hair style</w>
spo t
manufact uring</w>
r al
di vine</w>
ran k</w>
plat ter</w>
femin ine</w>
19 17</w>
fl ats</w>
wi re
gui ded</w>
att or
natur ally</w>
plant ation</w>
ta wa</w>
my th
ro ss</w>
descri be</w>
somer set</w>
for merly</w>
crow ds</w>
inse ct</w>
fi res</w>
magnific ent</w>
ed ges</w>
appoint ment</w>
co oper</w>
b ly</w>
arm our</w>
di ve</w>
conclu sion</w>
1 30</w>
adop table</w>
da e</w>
baham as</w>
pal eo</w>
195 4</w>
lo ading</w>
ton y</w>
guine a</w>
ab u</w>
ex hau
tele scope</w>
ad am</w>
discu ss</w>
an i</w>
vis its</w>
m igh
nove ls</w>
floo d</w>
s ak
ligh ter</w>
broc coli</w>
ma ur
photograph ers</w>
dynam ic</w>
ri m</w>
entit led</w>
le eds</w>
pu lling</w>
yo gur
2 6
ed mon
tab le
for tress</w>
west in</w>
requi res</w>
sc or
reco very</w>
sign age</w>
bar k</w>
art a</w>
j ar
vo d
exper ts</w>
incorpor ated</w>
vit am
p ouring</w>
fun dra
viol in</w>
suggest ions</w>
bean ie</w>
flo at</w>
bu la</w>
du chess</w>
mono gram</w>
survi ved</w>
pra ise</w>
yogur t</w>
hoo p</w>
ter ing</w>
char ges</w>
distin ct</w>
th ames</w>
an ne
alex and
cardig an</w>
jo e</w>
rel ative</w>
fire fighters</w>
que ens</w>
man ner</w>
m son</w>
exc av
turt les</w>
at tic</w>
colle ct</w>
happen ed</w>
ef a</w>
organis ms</w>
oak land</w>
squ ares</w>
lam b</w>
fine st</w>
pu g</w>
electron ics</w>
be ams</w>
gr atu
innov ative</w>
sam ples</w>
sh im
lo af</w>
imp le
cre ativity</w>
tem ples</w>
por tal</w>
comb ine</w>
we lls</w>
ate ver</w>
cryst als</w>
u efa</w>
wh atever</w>
ap est</w>
an as</w>
sou ven
batt les</w>
kenne dy</w>
je ff
as ingly</w>
bra ve</w>
deli ver</w>
is ation</w>
am ong
hy po
among st</w>
part ners</w>
st o</w>
bre w
impro vement</w>
back s</w>
nei ther</w>
inj uries</w>
gen e</w>
bath tub</w>
we ak</w>
shar ks</w>
represent ative</w>
rit z</w>
copy right</w>
scat tered</w>
do ctors</w>
innov ation</w>
pol ished</w>
mu s</w>
li ked</w>
bi ker</w>
seas onal</w>
ra ven</w>
c af
ut ility</w>
t amp
incre asingly</w>
regu larly</w>
depic ted</w>
stor s</w>
pe ar</w>
it ions</w>
ru p</w>
su spe
193 8</w>
knit ted</w>
11 th</w>
bear ded</w>
grocer y</w>
beauti fully</w>
al ley</w>
bang la
la c</w>
no tic
gra pes</w>
pu er
phys ics</w>
cla us</w>
penn sylvania</w>
corri dor</w>
mar i
tra iner</w>
langu ages</w>
well ington</w>
gla m</w>
om bre</w>
on ions</w>
contro ls</w>
b oul
pra gue</w>
compos er</w>
ass y</w>
pl ying</w>
dra g</w>
d é
condu ct</w>
w ag
pe tro
193 7</w>
pan ic</w>
193 6</w>
pe a</w>
op tical</w>
kit ty</w>
kit tens</w>
pl ed</w>
skate board</w>
trave lling</w>
trans lation</w>
ot tawa</w>
won ders</w>
depar ture</w>
ou ting</w>
gu ess</w>
mass age</w>
fre der
ro w
signific antly</w>
sk ill</w>
gu er
veter an</w>
ent ist</w>
frank lin</w>
bri an</w>
ortho dox</w>
happ en</w>
al an</w>
ver te
inten se</w>
sw ir
survi ving</w>
cre ws</w>
twit ter</w>
moroc co</w>
po dium</w>
194 7</w>
depic ts</w>
st ool</w>
eleph ants</w>
reven ge</w>
i est</w>
comple tion</w>
sci entist</w>
contro versi
j im
crimin al</w>
au ck
gra vel</w>
er son</w>
bas il</w>
professi on
prair ie</w>
ear liest</w>
fin land</w>
hol ders</w>
modu lar</w>
ba thing</w>
av o
night mare</w>
y o</w>
hol low</w>
trans ition</w>
volcan o</w>
emo tions</w>
bre ath
inclu sive</w>
panor amic</w>
e ter
tran sit
con gratu
pengu ins</w>
auck land</w>
m im
gy psy</w>
t u</w>
ar men
pan cakes</w>
hun gary</w>
pre hen
y e</w>
aqu a</w>
sele ctive</w>
c ited</w>
contain ers</w>
tu lip</w>
de leg
torpe do</w>
ff les</w>
yo da</w>
ear l</w>
pro pag
ru led</w>
baro que</w>
arre sted</w>
19 15</w>
s late</w>
mag no
no stal
ball room</w>
pean uts</w>
ass ist</w>
wol ves</w>
brigh ton</w>
monast ery</w>
dete ctive</w>
cat er
lab our</w>
car ey</w>
swe ets</w>
lo sses</w>
sk il
veter ans</w>
sp ell</w>
der by</w>
concer ned</w>
corn wall</w>
m als</w>
stra ps</w>
ingredi ent</w>
industri es</w>
peter sburg</w>
drive way</w>
mo ss</w>
ff ield</w>
shel ving</w>
ye ster
camer as</w>
e e
o hi
que bec</w>
di ves</w>
19 10</w>
accessi ble</w>
m ally</w>
x mas</w>
adap tation</w>
geo metry</w>
b end</w>
oxy gen</w>
so phy</w>
edit ing</w>
v ent</w>
crocod ile</w>
lo west</w>
nu mb
tal ent</w>
publ ishing</w>
w er
pur se</w>
mo da</w>
j ig
roun ded</w>
ru st</w>
te ens</w>
fa ster</w>
str anger</w>
bur st</w>
gre ens</w>
nor folk</w>
jo y
h ex
in er
ssi l</w>
er up
al arm</w>
char le
cour ts</w>
spin ach</w>
b n</w>
me tic</w>
hand les</w>
clear ly</w>
bre a
esc o</w>
el ed</w>
vi enna</w>
dress er</w>
miss ile</w>
ic ide</w>
fo ssil</w>
cti ves</w>
ra jas
mor gan</w>
plan ted</w>
cal f</w>
orig ins</w>
v ard</w>
expla in</w>
pre serve</w>
attr actions</w>
must ard</w>
is ers</w>
hal i
app ed</w>
neigh b
eff icient</w>
shoul ders</w>
dis co</w>
anti ques</w>
enter prise</w>
flam ingo</w>
o ro
bu g
bon us</w>
resc u
prepar es</w>
so da</w>
sm ash</w>
sto rey</w>
indic ated</w>
opportun ities</w>
occas ions</w>
rect angle</w>
cool er</w>
u kra
pa y
gra mmy</w>
mat ically</w>
portu gu
thumb nail</w>
philo sophy</w>
sequ ences</w>
flow s</w>
compu ters</w>
pa per
hun garian</w>
ste ep</w>
bon sai</w>
to morrow</w>
pic king</w>
por ted</w>
je di</w>
ca a</w>
black board</w>
accep t</w>
cyber punk</w>
por tions</w>
gi b
ic h
colle ctive</w>
childre ns</w>
pione er</w>
e cli
i ff</w>
dest roy</w>
ar en</w>
indi ans</w>
tor to
advertis ement</w>
y mouth</w>
an ic</w>
ro ast</w>
hun g</w>
rang ers</w>
di visions</w>
represent atives</w>
sta yed</w>
h ate</w>
at ly</w>
migh ty</w>
chi hu
exter nal</w>
ne pal</w>
si ege</w>
hol land</w>
si ber
ad ams</w>
el der</w>
fa x</w>
portugu ese</w>
scrat ch</w>
nat i</w>
circu m
symph ony</w>
or b
sc o</w>
nor mally</w>
bar be
tex tiles</w>
th or</w>
moo se</w>
pedestri an</w>
el ine</w>
poly g
puer to</w>
mo ck
com pl
pan ama</w>
accom pl
cad il
ac a</w>
cu cu
suit case</w>
ach ment</w>
quil ts</w>
el i</w>
com plic
pre view</w>
hi ding</w>
19 16</w>
to pic</w>
bel gian</w>
pheno men
sy rup</w>
indig en
elizabe th</w>
dwar f</w>
c ry</w>
char ter</w>
distin ctive</w>
1 200</w>
graph ical</w>
pat ing</w>
sco res</w>
pos se
pil gri
tau ght</w>
estab lish</w>
ukra ine</w>
do ve</w>
water colour</w>
co on</w>
tu x
dec line</w>
00 x
provin cial</w>
g ent</w>
ric a</w>
ab un
cas a</w>
mam mals</w>
i g</w>
t z</w>
cu e</w>
pre served</w>
em br
th ri
u k
ent ers</w>
195 2</w>
aer o
lu gg
st ics</w>
co ffin</w>
pur poses</w>
car av
tu lips</w>
cul tiv
gar bage</w>
indigen ous</w>
cent ers</w>
es is</w>
geo graphic</w>
read er</w>
wash ed</w>
att itude</w>
respon sibility</w>
de aths</w>
imag ine</w>
renov ated</w>
mil ky</w>
ab er
campa ig
am bi
ba h
bru ce</w>
camoufl age</w>
ra mp</w>
wra pping</w>
lugg age</w>
en em
threat ened</w>
tr un
ur s</w>
common wealth</w>
n inth</w>
su shi</w>
par tially</w>
ra dar</w>
west minster</w>
liz ard</w>
depu ty</w>
wil low</w>
ra mad
sta in</w>
fit ting</w>
gad gets</w>
coul dn</w>
dais y</w>
classi fication</w>
lu m
loc ked</w>
re medies</w>
end angered</w>
tar ot</w>
od y
whis ky</w>
integr ated</w>
sapph ire</w>
gre etings</w>
ju ras
common s</w>
juras sic</w>
ie ties</w>
cre ations</w>
min er
j ay</w>
ev alu
s ist</w>
the astern</w>
ko i</w>
cou pe</w>
deplo yed</w>
n i</w>
mo vements</w>
respon ded</w>
wor thy</w>
pu zz
a z</w>
du cks</w>
plan ner</w>
search ing</w>
vod ka</w>
transm is
m ack
7 5
un t</w>
sh rubs</w>
cas ual
yester day</w>
h agen</w>
po et</w>
arch y</w>
hun g
yl on</w>
j on
auth ors</w>
re gency</w>
par am
mechan ic</w>
she ffield</w>
re x</w>
n d
th under</w>
v ast</w>
ker ala</w>
beng al</w>
al lies</w>
to x
c é</w>
da i</w>
tac o</w>
classi fied</w>
ohi o</w>
studi ed</w>
continu ing</w>
hung ry</w>
clu ster</w>
boo st</w>
cin cin
mun ich</w>
geor gia</w>
fis her</w>
hel mets</w>
zi pper</w>
arab ia</w>
exc iting</w>
casual ties</w>
cat ering</w>
chihu a
nel son</w>
ton ight</w>
al er
sare es</w>
gra ve</w>
demon stration</w>
k ata</w>
for bi
ben jam
teen ager</w>
cigare tte</w>
ge m
see king</w>
rat ings</w>
fun ding</w>
sophist icated</w>
p i</w>
hor ns</w>
ob vi
process ing</w>
pre st
lil ac</w>
sub stitu
conserv ative</w>
pi a</w>
minim um</w>
magno lia</w>
squ ash</w>
me ss</w>
cam o</w>
revolu tionary</w>
new castle</w>
eleg ance</w>
hipp ie</w>
gall eries</w>
marri ott</w>
16 0</w>
co ca</w>
ma z
certi fic
dolph ins</w>
gor don</w>
spe ed
be lla</w>
che cking</w>
enem ies</w>
a pers</w>
pe ppers</w>
commun ist</w>
tamp a</w>
or ium</w>
hy dr
p ins</w>
on ym
fash ioned</w>
lin ked</w>
cincin nati</w>
buil ders</w>
re pairs</w>
wh il
do g
trin ity</w>
dun es</w>
ar rows</w>
z z</w>
fran cis</w>
up loaded</w>
sequ el</w>
cle ver</w>
el lation</w>
cit y
qu ant
pen cils</w>
invol ving</w>
lay ed</w>
con vo
plac ement</w>
194 9</w>
whil st</w>
b ach</w>
di vor
resour ce</w>
refr iger
tra p</w>
cap su
der man</w>
mar it
equi valent</w>
expla ins</w>
descri bing</w>
pig s</w>
ther mal</w>
pi pes</w>
stru ggle</w>
at us</w>
elect ions</w>
fortun e</w>
land ed</w>
ser iously</w>
to pics</w>
re production</w>
cambo dia</w>
k l
moder n
envelo pe</w>
cor ve
battle ship</w>
in ning</w>
be aring</w>
cu bs</w>
auto motive</w>
bou lev
inter cep
boulev ard</w>
par as
go ssi
ter ies</w>
lanter ns</w>
sten cil</w>
pan ther</w>
wh ist
ra f</w>
19 19</w>
ag ents</w>
wel ding</w>
h r</w>
lo b
trans formed</w>
195 1</w>
arab ian</w>
7 6
ro s</w>
en cies</w>
lan es</w>
pige on</w>
st all</w>
t uring</w>
gra ms</w>
de sc
ob tained</w>
ne bula</w>
2 2
speak ers</w>
organiz ations</w>
crack er</w>
benjam in</w>
myth ical</w>
trans form</w>
co ws</w>
gro ws</w>
sp an</w>
research ers</w>
inten si
too th
im mun
confi dence</w>
foun d
k ick
ro b
ban k
pen alty</w>
j ars</w>
astrono my</w>
ne o</w>
comm ents</w>
ax is</w>
vent ure</w>
ri pe</w>
19 29</w>
roc king</w>
ro wing</w>
den se</w>
dire ctions</w>
maje stic</w>
ne ll</w>
tam il</w>
walk through</w>
bri des</w>
attor ney</w>
ty pho
sto mach</w>
circul ation</w>
un esco</w>
ho ward</w>
destroy er</w>
50 th</w>
un ity</w>
su stained</w>
av a</w>
her o
193 5</w>
m ck
ack now
par ish</w>
phy si
triu mph</w>
gymn ast
famili ar</w>
p ated</w>
mo d</w>
h art
read ers</w>
vers y</w>
contro versy</w>
gradu ally</w>
per su
au x</w>
gen esis</w>
merch and
att i</w>
war ming</w>
tab ly</w>
ef s</w>
hot test</w>
wi i</w>
th igh</w>
do odles</w>
dis aster</w>
tes la</w>
com mu
andre w</w>
her b</w>
can s</w>
inf ant</w>
ion ally</w>
int y</w>
tra ilers</w>
d at
skil let</w>
const ellation</w>
ther mo
d h
mar king</w>
res in</w>
ns w</w>
or nate</w>
edmon ton</w>
th ick
run ners</w>
ku ala</w>
ill ness</w>
narr ative</w>
int imate</w>
pit er</w>
sett led</w>
l ished</w>
deci de</w>
neck laces</w>
v ous</w>
indi an
com prehen
tw ood</w>
b ility</w>
pl er</w>
tr on</w>
afgh an
se ek</w>
car rots</w>
stri ps</w>
pil ots</w>
qu is
bangla desh</w>
enter taining</w>
eye bro
afghan istan</w>
194 0s</w>
4 5
an th
se min
whi pped</w>
ren amed</w>
trou t</w>
ambassad or</w>
hol m</w>
mur ray</w>
v re</w>
commit ted</w>
for ti
suff icient</w>
r acks</w>
colle cting</w>
sp ur</w>
osc ar</w>
emph as
requi rements</w>
pleas ant</w>
represent ation</w>
co l</w>
prison ers</w>
4 8
mo squ
bu mper</w>
har a</w>
mo tors</w>
du o</w>
depen ding</w>
z el</w>
je wel</w>
bas es</w>
f ate</w>
ra v
comp ound</w>
ho u</w>
ve il</w>
hal f
ak er</w>
et ary</w>
ner d</w>
affe ct</w>
e o
ban quet</w>
b are</w>
pe as</w>
ho bb
hand ed</w>
appro ached</w>
mor al</w>
feder ation</w>
explor ation</w>
do zen</w>
she er</w>
applic ations</w>
fil m
ade la
cool ing</w>
reserv o
spe cul
re modeling</w>
ma ya</w>
sim on</w>
la ys</w>
ang ler</w>
dec lined</w>
chihua hua</w>
si ded</w>
vers at
green ery</w>
sett ings</w>
kr ish
re mark
sto ps</w>
com b</w>
do or
dro me</w>
indic ate</w>
onym ous</w>
s ag
par o
x on</w>
bi d</w>
fin ale</w>
ford shire</w>
c al</w>
f 1</w>
fr inge</w>
po ps</w>
nor man</w>
tt on</w>
essenti als</w>
pu mps</w>
ma ze</w>
flav ors</w>
adela ide</w>
f ails</w>
mon keys</w>
bul le
n caa</w>
be ats</w>
stri kes</w>
3 6
br ack
15 00</w>
cho ices</w>
ru sty</w>
ju piter</w>
mor ris</w>
plan k</w>
up grade</w>
e la
ro ber
med als</w>
boar d
be gun</w>
par achu
spect rum</w>
or bit</w>
story line</w>
no ble</w>
plan ter</w>
pro ps</w>
beli eves</w>
ri g</w>
soft ball</w>
mal ta</w>
estim ate</w>
don ated</w>
bu lls</w>
su ssex</w>
cair o</w>
distingu ished</w>
no ise</w>
cab bage</w>
popu lations</w>
oper ate</w>
fire fighter</w>
pa ths</w>
pre ssing</w>
asse mbled</w>
pu shing</w>
spark ling</w>
appar ently</w>
blosso ms</w>
s ni
an x
glam orous</w>
gossi p</w>
jo ke</w>
ap ron</w>
expe ct</w>
k or
me tre</w>
preci ous</w>
b red</w>
sp y</w>
pe pper
c aves</w>
f ast
wit ne
geo graphy</w>
acade mia</w>
moti f</w>
h p</w>
pro fit</w>
graph er</w>
mill enni
ch ile</w>
ant ici
pri est</w>
high light</w>
sen ator</w>
en cing</w>
sand wic
hoo ded</w>
sno opy</w>
portra yed</w>
ch at
inter se
vi vi
4x 4</w>
s aga</w>
a il</w>
w art</w>
never theless</w>
re claimed</w>
c l</w>
tal lest</w>
harmon y</w>
valu able</w>
k on</w>
sci ences</w>
exp o</w>
pump kins</w>
au l
accur ate</w>
bra ided</w>
ger mans</w>
craf tsman</w>
ash es</w>
am id</w>
wal ter</w>
an n</w>
e u</w>
par ka</w>
athle tics</w>
oklaho man</w>
s our</w>
tr ic
du sk</w>
sur rey</w>
transmis sion</w>
du ties</w>
en ham</w>
re tained</w>
ro bin
sta ying</w>
o i</w>
unve iled</w>
ir is</w>
net t</w>
ul a</w>
dru gs</w>
indian apolis</w>
ho bby</w>
journ alist</w>
i op
th ly</w>
bio logy</w>
establ ishment</w>
l ig
a bu
re cycling</w>
gene tic</w>
pi ke</w>
cer tain
f ed</w>
refle ct</w>
b ach
ran ts</w>
fil ip
der ived</w>
well ness</w>
tux edo</w>
la sted</w>
e labor
ph is</w>
wau kee</w>
as ide</w>
per mission</w>
ho e</w>
s q</w>
tru mp</w>
audi o
4 k</w>
i ro
at las</w>
conven tional</w>
possib ility</w>
gour met</w>
sen sit
plu m</w>
sp rou
as su
193 2</w>
sn akes</w>
pla ins</w>
l on</w>
co pen
see med</w>
se g
war fare</w>
attri buted</w>
18 0</w>
peace ful</w>
new port</w>
effe ctively</w>
wire less</w>
tri bes</w>
concer n</w>
similar ly</w>
v ases</w>
wi res</w>
do wns</w>
need le</w>
philo soph
le f
tra iners</w>
p ill
streng th
em brac
am ar
pred ator</w>
cris p</w>
e ats</w>
t als</w>
plac ing</w>
wh el
vo tes</w>
bun dle</w>
k entu
ad ditionally</w>
eth iop
an k
st or</w>
her ald</w>
roman ia</w>
thro ws</w>
bre w</w>
r c</w>
co sm
ma x
go tten</w>
o y</w>
ro ver</w>
present ing</w>
v as
am end
fo x
shak e
w ander
to pper</w>
elect ro
care fully</w>
rat io</w>
wh im
n ine
print able</w>
re aches</w>
roo ster</w>
mp y</w>
moder ate</w>
mbl ing</w>
p o</w>
radi o
claim ing</w>
y man</w>
pu ff</w>
dev on</w>
la sting</w>
mar tin
cli ents</w>
fif ty</w>
no tre</w>
don key</w>
moroc can</w>
voy age</w>
ro s
gra vity</w>
bud apest</w>
gu m</w>
d ness</w>
par ker</w>
l ty</w>
distribu ted</w>
b li
lo ads</w>
bir ch</w>
lum pur</w>
scre ens</w>
residen ces</w>
copen hagen</w>
ser en
corve tte</w>
wal ked</w>
cho ir</w>
sh ut</w>
metr ical</w>
wh ales</w>
m n</w>
mon arch</w>
compe ting</w>
dead ly</w>
p ace</w>
fo ss
medi an</w>
stret ched</w>
so red</w>
bul gar
doub t</w>
har vard</w>
ag as
incredi bles</w>
jump suit</w>
mand al
ra p</w>
je an</w>
geor gian</w>
se ls</w>
ex act</w>
bug atti</w>
in kle</w>
cat cher</w>
i den</w>
fri dge</w>
193 3</w>
austri an</w>
on cé</w>
manu script</w>
re sume</w>
cush ions</w>
bu d</w>
tit ude</w>
m ation</w>
er ra</w>
ad ju
ce il
po ppy</w>
lim its</w>
real ism</w>
orch ard</w>
k icks</w>
cor k</w>
re mn
si e</w>
pe aks</w>
li ve
d il
e a</w>
disci pl
w u
li ver</w>
pa stry</w>
cru isers</w>
appro aching</w>
health care</w>
mem phis</w>
bi bl
inde x</w>
he l</w>
strateg ic</w>
pre historic</w>
spon ge</w>
chor us</w>
excep tional</w>
inter face</w>
remo ving</w>
be spoke</w>
bo ws</w>
fab rics</w>
controversi al</w>
an thro
pa ints</w>
ty pe
organis ation</w>
ph ic</w>
st ur
mon thly</w>
den sity</w>
bulle tin</w>
u pr
en su
apocaly pse</w>
ra bb
accoun ts</w>
promis ed</w>
in n
le on
mad agas
st le</w>
over view</w>
plu g</w>
introdu cing</w>
e bo</w>
e cle
gymnast ics</w>
bibl ical</w>
i di
k ite</w>
kar a</w>
pal ms</w>
let tu
lo an</w>
im eter</w>
jig saw</w>
attr acted</w>
imag ination</w>
bar re
sadd le</w>
re covered</w>
si onal</w>
dis playing</w>
speci al
trans formation</w>
so x</w>
typho on</w>
sur round</w>
cro ps</w>
techno logies</w>
after math</w>
bey oncé</w>
for cement</w>
pe i</w>
all er
speci alist</w>
fair y
aff ili
tu rer</w>
be ad</w>
fo ster</w>
work place</w>
h ag
ye ar
cel er
merch ant</w>
ar ray</w>
mil waukee</w>
to m
st ir</w>
de vo
lou d</w>
c or</w>
back packs</w>
st el
princi ples</w>
boun dary</w>
un cle</w>
concer ts</w>
tak e
slo pes</w>
guil d</w>
resi stant</w>
g ig
in je
sp ra
gen eva</w>
indi es</w>
sle ek</w>
shoo ts</w>
s mi
ta sting</w>
sequ in</w>
after wards</w>
te ars</w>
tho mp
fle w</w>
filip ino</w>
pra ying</w>
att acking</w>
upgra ded</w>
for th</w>
yel low
manufac turer</w>
krish na</w>
la h</w>
glu e</w>
eff ici
home coming</w>
bure au</w>
ri val</w>
vi sta</w>
pro p</w>
pro spe
cos metic</w>
liber al</w>
at er
sh er</w>
di aries</w>
sp are</w>
p vc</w>
a is</w>
consi dering</w>
fas cin
h ay</w>
w ad
him al
hon our</w>
ira q</w>
ish i</w>
fore arm</w>
dist ant</w>
honey moon</w>
tri angles</w>
wide spread</w>
bo lt</w>
193 1</w>
occas ionally</w>
c run
ru sse
can non</w>
hand written</w>
tu bes</w>
ornam ental</w>
succe eded</w>
lettu ce</w>
bi an</w>
any where</w>
nas car</w>
manufac tured</w>
boo m</w>
c il
asse ss
dre ad
ak e
fe males</w>
mo re
cow boys</w>
fun eral</w>
ic o</w>
re fre
sug gest</w>
i ana</w>
se same</w>
pl ymouth</w>
sil ence</w>
gla ze</w>
tim ber
10 80</w>
robin son</w>
in der</w>
kentu cky</w>
ch ers</w>
la zy</w>
water ing</w>
defen der</w>
i pur</w>
de o</w>
19 28</w>
emer ged</w>
per ed</w>
domin ated</w>
b ent
ac celer
experim ental</w>
spi derman</w>
wa its</w>
robo ts</w>
mor tal</w>
fl ick
pre ferred</w>
b u</w>
charle ston</w>
su b</w>
part icles</w>
my an
clu tch</w>
class ics</w>
ce ster</w>
mat s</w>
set ts</w>
sc roll</w>
se mi
19 12</w>
cover age</w>
mon go
certain ly</w>
od d</w>
hang s</w>
millenni um</w>
ad mitted</w>
pu shed</w>
thomp son</w>
bat ting</w>
in fra
sub tle</w>
h is
psy che
kol kata</w>
sku lls</w>
immedi ate</w>
aggre ssive</w>
un less</w>
forbi dden</w>
ra pper</w>
fl are</w>
o bl
su icide</w>
mer ged</w>
p is
accommo dation</w>
sum mary</w>
h art</w>
organ ised</w>
slo th</w>
tack le</w>
minne apolis</w>
myan mar</w>
t all
administr ative</w>
se ash
request ed</w>
compan ion</w>
rac e
commer ce</w>
in ery</w>
some what</w>
ad mir
re sso</w>
we aving</w>
ge e</w>
happ ens</w>
bever age</w>
a im</w>
gu s</w>
puzz les</w>
fur ious</w>
mass achu
ri ed</w>
ado be</w>
fix tures</w>
ru ler</w>
shake spe
k yo
mess enger</w>
s ings</w>
bit es</w>
kh an</w>
fen der</w>
by r
accu sed</w>
ber n
har dy</w>
repor tedly</w>
drum mer</w>
v ary</w>
as ks</w>
ceil ings</w>
e li
o mega</w>
on i</w>
w w
rep tiles</w>
cur ious</w>
regi stered</w>
le h
re called</w>
confe tti</w>
massachu setts</w>
nor dic</w>
har ris</w>
ri vi
ne ts</w>
tor n
se ctional</w>
weak ened</w>
absolu te</w>
ki d
madagas car</w>
b av
k az
m bles</w>
con vic
cit rus</w>
w y</w>
dis abled</w>
def end</w>
pa ste</w>
cor ners</w>
secu red</w>
f ies</w>
tol er
g no
bas ics</w>
at o</w>
gla zed</w>
re form</w>
form ations</w>
d ak
he ating</w>
nomin ation</w>
as ser
brew ery</w>
en se
gra ham</w>
her d</w>
diffic ulty</w>
sur fer</w>
influ ential</w>
o ct
ro lex</w>
per sons</w>
dis si
flo yd</w>
plant ers</w>
ta way</w>
gar land</w>
fr act
oper ational</w>
d t</w>
beat en</w>
19 27</w>
ast on</w>
st air</w>
par tial</w>
bar ber</w>
ve lt</w>
rema inder</w>
nap ole
el se
sc iss
marit ime</w>
co b
wor m</w>
char ger</w>
carl ton</w>
3 7
co ated</w>
di abe
min eral</w>
mi ds</w>
vine yard</w>
air bus</w>
im pressed</w>
elev ated</w>
hamp shire</w>
au tism</w>
char ging</w>
n bc</w>
su d
ch in</w>
pl ing</w>
ston e
u als</w>
w ight</w>
pe st</w>
conne ctions</w>
coron a</w>
h u</w>
ino is</w>
il legal</w>
dan iel</w>
cris py</w>
s wal
roo se
9 11</w>
w im
bee tle</w>
over night</w>
stru ctural</w>
nu cle
dra ws</w>
vic tim
deli vers</w>
replac ing</w>
philipp ine</w>
per cent
consider able</w>
in al</w>
sk a</w>
law yer</w>
ecle ctic</w>
star bucks</w>
lim estone</w>
ar n
proto type</w>
fi g</w>
wre ck</w>
cul tures</w>
law rence</w>
encoura ged</w>
cer am
high lighted</w>
river side</w>
ch at</w>
po ds</w>
u a</w>
pleas ure</w>
inter state</w>
wal i</w>
star red</w>
th y
d ad
every where</w>
cran berry</w>
is an</w>
spar kle</w>
ex tend</w>
compon ent</w>
ecli pse</w>
ba st
marsh all</w>
sli des</w>
simp son</w>
193 4</w>
expe ct
bur ns</w>
mo to</w>
dor a</w>
ur ers</w>
b d</w>
f o</w>
playo ff</w>
en amel</w>
pic ks</w>
hav ana</w>
strong ly</w>
ju n</w>
floo ded</w>
su zu
n an</w>
po ker</w>
ent re
fun ni
con fron
aro o</w>
aspe ct</w>
er ia</w>
sl o</w>
i do
ev en
ac es</w>
re fers</w>
sho re
suppor ts</w>
sens ory</w>
advertis ements</w>
19 13</w>
mag ni
se w</w>
log ic</w>
rhyth m</w>
din er</w>
roose velt</w>
panor ama</w>
bra ke</w>
gat sby</w>
g ay</w>
l le
po is
na i</w>
cu ban</w>
spo o
cock pit</w>
grand father</w>
can ter
cere al</w>
coun ting</w>
territ ories</w>
ter rac
appe ti
dimen sional</w>
program ming</w>
bacter ia</w>
labe led</w>
mic key</w>
sandwic hes</w>
cru sh</w>
sse y</w>
g lor
to p
sol ve</w>
st ir
de lic</w>
ven ess</w>
mc car
vene tian</w>
buck le</w>
c ch
go ats</w>
sc ious</w>
est a</w>
city scape</w>
audio book</w>
mic hel
cardi ff</w>
no odle</w>
sum mer
carav an</w>
thro wn</w>
e v</w>
dest iny</w>
on y
pla que</w>
sc ales</w>
r arely</w>
satur n</w>
ff er</w>
citiz en</w>
can oe</w>
sup posed</w>
hoo ks</w>
psyche delic</w>
pri mit
bor o</w>
rajas than</w>
l ings</w>
cho pped</w>
trave ler</w>
con fused</w>
compl im
incre ases</w>
appro val</w>
rang oli</w>
ver sus</w>
f in</w>
fe ver</w>
fir ing</w>
reservo ir</w>
do ct
termin us</w>
pu ma</w>
ro t
co aches</w>
3 9
histor ians</w>
ans as</w>
else where</w>
s lot</w>
re be
perio ds</w>
den ied</w>
u ally</w>
ge ars</w>
contin ent</w>
begin ner</w>
d as</w>
wick er</w>
sen ding</w>
2 5th</w>
19 26</w>
tri o</w>
ar k</w>
roun ds</w>
audit orium</w>
stron ger</w>
t ill</w>
de scen
ramad an</w>
ho mo
air borne</w>
ro ds</w>
do d
de layed</w>
nu t
dire ctors</w>
pyra mids</w>
pat ent</w>
est ates</w>
west ward</w>
te x</w>
lock down</w>
no ting</w>
v u
lor ds</w>
em my</w>
car ter</w>
ab road</w>
o ta</w>
over whel
mel ting</w>
mother board</w>
an ge
ag ers</w>
g love</w>
mu m</w>
gre atly</w>
in her
com posite</w>
don t</w>
sher iff</w>
candi dates</w>
alter ed</w>
repe ated</w>
cap tion</w>
monu ments</w>
ali ens</w>
ear ring</w>
e po
sur real</w>
attemp ting</w>
wonder land</w>
marsh mal
c ca</w>
al am
ju ven
dra w
mar yland</w>
gaz ebo</w>
esp resso</w>
star ter</w>
russe ll</w>
ab s
extra ordinary</w>
gate way</w>
con text</w>
back ed</w>
victim s</w>
f ry</w>
comple ting</w>
tech nic
extin ct</w>
4 7
de ll</w>
proper ly</w>
ever green</w>
patri otic</w>
si erra</w>
equ ation</w>
e den</w>
flex ible</w>
ca b</w>
interpre tation</w>
ham mock</w>
comb o</w>
m ite</w>
con dition
d ley</w>
g ic</w>
den cy</w>
influ ences</w>
pand ora</w>
is lam</w>
measu red</w>
center piece</w>
customi zed</w>
w rought</w>
di wali</w>
lis bon</w>
p u</w>
co a</w>
gro up
di alogue</w>
ran king</w>
beli ef</w>
1 25</w>
gra pe</w>
amp ton</w>
interest s</w>
scra p</w>
clean er</w>
brus sels</w>
a ha</w>
y n</w>
mic ro</w>
f action</w>
po lar
for cing</w>
all ion</w>
il it
u te</w>
nor se</w>
appro aches</w>
land fall</w>
twi sted</w>
cha os</w>
playo ffs</w>
se ga</w>
a g</w>
th ie
str ings</w>
per si
fac ulty</w>
vege tation</w>
sc al
sou ls</w>
my th</w>
your s</w>
s ant
pi st
strateg ies</w>
ox ide</w>
ign ment</w>
archae ological</w>
19 11</w>
ta j</w>
co aching</w>
as ph
flag ship</w>
1 40</w>
w illing</w>
am en
do ver</w>
ser ge
mul der</w>
domin ant</w>
visit or</w>
trave led</w>
lad y
drag on
qu ad
canter bury</w>
le an</w>
o graphy</w>
tr actors</w>
screen shots</w>
sme ll</w>
bb ing</w>
frequ ency</w>
barbe cue</w>
ch and
recei ver</w>
ni k</w>
cu b</w>
qu in</w>
clas h</w>
flo ck</w>
abs ence</w>
w avy</w>
in ver
acknow le
g len</w>
mar sh</w>
fairy tale</w>
for ty</w>
jan e
bree ze</w>
collecti ble</w>
ge m</w>
dec ks</w>
fiel der</w>
main land</w>
attr act</w>
licen se</w>
car p
se i
ll is</w>
ach i</w>
certific ate</w>
fi er</w>
men swear</w>
spon sored</w>
re gre
bo t</w>
ru ffle</w>
christ ian
competit ive</w>
miner als</w>
subje cts</w>
si bil
experim ents</w>
kim ono</w>
quir ky</w>
tim e
ceram ics</w>
s ler</w>
en h
person a</w>
confi dent</w>
po les</w>
19 25</w>
cau li
fron tier</w>
achie vement</w>
ho pes</w>
po t
enchan ted</w>
n ick</w>
as sumed</w>
fe ast</w>
fav ors</w>
web sites</w>
ste wart</w>
vis ual
oper ator</w>
diag rams</w>
pla ster</w>
pr inter</w>
cater pillar</w>
infra structure</w>
con es</w>
rivi era</w>
je wels</w>
th i
v ines</w>
du mp</w>
execu ted</w>
re bell
end less</w>
p ens</w>
sm alle
sla ve</w>
exp and</w>
min d
alcoho lic</w>
me etings</w>
f ist</w>
the ore
eng age</w>
spring field</w>
refre shing</w>
t art</w>
qui z</w>
arm chair</w>
funni est</w>
man tle</w>
bil ly</w>
logi sts</w>
sibil ities</w>
fun ky</w>
es y</w>
chun ky</w>
is les</w>
int ric
pro tag
sa iled</w>
gen ius</w>
inn oc
fun dam
repor ter</w>
inde ed</w>
mn i</w>
de vi
v ag
wit cher</w>
pet als</w>
gre y
un fortun
sto len</w>
mat rix</w>
part ly</w>
siber ian</w>
bul k</w>
rebell ion</w>
smalle st</w>
u x</w>
up side</w>
sch u
newsp apers</w>
det ached</w>
é e</w>
am bul
eco logy</w>
munici pal</w>
ag ara</w>
stu mp</w>
pro pel
f ights</w>
er ina</w>
bas il
discu ssed</w>
wic kets</w>
kang aroo</w>
ro e</w>
bur berry</w>
consist ent</w>
fr ig
quali fied</w>
sav an
di ver
spon ge
ham mer
nap kin</w>
chron icles</w>
edit ed</w>
se ller</w>
patri ots</w>
pre de
over seas</w>
cab les</w>
co aster</w>
19 21</w>
o aks</w>
bomb ar
infe ction</w>
ro ger</w>
conne cts</w>
by e</w>
cauli flower</w>
do w</w>
munici pal
indic ates</w>
j on</w>
cosm ic</w>
reg im
numb ered</w>
w oul
al ex</w>
todd lers</w>
parachu te</w>
in age</w>
ju li
prede cess
re ta
asph alt</w>
spor t
ral ph</w>
phili p</w>
out put</w>
it ive</w>
ato ms</w>
remo vable</w>
x y</w>
app er</w>
observ ation</w>
oce ans</w>
eng a</w>
in flat
st ical</w>
ste am
colle agues</w>
bar bar
grand mother</w>
commer ci
bloc k
loc als</w>
enh ance</w>
re construction</w>
cu ff</w>
back ing</w>
cl inton</w>
croat ian</w>
sponge bob</w>
woul dn</w>
af raid</w>
mini atures</w>
refle cting</w>
o slo</w>
subur ban</w>
z hou</w>
rang es</w>
frequ ent</w>
ga e</w>
vat ican</w>
con gre
car ic
hy un
primit ive</w>
re cep
pen ny</w>
pat ches</w>
ut c</w>
lob ster</w>
wal mart</w>
entre pre
savan nah</w>
water falls</w>
ay an</w>
hyun dai</w>
4 6
scho lars</w>
ven us</w>
spoo ky</w>
gro ss</w>
shakespe are</w>
stre et
quart z</w>
he ated</w>
impres sion
ap ps</w>
19 22</w>
attri bu
ra d</w>
tor n</w>
ex ception</w>
evol ved</w>
s bury</w>
con qu
mal dives</w>
cadil lac</w>
con sum
hydro gen</w>
ack er</w>
form ally</w>
lo ch</w>
tou ching</w>
brid ge
pp e</w>
wra ps</w>
g el
g aga</w>
qu ets</w>
gau ge</w>
hin di</w>
m ics</w>
goal keeper</w>
show ers</w>
p our</w>
coun ts</w>
produ ces</w>
do o</w>
arti facts</w>
mand atory</w>
gener ations</w>
versat ile</w>
dan del
al as
de le
wa it
sh av
space craft</w>
pix ie</w>
te ar</w>
pol ic
sail ors</w>
so lo
chee tah</w>
us b</w>
fresh water</w>
navig ation</w>
fresh ly</w>
al ban
cardin al</w>
un expected</w>
de ar</w>
musc ular</w>
en counter</w>
o tta</w>
inv ent
che cks</w>
are st</w>
ag ree</w>
invol vement</w>
skyscra per</w>
pe el</w>
d ach
assi sted</w>
met als</w>
bur ned</w>
radi ation</w>
torto ise</w>
lit ion</w>
dee med</w>
sc outs</w>
hun ger</w>
en cyclo
den o
nove lty</w>
simul tane
volcan ic</w>
vari ations</w>
rescu ed</w>
lo o</w>
spe ars</w>
re ll</w>
d in</w>
clear ance</w>
cru ci
flu id</w>
9 25</w>
dandel ion</w>
wa yne</w>
jane iro</w>
a ve</w>
at on</w>
co ck</w>
stock holm</w>
refle ctions</w>
appar ent</w>
convo y</w>
g b</w>
vi i</w>
tou ches</w>
hol ly</w>
colum bus</w>
spin ning</w>
capsu le</w>
s ack</w>
bra id</w>
scrip ture</w>
pupp et</w>
fo yer</w>
remark able</w>
bl ast</w>
je ff</w>
d ging</w>
gam er</w>
park way</w>
pat rick</w>
burn t</w>
pear ls</w>
indi e</w>
legis lation</w>
gent le</w>
mar ker</w>
dro ve</w>
percent age</w>
t ment</w>
propag anda</w>
space ship</w>
convin ced</w>
comman ded</w>
moon light</w>
am ate
licen sed</w>
pe ek</w>
tr ilo
gl as</w>
dent ist</w>
ur us</w>
to pping</w>
fi er
initi ative</w>
station ery</w>
padd le</w>
re venue</w>
o p</w>
do main</w>
b ats</w>
ver e
br is</w>
sto ols</w>
cele st
scul ly</w>
cin der
wo ol
na issance</w>
viol ent</w>
indone sian</w>
spot light</w>
e z</w>
hit ler</w>
challeng ing</w>
inser t</w>
tr ans</w>
ner vous</w>
au ton
ic ul
amend ment</w>
ey el
fi at</w>
isra eli</w>
attend ance</w>
ion ing</w>
don ut</w>
wi der</w>
sweat ers</w>
pro n
fro st</w>
exi sted</w>
o o</w>
glo ssy</w>
par enting</w>
gran de</w>
ambul ance</w>
substan tial</w>
re served</w>
me adows</w>
bul bs</w>
stat istics</w>
yach ts</w>
allo y</w>
answ ers</w>
al bert</w>
sc an
bal anced</w>
obje ctive</w>
ow ls</w>
her cu
in expensive</w>
ang lo</w>
fair ly</w>
mah al</w>
in formed</w>
coura ge</w>
pa iring</w>
mat ched</w>
bour bon</w>
am al
s p</w>
sol it
hobb ies</w>
so fia</w>
p oured</w>
is bn</w>
sket ch
decis ions</w>
st es</w>
ta vern</w>
stret ching</w>
li thu
du rable</w>
gly ph</w>
as c
gru mpy</w>
wa ffle</w>
ash a</w>
gr o</w>
occup ation</w>
no ok</w>
partici pating</w>
cucu mber</w>
technic ian</w>
ri p
nation ally</w>
scre w</w>
install ing</w>
chu ck</w>
recon naissance</w>
lay outs</w>
hur t</w>
shu ttle</w>
dis eas
ill o</w>
e quest
enjo ys</w>
ense mble</w>
e pi
dis gu
es sex</w>
micro wave</w>
rai ders</w>
trilo gy</w>
o reg
vul ner
dream works</w>
adop tion</w>
comp ilation</w>
fil ed</w>
p t
á n</w>
indi ana</w>
li kes</w>
l p</w>
im et
ph u
sur ge</w>
muse ums</w>
coun t
po ver
organ izing</w>
ment ion</w>
appreci ation</w>
re viewers</w>
collap se</w>
j ur
o deon</w>
to bac
hosp ital
key chain</w>
to x</w>
co al
ear n</w>
em bo
business woman</w>
te c</w>
sur render</w>
ro deo</w>
li v
no body</w>
tac os</w>
vi be</w>
ta iled</w>
ke st</w>
pu lls</w>
tw enti
spir its</w>
confeder ate</w>
conve ction</w>
mat the
cch ini</w>
suc cul
psycho logy</w>
on going</w>
bi zar
sho res</w>
mar ry</w>
proce sses</w>
ne ys</w>
bre wing</w>
hy d
amoun ts</w>
n ile</w>
s light</w>
30 th</w>
gre e
vari able</w>
inflat able</w>
zu cchini</w>
reg ard</w>
cla d</w>
ho ped</w>
bach el
and ers</w>
lumin ous</w>
j u</w>
blin ds</w>
in ity</w>
demo lished</w>
pre cis
cinder ella</w>
d ash</w>
190 5</w>
ja w</w>
nostal gia</w>
micro scope</w>
an te
con spir
suzu ki</w>
190 9</w>
polic ies</w>
tra m</w>
ske le
vil la
show room</w>
jun k</w>
board walk</w>
6 0s</w>
discu ssing</w>
where as</w>
in habit
ban anas</w>
k ate</w>
nap les</w>
uphol stery</w>
ó n</w>
n ies</w>
ry an</w>
ban kno
per ry</w>
play ful</w>
argu ment</w>
pa ws</w>
c iting</w>
tra m
min es</w>
fin ishes</w>
be ach
bloo ms</w>
flick r</w>
mo to
to ll</w>
ob st
defe ating</w>
main stream</w>
vari ation</w>
vari ant</w>
k ash
mon aco</w>
190 8</w>
sail boat</w>
o ils</w>
ident ical</w>
de bris</w>
coun ted</w>
sp las
ca de
m ous</w>
m itch
po m</w>
sco tch</w>
a ver</w>
n ish</w>
gar rison</w>
bi kin
ni agara</w>
maur it
ul ties</w>
organ ize</w>
own ership</w>
s logan</w>
sciss ors</w>
de ep
fra gran
vitam in</w>
bi king</w>
dé cor</w>
ce ments</w>
slo v
con s</w>
ous ness</w>
jel ly</w>
ex tent</w>
spo ken</w>
er ror</w>
blu r</w>
le cture</w>
aqu atic</w>
neighbour hood</w>
biscu its</w>
ri hanna</w>
el m</w>
r he
te ed</w>
ble ssed</w>
liter ally</w>
ar rest</w>
public ations</w>
1920x 1080</w>
dar ies</w>
vac u
instru ctor</w>
cancel led</w>
ch ak
me g
nu tri
fa b</w>
rang ing</w>
resol ve</w>
re bel</w>
ag o
bath s</w>
recor dings</w>
christian ity</w>
institu tion</w>
dre aming</w>
stu d</w>
blo wn</w>
dou glas</w>
consu mer</w>
tobac co</w>
int enti
gra zing</w>
ill inois</w>
foss ils</w>
val ve</w>
war ren</w>
ri pped</w>
19 23</w>
19 24</w>
stick y</w>
sub si
dan ces</w>
h are</w>
re fined</w>
bru shes</w>
lex us</w>
z o</w>
mp et</w>
sp ru
comb ines</w>
ato m</w>
dor f</w>
equest rian</w>
en closed</w>
deta iling</w>
civil ization</w>
fisher man</w>
bulgar ia</w>
st amp
af ro</w>
ste al</w>
de scent</w>
vo ting</w>
bal tic</w>
rel ation</w>
whim sical</w>
s ake</w>
he li
stu res</w>
embr ace</w>
b ren
re t
su bar
hi jab</w>
tro l
imag ery</w>
in land</w>
emer ging</w>
elev ator</w>
kh aki</w>
recomm end
o b</w>
al ignment</w>
loc ally</w>
fif teen</w>
coast line</w>
ody ssey</w>
st il
in augu
art works</w>
cur ves</w>
there after</w>
manufact urers</w>
sing ers</w>
aim ed</w>
ent ation</w>
mon k</w>
earth qu
inaugu ral</w>
impro vements</w>
chim ney</w>
re mix</w>
assi sts</w>
liqu or</w>
assess ment</w>
man eu
wed ge</w>
nic hol
po k
go a</w>
clo cks</w>
pract icing</w>
sac ra
pal est
ve g
vi ral</w>
bomb s</w>
mu ffin</w>
compe ted</w>
battle ships</w>
co bra</w>
ex plan
end or
arch es</w>
song writer</w>
y p
mar a</w>
pas sport</w>
am use
mat ure</w>
pos session</w>
ro ll
bor ing</w>
glo ss</w>
celest ial</w>
ke vin</w>
oppon ents</w>
di stan
ko ala</w>
pra desh</w>
jump er</w>
o x</w>
z an
par amount</w>
her bal</w>
stron gest</w>
super natural</w>
ra y
sul li
gor ge</w>
hau l</w>
fen cing</w>
sur re
po int
ge tt
indic ating</w>
nur ses</w>
ton a</w>
pitch ed</w>
3 3
ar ct
camp bell</w>
pa yment</w>
re memb
j ak
dro pping</w>
mber g</w>
i que</w>
t illa</w>
ca th
refer ee</w>
g lou
us able</w>
compe tes</w>
hau s</w>
v ital</w>
pic tu
public ity</w>
quali fying</w>
cap turing</w>
y es</w>
ssi e</w>
symbo li
re lev
st ine</w>
pl ywood</w>
scho lar
pur suit</w>
close st</w>
go sla
ri bs</w>
caf é</w>
mou red</w>
relax ation</w>
infin ite</w>
refriger ator</w>
an them</w>
int ention</w>
le ments</w>
k ia</w>
gu ide
wi ki
sur faces</w>
iz er</w>
k ane</w>
memor able</w>
bi o</w>
deb t</w>
g ged</w>
ho lo
fa ith
youn gest</w>
less er</w>
guil ty</w>
mer y</w>
vol vo</w>
pack ages</w>
thre w</w>
boun daries</w>
sun flowers</w>
def ended</w>
fra ming</w>
sent ence</w>
aler t</w>
domin ican</w>
ri e</w>
lu ke</w>
po ll</w>
ph s</w>
symbo lic</w>
cli pping</w>
azz i</w>
sal sa</w>
bad ges</w>
k ill
st ag
ceremon ies</w>
flor a</w>
s nail</w>
fair ies</w>
arm ies</w>
we mb
mir acle</w>
colo mbia</w>
lis a</w>
thie f</w>
thumb s</w>
so vere
jo ins</w>
r ink</w>
as er</w>
ten th</w>
ster n</w>
vin cent</w>
preci pit
av al
cash mere</w>
merchand ise</w>
le o</w>
cou p
7 8
bu sh
prote sters</w>
bad ass</w>
f ton</w>
off shore</w>
ish a</w>
ten sion</w>
la d</w>
promo ting</w>
groo ming</w>
co coa</w>
pe l</w>
shu tters</w>
dach sh
wemb ley</w>
j ol
k out</w>
pa ying</w>
pr a</w>
super vis
mon te</w>
p ills</w>
ho sting</w>
la kers</w>
hel p
ey ed</w>
theat rical</w>
co t
dis missed</w>
cr ack</w>
sulli van</w>
re built</w>
tru mpet</w>
land er</w>
vil lain</w>
human ity</w>
ho ping</w>
hon or
fe e</w>
ble don</w>
rup ted</w>
el li
du bbed</w>
sketch book</w>
mean ing
hi ve</w>
tar gets</w>
colon ies</w>
dad dy</w>
du l
exclu sively</w>
freder ick</w>
g ently</w>
ju dic
10 5</w>
yu gosla
pap ar
u to</w>
gradu ates</w>
introdu ce</w>
m ama</w>
re store</w>
al ab
be ag
coo p</w>
hy per
fa il</w>
desc end
re fer</w>
contro ller</w>
organiz er</w>
je ws</w>
comman ding</w>
redu ction</w>
k ap
gradu ated</w>
inst ance</w>
smo ked</w>
distric ts</w>
observ atory</w>
v ault</w>
man age</w>
pi res</w>
coll ins</w>
lin d
diseas es</w>
en ne</w>
def ine</w>
au burn</w>
wr angler</w>
mar oon</w>
gor illa</w>
real is</w>
skyscra pers</w>
maz da</w>
s ights</w>
ran ks</w>
restric ted</w>
t age</w>
sil ic
se aled</w>
oreg on</w>
o lo
r ats</w>
be ating</w>
po d
to tt
win ery</w>
mal a</w>
alumin ium</w>
sweat shirt</w>
surpr ising</w>
bo realis</w>
hoo ds</w>
hang er</w>
mechan ism</w>
to w</w>
tu dor</w>
chry sler</w>
ba za
hand ling</w>
every body</w>
emb assy</w>
civil ian</w>
mo ld</w>
hur st</w>
parli am
chen nai</w>
bachel or</w>
vi an</w>
sw ick</w>
hum ming
amuse ment</w>
str and</w>
dar win</w>
rapi ds</w>
d ure</w>
k ai</w>
t ents</w>
rac coon</w>
leh enga</w>
p p</w>
⁄ 4</w>
re sp
n ab
co d</w>
elect rons</w>
live stock</w>
wit ness</w>
roo fs</w>
subur b</w>
wim bledon</w>
ra af</w>
con scious</w>
en forcement</w>
ps d</w>
p ines</w>
ma i</w>
miss is
an a
cu mb
can on</w>
diffic ulties</w>
re viewer</w>
pe dest
custo ms</w>
zoo m</w>
swee the
aw k
ha z
col li
lat te</w>
com fy</w>
cur ated</w>
reli able</w>
b t</w>
lil ies</w>
ho w
mess y</w>
wea ve</w>
ro tat
vo ices</w>
kno wing</w>
foun ding</w>
alb any</w>
veg gie</w>
su v</w>
organ ism</w>
fab ric
cra shed</w>
in san
legisl ative</w>
y weight</w>
th on</w>
tact ics</w>
gra ss
ax e</w>
hon ors</w>
el k</w>
ca es
coo lest</w>
5 5
fl a</w>
symbo l
bat ter</w>
carri ers</w>
mean ings</w>
guaran tee</w>
papar azzi</w>
im pe
d ash
m und</w>
re taining</w>
crow ded</w>
oppon ent</w>
mitch ell</w>
man kind</w>
land marks</w>
f ford</w>
encoura ge</w>
du m
ma hog
exten sions</w>
deliver ing</w>
pen n</w>
specim ens</w>
prote cting</w>
bizar re</w>
mahog any</w>
bo mbers</w>
sym metry</w>
serge ant</w>
k ath
u ma</w>
hab its</w>
po tted</w>
per ce
cle aring</w>
fru str
tar ge
sor ry</w>
profession als</w>
war ts</w>
var ieties</w>
ri ot</w>
leg ion</w>
syn drome</w>
atl ant
mont go
le ys</w>
as y
gib son</w>
success or</w>
wol ver
ru ption</w>
she ar</w>
my stic</w>
189 0</w>
pred ators</w>
negoti ations</w>
ho pe
ob tain</w>
exten ding</w>
mist akes</w>
subar u</w>
l s
bang s</w>
wick et</w>
a o
le igh</w>
cur b</w>
cast s</w>
desi red</w>
mag net</w>
lou vre</w>
s ins</w>
on ally</w>
dis pos
us age</w>
must ache</w>
res que</w>
measu rements</w>
x ton</w>
5 0s</w>
dra in</w>
cig ar</w>
tra ditionally</w>
shor ter</w>
arct ica</w>
tott enham</w>
oy ster</w>
as sign
pro secu
premi ered</w>
midd le
cu bes</w>
redu cing</w>
sh re
net works</w>
kar ate</w>
an kara</w>
cla w</w>
d hab
ol or</w>
loc ker</w>
da ve</w>
basil ica</w>
constru ct</w>
et a</w>
j uni
l c</w>
n z</w>
up set</w>
pra yers</w>
kn ock</w>
190 7</w>
cosmo s</w>
hon ored</w>
buddh ism</w>
it iner
categ ories</w>
cardin als</w>
t asse
tun a</w>
kyo to</w>
e k
o sa</w>
leas h</w>
elabor ate</w>
hand crafted</w>
divor ce</w>
mo ist</w>
son ville</w>
b arely</w>
pat ag
mach inery</w>
win ding</w>
cou sin</w>
comple x
pictu resque</w>
rit ual</w>
b its</w>
manag ing</w>
ol k</w>
pe ment</w>
inter action</w>
190 4</w>
k b</w>
t ney</w>
per ched</w>
be half</w>
kis ses</w>
expres sions</w>
depar ted</w>
ade qu
190 6</w>
fascin ating</w>
o be
groun d
bloc ked</w>
fall out</w>
o v</w>
bo sn
goth am</w>
ma har
identi fication</w>
amate ur</w>
comprehen sive</w>
y al</w>
sh am</w>
renov ations</w>
cat ches</w>
notic ed</w>
a 3
bat ch</w>
gri zz
pon ds</w>
mainta ining</w>
pl un
tra pped</w>
mer cy</w>
for gotten</w>
m me</w>
en or
fur b
an te</w>
ph i</w>
proce dure</w>
u i</w>
u ae</w>
p ant
qu an
bat teries</w>
q atar</w>
re union</w>
end a</w>
is a
un successful</w>
ball erina</w>
g c</w>
spor ty</w>
refle cts</w>
ti bet
men to</w>
reas on
fo ggy</w>
bur ton</w>
gr inch</w>
nic kel</w>
gram mar</w>
no tably</w>
var sity</w>
accommo date</w>
montgo mery</w>
har ness</w>
adop t</w>
mar ching</w>
bo k</w>
sco tia</w>
mock up</w>
tox ic</w>
re furb
2 d</w>
l g
sh aft</w>
hyd range
scri bed</w>
conver t</w>
w at</w>
ve loc
su res</w>
favor able</w>
advant ages</w>
s field</w>
arm ament</w>
brides maids</w>
rif le</w>
p r</w>
ta stes</w>
sta g</w>
cat alog</w>
sha wl</w>
bur gers</w>
high ways</w>
lau rel</w>
plat forms</w>
accu mul
eter nal</w>
ido l</w>
z im
me lan
coun ties</w>
inte lle
neu ro
niger ia</w>
inhabit ants</w>
w inged</w>
en to
over lay</w>
sla b</w>
indig o</w>
ac on</w>
as pen</w>
f ir</w>
ex quis
cu tter</w>
squ ee
expla ining</w>
sil ly</w>
tr ace</w>
vers ace</w>
pill ars</w>
gi o</w>
cal ories</w>
specim en</w>
h alls</w>
fu dge</w>
t ir
fe wer</w>
ap plying</w>
part ments</w>
l u</w>
cl am
hy de</w>
n ig
p ant</w>
par aly
ant arctica</w>
che st
zz y</w>
elo pement</w>
wiki pedia</w>
j oc
bou quets</w>
proce du
pover ty</w>
f li
i vely</w>
loc ate</w>
ber ke
ib u</w>
paro dy</w>
lef to
ev ans</w>
tempor arily</w>
real ized</w>
commission er</w>
n ativity</w>
compar e</w>
3 2
distan cing</w>
pra y</w>
willi am
kel ly</w>
jeff erson</w>
en closure</w>
check ed</w>
complic ated</w>
p ac
san g</w>
simp li
mur phy</w>
re v
sensit ive</w>
as i</w>
trave lled</w>
post cards</w>
dispu te</w>
s ari</w>
less ly</w>
line up</w>
concent ration</w>
mc donald</w>
incredi bly</w>
nou ve
ll ama</w>
d ine</w>
re acts</w>
peo ples</w>
mit sub
jer se
s worth</w>
ur i</w>
bu shes</w>
treat ments</w>
scrip ts</w>
mas cu
sol ved</w>
intellig ent</w>
jim my</w>
3 ⁄4</w>
bio logical</w>
de light</w>
pe bble</w>
fle sh</w>
mist ake</w>
m ington</w>
ro r
sp it
heav yweight</w>
ju icy</w>
moti fs</w>
po m
inspe ction</w>
er ic</w>
hel m</w>
hun t
lo re
fi esta</w>
air ways</w>
sal t
f ishes</w>
was p</w>
encoun tered</w>
phu ket</w>
or ang
br o</w>
develo pers</w>
ge ms</w>
magni fying</w>
mitsub ishi</w>
o da</w>
s nor
po ll
pa ved</w>
tibet an</w>
ni el
roof ing</w>
speed way</w>
ge ons</w>
team mates</w>
vacu um</w>
head band</w>
or ly</w>
de e</w>
in ian</w>
fro gs</w>
smo ky</w>
behavi our</w>
pro sper
observ ations</w>
al titude</w>
ben ches</w>
shak er</w>
meat balls</w>
instru mental</w>
t n</w>
18 k</w>
des per
is e
melo dy</w>
om ous</w>
jerse ys</w>
ju dges</w>
laun ches</w>
volu mes</w>
exi sts</w>
team mate</w>
pedest al</w>
biscu it</w>
baza ar</w>
ro rs</w>
surviv ors</w>
b r</w>
in put</w>
prote sts</w>
cr acked</w>
bad ly</w>
m u</w>
fer n</w>
invol ves</w>
200 0s</w>
mel ted</w>
rail ways</w>
audi ences</w>
cor gi</w>
war saw</w>
arch ed</w>
intric ate</w>
conserv atory</w>
path way</w>
4 50</w>
play room</w>
exam ination</w>
fing er
encyclo pedia</w>
br y
up stairs</w>
c bs</w>
inter medi
spe l</w>
a ids</w>
trans lated</w>
constitu tional</w>
stu pid</w>
refle ctive</w>
e cho
ar io</w>
lu cas</w>
dar ker</w>
cru shed</w>
vivi d</w>
tur ner</w>
bar n
hy att</w>
hou sed</w>
esc al
il o</w>
ser bia</w>
scre am</w>
prison er</w>
gu ate
thir teen</w>
st ap
recogn ize</w>
rehear sal</w>
t igh
de vil
yam aha</w>
re st
roc kets</w>
j ab
be ir
se als</w>
thro at</w>
o a</w>
con greg
pet ite</w>
it ted</w>
co tt</w>
slo ven
author ized</w>
trol ley</w>
t ist</w>
ad ri
go spel</w>
dhab i</w>
o me</w>
p all
naz i</w>
anthro po
sweethe art</w>
r ington</w>
ke es</w>
swe ep</w>
cli ps</w>
k ills</w>
tit an</w>
stat ic</w>
demon s</w>
de pos
produ ctive</w>
us d</w>
as parag
comple ment</w>
tan a</w>
cook book</w>
d ors</w>
m oul
pur ses</w>
3 4
s ar</w>
so l</w>
190 3</w>
ar moured</w>
be sides</w>
tal ented</w>
hol i</w>
24 x
h n</w>
parag ra
sof as</w>
bicy cles</w>
spru ce</w>
g lim
colle ctors</w>
develop er</w>
tor y</w>
et t</w>
rein forced</w>
dri ft</w>
body building</w>
ag an</w>
character istic</w>
nouve au</w>
tra de
prev ented</w>
mathemat ics</w>
di or</w>
cent ered</w>
da h
te st
di aper</w>
star fish</w>
jan e</w>
leng ths</w>
eat en</w>
st ability</w>
ad er</w>
beir ut</w>
g he
day tona</w>
ro gers</w>
i ster</w>
tas mania</w>
legisl ature</w>
hercu les</w>
vene zu
anx iety</w>
z illa</w>
re sts</w>
ne s
sto le</w>
vo iced</w>
bent ley</w>
o ats</w>
bl ender</w>
m ir</w>
ra z
g hi
wor ried</w>
ex am</w>
fav our</w>
7 50</w>
co co</w>
un limited</w>
char ms</w>
4 80</w>
scra p
is ion</w>
com ment</w>
k ale</w>
t ights</w>
pre serv
roy ce</w>
mode led</w>
g age</w>
den ali</w>
memb ership</w>
laun ching</w>
molecu lar</w>
l acro
she ds</w>
po me
fun ction
mirro red</w>
laugh ter</w>
at ro
go th</w>
cal yp
asparag us</w>
ero sion</w>
protag onist</w>
mu da</w>
jel ly
av on</w>
eng aging</w>
bu ck</w>
ig nor
roun d
cti vity</w>
deman ds</w>
promp ted</w>
re now
mar ia</w>
gil bert</w>
fundra iser</w>
in visible</w>
ch en</w>
tr acking</w>
all ig
mas quer
ben der</w>
r t</w>
de mo</w>
re signed</w>
ch ateau</w>
new ton</w>
renow ned</w>
patag onia</w>
sk ater</w>
battle field</w>
ere cted</w>
subur bs</w>
pome gran
milit ia</w>
cri b</w>
trave lers</w>
du m</w>
chal et</w>
breath taking</w>
effici ency</w>
sw amp</w>
pon y
v p</w>
ear ning</w>
spr int</w>
rap tor</w>
terri ble</w>
hy gi
pharmac y</w>
enhan ced</w>
dachsh und</w>
sy ria</w>
demo lition</w>
habit ats</w>
s f</w>
mon s</w>
z ones</w>
ato on</w>
ar ium</w>
be loved</w>
el ig
bl ings</w>
bul ary</w>
re tro
ho se</w>
mal ibu</w>
condu cting</w>
sh red
tor ch</w>
z ens</w>
do tted</w>
ju mps</w>
war m
progre ssive</w>
po ison</w>
str at
mu r</w>
moti ves</w>
guaran teed</w>
remn ants</w>
f athers</w>
atlant is</w>
c ms</w>
clo ck
bla ze</w>
h ack</w>
buil ds</w>
p ies</w>
ra ins</w>
sp y
met all
00 1</w>
torn ado</w>
beag le</w>
flan k</w>
fra me
190 1</w>
di ver</w>
laugh s</w>
abu se</w>
m ys</w>
ri b</w>
fe e
south western</w>
pre fer</w>
wall ed</w>
dead pool</w>
mo or</w>
si blings</w>
villa ins</w>
ela stic</w>
awk ward</w>
m g</w>
v a
fo to</w>
ven om</w>
mix er</w>
ast ing</w>
instru ction</w>
niel sen</w>
h ence</w>
ing le</w>
des ks</w>
quar ant
institu tions</w>
character ized</w>
wh ar
home stay</w>
molecu les</w>
desig nation</w>
cr ate</w>
fl yers</w>
che esy</w>
mb s</w>
sla m</w>
alexand ria</w>
dis pen
cross over</w>
meaning ful</w>
co g
ste ms</w>
fig u
person ally</w>
chi ang</w>
west wood</w>
r hin
excell ence</w>
wy nd
lo u</w>
my r
but ler</w>
bro wns</w>
cl an</w>
so y</w>
ste el
comb inations</w>
dy ed</w>
stro kes</w>
len non</w>
exten ds</w>
mus ic
hau te</w>
so m</w>
ul tra
origin ated</w>
weal thy</w>
im posed</w>
ser ial</w>
hill side</w>
wynd ham</w>
hard cover</w>
wi dow</w>
an es</w>
ro tation</w>
iso to
radi us</w>
con go</w>
ang led</w>
competit ions</w>
lan caster</w>
190 2</w>
appeti zer</w>
road ster</w>
is ian</w>
fe ar
e mail</w>
mob ility</w>
declar ation</w>
d ded</w>
be th
cam aro</w>
deli ber
hosp it
lo l</w>
cur ls</w>
seg ments</w>
an onymous</w>
wood stock</w>
zi g</w>
gir ly</w>
deal er</w>
clear ed</w>
y a
tro y</w>
dig it
veloc ity</w>
p ar</w>
ste pping</w>
neck line</w>
bikin i</w>
til ed</w>
g ins</w>
wal d</w>
ten ing</w>
six teen</w>
em bell
berke ley</w>
2 20</w>
ri val
collecti bles</w>
obvi ous</w>
o vers</w>
dun e</w>
sic ily</w>
ro gue</w>
fi ji</w>
relev ant</w>
k aw
40 k</w>
figur ines</w>
anth ony</w>
oun ce</w>
bro och</w>
home stead</w>
me mo
associ ate</w>
tas ks</w>
dis order</w>
play house</w>
han oi</w>
ru pt</w>
sand stone</w>
cri mes</w>
cen sus</w>
sud den
simultane ously</w>
len ses</w>
dit ch</w>
bor g</w>
al ization</w>
ser ie</w>
sal em</w>
john ny</w>
open er</w>
fic i
p ads</w>
le tte</w>
se c
pul p</w>
princi ple</w>
har vey</w>
defen ding</w>
victor ies</w>
safe ly</w>
divi de</w>
ski p</w>
verte br
at ri
lacro sse</w>
j ade</w>
mechan ics</w>
scu ba</w>
z en
se ized</w>
sla ves</w>
can ber
ate ful</w>
ber muda</w>
bin ary</w>
j ury</w>
ren tals</w>
on ian</w>
plic ity</w>
signific ance</w>
isol ation</w>
6 6
bi son</w>
scar ed</w>
collap sed</w>
al fred</w>
ne p
hor ri
j ason</w>
cour thouse</w>
arn old</w>
sudden ly</w>
blue berries</w>
master piece</w>
tran qu
consu mption</w>
ch asing</w>
graph s</w>
paint ers</w>
tri angular</w>
sket ching</w>
perio dic</w>
co inci
ali ke</w>
dra ke</w>
fur ry</w>
docu mentation</w>
snowfla kes</w>
quarant ined</w>
g lee</w>
be aver</w>
ren o</w>
un finished</w>
ter ra</w>
fl u</w>
mil k
bru shed</w>
ac cent
dra u
wo w</w>
sho cked</w>
cl one</w>
turre ts</w>
exquis ite</w>
pro ph
ish ings</w>
ka h</w>
silic one</w>
in fer
g ou
reci pi
pok é
re cess
lu ci
ow a</w>
oli ver</w>
r and
cam ps</w>
li ers</w>
oper ates</w>
ble ssing</w>
campaig ns</w>
7 9
as a</w>
pag e
ste w</w>
char lo
contribu tions</w>
wor d
pol ye
hun ters</w>
sign als</w>
addic tion</w>
re ed</w>
lu ct
9 60</w>
el an
tin a</w>
re luct
no tt
dor set</w>
v ings</w>
bir d
ga ining</w>
pig gy</w>
con figur
ver de</w>
souven ir</w>
lo ve
stret ches</w>
comp ounds</w>
f ade</w>
ethiop ia</w>
diabe tes</w>
se dim
dou bles</w>
gun dam</w>
rug ged</w>
p sal
man tel</w>
ac ne</w>
lo l
el ds</w>
bun s</w>
elim inated</w>
car at</w>
refu ge</w>
man ship</w>
pul se</w>
canber ra</w>
e motion</w>
comm entary</w>
res ale</w>
avi er</w>
stitch es</w>
s m</w>
pl as
escap ed</w>
esc ort</w>
turb ine</w>
bo bby</w>
in hab
for ge</w>
itiner ary</w>
he sive</w>
elect ron</w>
t artan</w>
fa ye
ro chester</w>
ch au
up dates</w>
cru z</w>
hon est</w>
don uts</w>
destroy ers</w>
expan ding</w>
eyebro ws</w>
pe can</w>
ru ling</w>
beli ev
tai pei</w>
masquer ade</w>
lemon ade</w>
thr iller</w>
restric tions</w>
e cho</w>
wick ed</w>
remin is
enor mous</w>
co le</w>
brea thing</w>
p tic</w>
gu in
kir k</w>
sh y</w>
ki m</w>
fl ir
ham burger</w>
as ym
win ni
ty ler</w>
stam ps</w>
success ion</w>
o tter</w>
cub ic</w>
ass orted</w>
univers ities</w>
l ate
sp reading</w>
tele graph</w>
rh ino</w>
bang al
furn ishings</w>
qu it</w>
beli eving</w>
sequ ins</w>
sto pping</w>
mel t</w>
demonstr ated</w>
on ey</w>
chro no
fier ce</w>
maurit ius</w>
co des</w>
ti des</w>
jelly fish</w>
ab a</w>
pe as
wind mill</w>
alleg ed</w>
ric o</w>
dur ham</w>
quan tum</w>
poké mon</w>
fre ight</w>
po orly</w>
is ley</w>
adv ices</w>
k or</w>
moo dy</w>
d ently</w>
t oned</w>
re spir
gri p</w>
su bl
loc king</w>
sing ton</w>
pp i</w>
gon na</w>
hu gs</w>
emph asis</w>
du s</w>
pre n
shi va</w>
camer on</w>
ax les</w>
posit ioned</w>
foc al</w>
surg ical</w>
pe te</w>
mix es</w>
dev ast
fragran ce</w>
recogn ised</w>
state ments</w>
helicop ters</w>
ino a</w>
t weed</w>
re lay</w>
predic ted</w>
p am
ja il</w>
prince sses</w>
ju sti
wel coming</w>
was her</w>
ad dresses</w>
cont ents</w>
he mis
y ang</w>
astro logy</w>
loy al</w>
swe at</w>
atmo spher
no ir</w>
air planes</w>
fa una</w>
ar do</w>
fl ed</w>
ro wed</w>
mo ist
nor man
team work</w>
lit ter</w>
god zilla</w>
te ap
du ffel</w>
win es</w>
da h</w>
im ported</w>
li fts</w>
com pati
t te
re actions</w>
pa sture</w>
be long</w>
sp ine</w>
rad ical</w>
de aling</w>
rabb its</w>
do zens</w>
po odle</w>
ru m
inter views</w>
leg it
jam as</w>
in au
chie fs</w>
a bulary</w>
ash i</w>
cap tures</w>
chur chill</w>
compati ble</w>
er n</w>
ent a</w>
cup board</w>
mun ition</w>
public ly</w>
w and
brand ed</w>
it z</w>
ag encies</w>
for mul
turre t</w>
is cus</w>
fix ture</w>
ori ented</w>
hall mark</w>
c un
awak ens</w>
man i</w>
ant on</w>
deser ted</w>
botan ic</w>
mete oro
k re
la byr
di str
syn thetic</w>
e ous</w>
to wels</w>
18 00</w>
under stood</w>
thin ks</w>
wan ting</w>
bangal ore</w>
labyr inth</w>
g ill</w>
mo ms</w>
scre ws</w>
vari ed</w>
arch bishop</w>
speci alized</w>
critic ised</w>
ra ils</w>
un dated</w>
grand ma</w>
circum stances</w>
mo d
tre k
glad i
on ry</w>
ri ms</w>
mar l
ste pped</w>
dar in</w>
hog warts</w>
h r
releas ing</w>
equ ally</w>
stim ul
napole on</w>
help ful</w>
cho re
sar ah</w>
mig ration</w>
k icking</w>
dis per
annu ally</w>
ro d
he ath</w>
mi sty</w>
bed side</w>
bla zers</w>
insul ated</w>
en listed</w>
ly ric</w>
extin ction</w>
h q</w>
u be</w>
co ro
ir anian</w>
bu ds</w>
with drew</w>
color ado</w>
impro ving</w>
provin ces</w>
a than</w>
v t</w>
de tox</w>
bl er</w>
vie w
an no
ma iden</w>
ess ays</w>
obl ig
ing es</w>
tan z
poly mer</w>
m its</w>
ff ing</w>
comp ens
dire ct
lo af
au x
mar kers</w>
a ar
prev ention</w>
jac ob
brigh tly</w>
vic tor</w>
zz ard</w>
tax es</w>
per formers</w>
con sci
comm ent
mil d</w>
zz i</w>
por ter</w>
stel lar</w>
p rus</w>
se lls</w>
ken sington</w>
voc abulary</w>
sac rif
st ion</w>
swe pt</w>
sacrif ice</w>
ph al
ta i</w>
situ ations</w>
dat ab
vi p</w>
ph ases</w>
roo kie</w>
cur ric
spar k</w>
x s</w>
ho p
sli e</w>
ist oc
se agu
dec ay</w>
adv ent</w>
e i</w>
it is</w>
ju g</w>
congratu lations</w>
ple x</w>
sh ack</w>
bo red</w>
bomb ing</w>
logi stics</w>
shi pped</w>
process or</w>
transpor ted</w>
ch ill
ap es</w>
wor ry</w>
hand led</w>
ed war
span iel</w>
propos als</w>
m 3</w>
ig ned</w>
nichol as</w>
re surre
at ers</w>
ver t</w>
hand ic
sen iors</w>
pier cing</w>
al che
par me
gener ate</w>
liter acy</w>
g in
bu zz</w>
buck ingham</w>
inv ented</w>
foc using</w>
i ves</w>
free zer</w>
a 4</w>
lu st</w>
vac c
brow nie</w>
pri ority</w>
prepar ations</w>
environ ments</w>
trim ming</w>
k w</w>
is ms</w>
bas ically</w>
lar en</w>
wi e</w>
ass or
investig ate</w>
pony tail</w>
hand ful</w>
qu inoa</w>
squ id</w>
inv ite</w>
cont am
winni peg</w>
crow ned</w>
troo p</w>
t rough</w>
vi bes</w>
ja ipur</w>
2 4th</w>
th at
ab s</w>
ha il</w>
dra inage</w>
nar uto</w>
eas iest</w>
189 6</w>
dod gers</w>
se v
qu alities</w>
dr on</w>
contribu tion</w>
ar lington</w>
mat ch
samu el</w>
rai der</w>
humming bird</w>
att ende
z ac</w>
col lie</w>
w ishing</w>
am munition</w>
ri t</w>
paper back</w>
b ent</w>
t r</w>
sc ru
con sequ
eg g
yor ker</w>
nutr it
surviv or</w>
4 4
late x</w>
be th</w>
du mb
f jor
de lay</w>
ge taway</w>
vulner able</w>
v ale</w>
st aring</w>
tim eline</w>
commit ment</w>
y ang
im er</w>
ver a</w>
parme san</w>
mo b</w>
cru ises</w>
pomegran ate</w>
pat ch
christ oph
house holds</w>
nat o</w>
cine matic</w>
assor tment</w>
f r</w>
crow ns</w>
dent ally</w>
def enders</w>
sugge sting</w>
leas e</w>
estim ates</w>
strugg ling</w>
par sley</w>
met aph
s words</w>
per cu
po pp
mag n
r ale
ff e</w>
her mes</w>
ar u
pleas ed</w>
coal ition</w>
fu se</w>
sim plicity</w>
my stical</w>
alo e</w>
execu tion</w>
cre ed</w>
sur geon</w>
tit anium</w>
tun es</w>
ess ence</w>
re cre
su ited</w>
gre n
hu e</w>
b are
g on</w>
ed wards</w>
o 2</w>
s dale</w>
cham bers</w>
dro w
doc ks</w>
l ing
min ority</w>
ass is</w>
ham burg</w>
south ampton</w>
concent rated</w>
prospe ct</w>
am an</w>
pen e
sla very</w>
b ounds</w>
y i
pursu e</w>
dragon fly</w>
plu mb
const antly</w>
bo re
ex cess</w>
pi pel
ate dly</w>
fore cast</w>
mac ul
deep ly</w>
te ak</w>
mascu line</w>
dre amy</w>
or ian</w>
gem stone</w>
gu es</w>
ador ned</w>
conspir acy</w>
tre ating</w>
cru cial</w>
vic tim</w>
swir l</w>
hy der
da w
sol es</w>
power point</w>
martin i</w>
bar bad
gg les</w>
crack ers</w>
asse ts</w>
loy alty</w>
u lum</w>
cl adding</w>
shore line</w>
ma ine</w>
moun ts</w>
mor s</w>
iz ations</w>
modu le</w>
i des</w>
theat ers</w>
counter top</w>
i ding</w>
ct ur
scho lar</w>
reve aling</w>
rebe ls</w>
inau gur
v ar</w>
y on
is abe
foun tains</w>
bin ding</w>
5 00
var ying</w>
fit z
ner ve</w>
challeng ed</w>
virtu ally</w>
h indu
qu ad</w>
king ston</w>
ell i</w>
deci des</w>
scholar ship</w>
d ag
sub stance</w>
immun e</w>
am id
be et
car ou
man ne
sou theastern</w>
bet a</w>
sever ely</w>
n ylon</w>
sul tan</w>
hali fax</w>
substitu te</w>
teap ot</w>
co ke</w>
ab ra
wat ch
foc uses</w>
9 9
dar kest</w>
particip ation</w>
d g
stan ts</w>
wre aths</w>
de x</w>
so ho</w>
ster eo
dig est
s ir
pe e</w>
treas ures</w>
it able</w>
be asts</w>
pre lim
pack ers</w>
ig o</w>
du sty</w>
or ate</w>
car ing</w>
8 5
pa thy</w>
regi stration</w>
austral ians</w>
respe ctive</w>
sh at
sh aded</w>
descri p
k m2</w>
we ights</w>
bever ages</w>
it arian</w>
sh an
belon ging</w>
parliam entary</w>
procedu res</w>
ho ps</w>
co sy</w>
z on</w>
ti ered</w>
che mic
ep a</w>
x ed</w>
lu x</w>
sli t</w>
angel o</w>
yellow stone</w>
as aki</w>
to ss</w>
sp artan</w>
ss a</w>
ban a</w>
super b</w>
spect ators</w>
pi an
p ly</w>
stu dded</w>
dro p
ac tic</w>
qu ay</w>
ist a</w>
c w</w>
a via</w>
k le
it or</w>
birth days</w>
establ ishing</w>
rh ine
wi ves</w>
tit ans</w>
189 9</w>
stor my</w>
i owa</w>
sa hara</w>
gr ace</w>
18 80</w>
scre ened</w>
a wa
fro sted</w>
cy prus</w>
189 8</w>
gi za</w>
alu mni</w>
calcul ator</w>
e pers</w>
m ish</w>
le tt</w>
stre ams</w>
cau tion</w>
we t
gil t</w>
ps i</w>
b hu
de w</w>
chan nels</w>
jak arta</w>
alab ama</w>
en cer</w>
yan kees</w>
appro x</w>
conveni ent</w>
dou gh
const ant
re sumed</w>
ho ro
ur u</w>
dis t</w>
ai res</w>
louis ville</w>
snowfla ke</w>
ty res</w>
water shed</w>
tab by</w>
ful ness</w>
wood lands</w>
7 7
amphibi ous</w>
to po
m ly</w>
ro me
14 k</w>
spi ke</w>
189 3</w>
p oul
sin king</w>
s nu
st ral</w>
manu el</w>
cabine try</w>
ho mage</w>
gh ana</w>
inv iting</w>
recre ational</w>
her al
bar ry</w>
north western</w>
shak ing</w>
st roll</w>
fur ther
day time</w>
osc ars</w>
re vised</w>
ste ady</w>
separ ation</w>
te m</w>
ha zard</w>
sa w
n h</w>
per imeter</w>
fau lt</w>
battal ions</w>
minne so
it er
sh an</w>
intermedi ate</w>
s ore</w>
mar gin</w>
satis fied</w>
curric ulum</w>
precipit ation</w>
gra ssy</w>
mag nit
accompan ying</w>
customi ze</w>
be ak</w>
ak u
publ isher</w>
bu yers</w>
earthqu ake</w>
o ch
galax ies</w>
whar f</w>
hol mes</w>
2 40</w>
u m
re cur
mem bran
s layer</w>
san k</w>
town house</w>
re tain</w>
sa ils</w>
competit ors</w>
mb ian</w>
mas er
sett lers</w>
ne st
me so
dy lan</w>
s ight
v r</w>
new found
bo asts</w>
no mad</w>
americ as</w>
by pass</w>
c n</w>
m lb</w>
pa isley</w>
fri e
cooper ation</w>
dimen sion</w>
wit ches</w>
fun ko</w>
mac ed
ribb ons</w>
ha st
gra pe
separ ately</w>
in corporate</w>
s l</w>
am bit
nor thumb
h ing</w>
p cs</w>
ar b
sta ys</w>
un likely</w>
lu f
bun nies</w>
glor ious</w>
chest nut</w>
g u</w>
afgh an</w>
b room</w>
o lives</w>
re stri
le slie</w>
ti ves</w>
char ted</w>
edit ions</w>
stu art</w>
b is</w>
con dem
pe dal</w>
spir itu
d p</w>
fac ilit
broo ks</w>
fresh man</w>
slov ak
sub species</w>
star k</w>
mar vel
stre am
dr ying</w>
guide lines</w>
ev o</w>
ta hoe</w>
fun gus</w>
assass in</w>
newfound land</w>
de ath
pl ateau</w>
re plic
war k</w>
ecu ador</w>
j ag
lo gs</w>
ke ep
immig ration</w>
man it
repe atedly</w>
hyder abad</w>
deplo yment</w>
j peg</w>
oun ding</w>
nomin ations</w>
w en
dr ich</w>
ro m
ctu red</w>
warm th</w>
the ories</w>
syn the
sa u</w>
sle eps</w>
guin ness</w>
dak ota</w>
en os</w>
nam ing</w>
visual ization</w>
se p</w>
pre fer
bl ades</w>
dis k</w>
tanz ania</w>
con te
aim s</w>
cot sw
su pper</w>
en sis</w>
to le
me ta
pas sion
sax on</w>
d ick
bo ku</w>
min ds</w>
can ary</w>
gr ac
auto matically</w>
con soli
gener ic</w>
four teen</w>
scar let</w>
pup ils</w>
plumb ing</w>
el in</w>
or ie</w>
do pe</w>
cla ir</w>
compar ing</w>
rel atives</w>
ob a</w>
cel lar</w>
colour ing</w>
py thon</w>
b b</w>
re hab
argu es</w>
sprink les</w>
t ful</w>
di oc
chan cell
reg is</w>
malay sian</w>
missis si
occas ional</w>
lat eral</w>
corre ctly</w>
car bon
sho ppers</w>
dec im
obje ctives</w>
ch assis</w>
bull dogs</w>
po inter</w>
clo ver</w>
b angle</w>
w ing
regu lations</w>
remin der</w>
wu han</w>
asy lum</w>
k ar</w>
q i</w>
co ding</w>
wor se</w>
broad casting</w>
1 15</w>
ax le</w>
spi ders</w>
syn thesis</w>
infe cted</w>
cul min
reg al</w>
gi br
ol ine</w>
succul ent</w>
di g</w>
mam mal</w>
por to</w>
bon ds</w>
flu te</w>
kne es</w>
gra s</w>
pat ron</w>
gener ator</w>
13 5</w>
coron ation</w>
di f
green wich</w>
check ered</w>
roman ian</w>
exer c
whi p</w>
intensi fied</w>
paragra ph</w>
bl i</w>
dic t</w>
depen ds</w>
gab ri
s led</w>
co x</w>
ver sa
ssi onal</w>
sw inging</w>
follow ers</w>
tac oma</w>
v 8</w>
bo li
con quest</w>
ak h
ru shing</w>
jack sonville</w>
maser ati</w>
head set</w>
kay aking</w>
versa illes</w>
ri vals</w>
bar ns</w>
conne ctor</w>
14 00</w>
door way</w>
sacra mento</w>
page ant</w>
proje ction</w>
ore o</w>
d der</w>
ri dic
bo iled</w>
lear ns</w>
night club</w>
p ation</w>
expect ations</w>
re cover</w>
dan ube</w>
atri um</w>
real ize</w>
boul der</w>
in fl
ch ment</w>
im pal
cam den</w>
knoc ked</w>
g ies</w>
christoph er</w>
fra gment</w>
edit able</w>
d ong</w>
hip po
al to</w>
cy press</w>
repor ting</w>
pier re</w>
spar row</w>
monit oring</w>
rale igh</w>
co yo
sh in</w>
el bow</w>
teen agers</w>
rose mary</w>
nep tune</w>
tu scan</w>
sav ory</w>
nation wide</w>
inter vention</w>
prohib ition</w>
a j</w>
f ences</w>
demonstr ate</w>
t man</w>
gra ve
op tional</w>
f ury</w>
brad ford</w>
strugg led</w>
bel ts</w>
real m</w>
40 th</w>
mck in
bl acks</w>
er i
man darin</w>
temp o</w>
resp ond</w>
scor p
test ament</w>
atmospher ic</w>
yo ko
mor rison</w>
cur se</w>
189 5</w>
m our
boo king</w>
introdu ces</w>
surf board</w>
aph one</w>
minneso ta</w>
te l
ab original</w>
sun k</w>
10 2</w>
descend ants</w>
sco pic</w>
carou sel</w>
colle ges</w>
fail ing</w>
e ve
si um</w>
fur t</w>
pan cake</w>
h int</w>
en burg</w>
wall ace</w>
destroy ing</w>
c et</w>
or ca</w>
log ne</w>
k ru
it ton</w>
pan thers</w>
m ice</w>
de voted</w>
pod cast</w>
dri f
ox id
re gard
vi ii</w>
fe ed
ge stures</w>
ty ran
predecess or</w>
s ang
la k
ge es</w>
hat ch
pepper mint</w>
regard less</w>
bu yer</w>
contribu te</w>
th am</w>
ni xon</w>
brigh ten</w>
marvel ous</w>
stre ak</w>
poten tially</w>
correspon ding</w>
f are
im press</w>
ll as</w>
perce ived</w>
at ric</w>
gran ola</w>
gui dance</w>
vu itton</w>
s oo
er os</w>
an us</w>
horse shoe</w>
k as
o c</w>
to dd</w>
hurric anes</w>
mandal orian</w>
matthe w</w>
188 8</w>
patch work</w>
home work</w>
libr aries</w>
v aul
blan kets</w>
aff ir
integr ation</w>
pup pets</w>
ll c</w>
guer r
f ill
bo s</w>
18 70</w>
deter i
trun ks</w>
hospital ity</w>
ten e
trin id
moun ta
189 7</w>
adequ ate</w>
j ay
scre aming</w>
sol ving</w>
histor ically</w>
ry e</w>
bit ter</w>
re vers
ou th</w>
ra h</w>
le a</w>
air field</w>
turb ines</w>
ag onal</w>
ap ex</w>
con den
ve spa</w>
govern ments</w>
hi de
he aven
beli ze</w>
revol t</w>
carp enter</w>
assign ment</w>
k ansas</w>
ci der</w>
sal ary</w>
bloo dy</w>
garden er</w>
hospit als</w>
faye tte</w>
m all
ig s</w>
prelim inary</w>
de eper</w>
ru ined</w>
tur f</w>
ther ine</w>
l loy
ghi bli</w>
ic ity</w>
k au
st abil
wit ch
cl y
squad rons</w>
t ent
ill as</w>
free ze</w>
oun ced</w>
comb ining</w>
hot spur</w>
barbad os</w>
per mitted</w>
dis covers</w>
cou p</w>
camp fire</w>
app a</w>
develop ments</w>
fla p</w>
pag an</w>
art isan</w>
cro ft</w>
rotat ing</w>
t we
pe aking</w>
enthusi asts</w>
sw an
illustr ate</w>
ed gy</w>
cu n</w>
foo l</w>
hib iscus</w>
station ed</w>
se ed
gam bling</w>
health ier</w>
essenti ally</w>
rav ens</w>
ham ster</w>
h itch
co b</w>
bi stro</w>
sti ff</w>
brun swick</w>
silver ado</w>
shred ded</w>
o sp
st icking</w>
sky walker</w>
datab ase</w>
further more</w>
precis ion</w>
ke ttle</w>
loo kout</w>
cam eo</w>
preserv ation</w>
1 20
3 00
e min
se y
no mine
sc allo
fe ars</w>
cu lin
sto ke</w>
10 4</w>
d art
pa c</w>
s mu
me sa</w>
ep ide
dic tion</w>
meg aphone</w>
d rought</w>
ro aring</w>
com pression</w>
no s</w>
tu sc
6 5
work space</w>
pedestri ans</w>
devil s</w>
un happy</w>
a unt</w>
transit ional</w>
ast on
blue print</w>
ob sc
ki dney</w>
restri al</w>
mon roe</w>
concep tion</w>
with draw
pene tr
prote ins</w>
green land</w>
dur ation</w>
pa ving</w>
car l</w>
back stage</w>
op posing</w>
heaven ly</w>
kun g</w>
pu ffer</w>
ob server</w>
belon gs</w>
culin ary</w>
the l
encoun ters</w>
ra is
ne arest</w>
fun ded</w>
cap ital
don ation</w>
multi player</w>
attende es</w>
l acked</w>
t ying</w>
mu mmy</w>
wig s</w>
mississi ppi</w>
tr ick
pe e
do ms</w>
fin nish</w>
mp ed</w>
ob se
accoun ting</w>
camp ground</w>
or chi
christ church</w>
mac y</w>
auton omous</w>
gu ad
chev ron</w>
ser p
gar field</w>
nu g
depic tion</w>
re viewed</w>
mon ter
ber man</w>
myster ies</w>
ph ere</w>
tra its</w>
min ion</w>
hel l
rome o</w>
re make</w>
oc cult</w>
gen ic</w>
par l
ex port</w>
rou ge</w>
inclu sion</w>
ob ama</w>
guate mala</w>
ne at</w>
dr o</w>
fla ir</w>
cat al
tun nels</w>
care ful</w>
quil a</w>
conce ived</w>
head er</w>
antici pated</w>
on ies</w>
be ers</w>
eu calyp
band ed</w>
concer ning</w>
e able</w>
inf r
mathemat ical</w>
to tal
hor us</w>
pon ti
gentle men</w>
trim med</w>
fundam ental</w>
gra sses</w>
under way</w>
mar que
archae ology</w>
j ake</w>
ti ki</w>
bur ner</w>
bo ating</w>
sal ted</w>
marsh al</w>
tang led</w>
armen ian</w>
polit ician</w>
ab y
ty ping</w>
bal lad</w>
hi ker</w>
spe eds</w>
sy rian</w>
un for
te ll
ru in</w>
cas cade</w>
trave ller</w>
fr igh
acqu is
tusc any</w>
clu b
gr ateful</w>
i as</w>
tre llis</w>
pag oda</w>
day light</w>
juven ile</w>
allig ator</w>
el vis</w>
hamp tons</w>
sloven ia</w>
ma il
pri vil
fract al</w>
mer ely</w>
g le
w age</w>
souven irs</w>
j e</w>
o h
rho des</w>
amen ities</w>
dan i
jac ob</w>
prince ton</w>
f m</w>
m k</w>
gra ins</w>
fer n
edwar dian</w>
sh akes</w>
pa jamas</w>
bloo d
coll ision</w>
super heroes</w>
motor bike</w>
8 9
cre pe</w>
norman dy</w>
c u</w>
pro ver
perfor mer</w>
butter cream</w>
ra ven
fisher men</w>
w en</w>
tho logy</w>
188 9</w>
decre ase</w>
co met</w>
can cun</w>
gr ace
good bye</w>
prest ige</w>
ro b</w>
as pir
d wight</w>
kilo meters</w>
brad ley</w>
abun dance</w>
reg ime</w>
ever est</w>
advis or</w>
kin dness</w>
argu ing</w>
rho de
ct ual</w>
qu in
asse mble</w>
cine mat
jur is
d art</w>
17 0</w>
ra j
pe ony</w>
air bender</w>
bap tism</w>
el ling</w>
aes the
stamp ed</w>
pa vement</w>
dim in
j ava</w>
sm outh</w>
pan e</w>
re design</w>
amph i
brief case</w>
garn ished</w>
hygi ene</w>
m apping</w>
con fusion</w>
rac ial</w>
tou red</w>
ang kor</w>
anim ales</w>
stri pped</w>
table top</w>
ban ff</w>
polyg onal</w>
1 11</w>
h ed</w>
h iring</w>
st acks</w>
ne se</w>
pa in
offen se</w>
trinid ad</w>
j ama</w>
al ter</w>
ke en</w>
ser bian</w>
stre aming</w>
advoc ate</w>
ph il</w>
fl our
pra da</w>
nes see</w>
al lu
ul ous</w>
hang ar</w>
explan ation</w>
magnit ude</w>
chi bi</w>
st aple</w>
or ns</w>
stri es</w>
be acon</w>
c ite</w>
q ur
mbl er</w>
slovak ia</w>
2 3rd</w>
s alty</w>
bo iler</w>
ten nessee</w>
caric ature</w>
wh en
perfe ction</w>
exhau st</w>
gibr altar</w>
n im
au g
ku wait</w>
pel ican</w>
susp ic
mosqu ito</w>
ag os</w>
po tam
refer ring</w>
co median</w>
evacu ated</w>
r attan</w>
ne sting</w>
louis iana</w>
strength ened</w>
te aches</w>
ne il</w>
vol tage</w>
cher ries</w>
ol l</w>
che dd
cro pped</w>
weigh ing</w>
out skirts</w>
fer til
show cases</w>
pr un
expe dition
umbre llas</w>
treas ury</w>
s ick
sk ates</w>
consider ation</w>
re el</w>
az tec</w>
reg ent</w>
bil li
depen dent</w>
neighb ors</w>
frame work</w>
18 0
g g</w>
x ter</w>
gra y
beli efs</w>
deman ded</w>
b ce</w>
he dge</w>
t ance</w>
re ward</w>
be ck</w>
cla ws</w>
favor ites</w>
comm en
sav age</w>
reason able</w>
cy cles</w>
sli ppers</w>
surroun dings</w>
announ ces</w>
bern ard</w>
st ev
ail ed</w>
proje cted</w>
ton nes</w>
mon ks</w>
sour i</w>
dedic ation</w>
eucalyp tus</w>
for ks</w>
win chester</w>
measu rement</w>
bra kes</w>
co v
terrac otta</w>
po o</w>
re aper</w>
st ing
margar et</w>
do lo
break er</w>
cri mson</w>
rh ine</w>
tumbl er</w>
expedition ary</w>
e ti
co st
dis appointed</w>
mis souri</w>
bart ender</w>
foot prints</w>
activ ated</w>
tou ched</w>
eco logical</w>
to w
ap pren
rep tile</w>
ba iley</w>
pen dic
cap ped</w>
fore head</w>
dr ac
cr ater</w>
contra sting</w>
ar iz
sh ado
com ed</w>
ste ad
hat ch</w>
f ills</w>
inspir ations</w>
lake side</w>
s den</w>
inter ven
provi der</w>
ceremon ial</w>
bron cos</w>
rever sible</w>
polye ster</w>
o str
mar kings</w>
ir regular</w>
li th
spo ke
initi ated</w>
wander lust</w>
orchi ds</w>
for mat
bur ial</w>
mc laren</w>
bl iss</w>
tra ded</w>
dis crimin
contin ents</w>
chi p
mon tene
writ ings</w>
stitch ing</w>
ba i
roy als</w>
nut cracker</w>
chedd ar</w>
is en
pic to
sett le</w>
enz y
d les</w>
rese mble</w>
pre domin
port smouth</w>
uk rain
metaph or</w>
t na</w>
graph ite</w>
gr ille</w>
free style</w>
agu a</w>
ra men</w>
se u
bel fast</w>
co le
feed back</w>
v am
20 s</w>
che ers</w>
pol ice
sea hawks</w>
f bi</w>
man e</w>
brown ies</w>
ex press
roman s</w>
amphibi ans</w>
mar ie</w>
trek king</w>
spo ons</w>
provi dence</w>
bud dy</w>
man ned</w>
4 3
when ever</w>
ho k
gal il
cran es</w>
z am
ra ises</w>
ber gen</w>
hu bble</w>
ob serve</w>
lam inate</w>
di stor
bosn ia</w>
im itation</w>
pro portion</w>
pre ston</w>
sk ins</w>
esc orted</w>
ark ham</w>
consci ousness</w>
po sting</w>
pro s</w>
pipel ine</w>
chancell or</w>
wel comed</w>
sav ings</w>
frank furt</w>
all music</w>
vide o
econo mics</w>
insan e</w>
scrap book</w>
mb le
wea thered</w>
s war
ang o</w>
thre ats</w>
mani fe
pe sto</w>
mini sters</w>
associ ates</w>
interpre ted</w>
yo se
ev ent
air men</w>
bal ancing</w>
tun ing</w>
pp ings</w>
la v
par isian</w>
psy chi
h end
ex o
ga ins</w>
le ep</w>
bu c
acknowle dged</w>
symbol ism</w>
m ashed</w>
he in
can a</w>
nor wich</w>
ster shire</w>
ce stershire</w>
gu ang
simul ation</w>
o to</w>
war ned</w>
port age</w>
consequ ently</w>
ac claim</w>
wa ffles</w>
cryst al</w>
at tained</w>
car p</w>
sci ento
vine gar</w>
t ings</w>
abun dant</w>
vi kings</w>
pla r</w>
dec ad
happen ing</w>
hemis phere</w>
withdraw al</w>
to es</w>
rememb ered</w>
an cho
as hi
188 5</w>
scrat ches</w>
mb a</w>
pro vo
pe z</w>
end i</w>
en cia</w>
pol lu
clin ical</w>
insi sted</w>
frustr ated</w>
m ire</w>
pre sses</w>
but cher</w>
g ore</w>
th orn</w>
un ci
archi pel
sant or
k ö
vi sts</w>
lap s</w>
suff olk</w>
gen et
glo bes</w>
s anti
20 21</w>
geor ge
rival ry</w>
fe eds</w>
sho pper</w>
10 8</w>
gaz ette</w>
o man</w>
re located</w>
u z
in ven
ant arctic</w>
uni denti
leg ally</w>
bb le
lag una</w>
v ap
al gae</w>
hen der
north ward</w>
sher man</w>
th al</w>
wor ms</w>
hair cuts</w>
ice berg</w>
smooth ies</w>
swa p</w>
territ orial</w>
rober ts</w>
s igh
le tting</w>
ri p</w>
hydrange a</w>
with draw</w>
bare foot</w>
cru sad
minim alism</w>
re usable</w>
mon ds</w>
da ff
ap pla
189 2</w>
mytho logical</w>
isa ac</w>
venezu ela</w>
so m
fin n</w>
communic ate</w>
do se</w>
tr i</w>
vis ional</w>
witne sses</w>
ukrain ian</w>
de light
tan g</w>
fare well</w>
e ste
ü r
ang a</w>
appe aling</w>
dire cting</w>
grand son</w>
recru it
kur t</w>
solo mon</w>
ariz ona</w>
her on</w>
swe eping</w>
phys ician</w>
2 1
e ck</w>
sau cer</w>
ra ids</w>
ment ing</w>
yose mite</w>
tre ehouse</w>
metall ica</w>
har der</w>
stair way</w>
joy ful</w>
type writer</w>
as leep</w>
con i
cap abilities</w>
din ners</w>
zz ling</w>
mad ness</w>
du p</w>
h t</w>
mob il
accor d
che shire</w>
mil ton</w>
ham let</w>
threat ening</w>
st ically</w>
mas ses</w>
bre ast
exam ining</w>
box ed</w>
co pe</w>
ben nett</w>
consi ders</w>
lac qu
station ary</w>
i fied</w>
all ed</w>
cal orie</w>
bloc king</w>
nic he</w>
scand al</w>
horse power</w>
cancel ed</w>
m ast</w>
der land</w>
bun ker</w>
pho sp
dra ped</w>
over come</w>
similar ities</w>
aber de
k ine
hu gh</w>
quar ry</w>
contr actor</w>
phys ically</w>
mani pu
he m
flan nel</w>
cy ber</w>
cru ising</w>
docu mented</w>
ig no
ir rig
ti ara</w>
lloy d</w>
no tor
ish ments</w>
ki wi</w>
hex agon</w>
to mmy</w>
clu sters</w>
satis faction</w>
soci alist</w>
s z
s ly</w>
ath lon</w>
business men</w>
domin ium</w>
streng then</w>
renew ed</w>
nott ingham</w>
qur an</w>
c ate
t int
int im
evacu ation</w>
pri me
thick ness</w>
commen cement</w>
bu ick</w>
ber y</w>
veter inary</w>
trig ger</w>
b less</w>
s mar
ro gen</w>
bo a</w>
nutri ents</w>
e id</w>
p its</w>
ab du
explo sive</w>
con dominium</w>
under went</w>
popp ies</w>
f aded</w>
k ab
ri bbed</w>
em ma</w>
5 50</w>
min h</w>
hu gh
dig ging</w>
bin oc
osp rey</w>
le agues</w>
sc rubs</w>
go ggles</w>
ug anda</w>
dr y
wel fare</w>
crun chy</w>
bu mp</w>
ten ds</w>
tit anic</w>
cham ele
phenomen on</w>
embrac ing</w>
s d</w>
al on
mo mmy</w>
mu tual</w>
att achment</w>
amp li
tail ored</w>
niger ian</w>
t n
ta b</w>
dr illing</w>
bap tist</w>
recur ring</w>
o de</w>
s aves</w>
cro ck</w>
joc key</w>
j in</w>
al ia</w>
ct able</w>
mar di</w>
back packing</w>
i y
p ill</w>
flo ats</w>
seren ity</w>
sen ators</w>
mo t</w>
condu ctor</w>
advis ed</w>
glim pse</w>
mid fielder</w>
archipel ago</w>
ang s</w>
ne phe
trade mark</w>
stev ens</w>
presi dency</w>
refu gees</w>
ma ha</w>
ke h</w>
low ered</w>
coun sel
clim bs</w>
h ar</w>
k rist
do ha</w>
flo wn</w>
lun g</w>
consul tant</w>
c bd</w>
am or
ment ally</w>
eco system</w>
har per</w>
won dering</w>
arm strong</w>
e stu
pro xim
cand le
may o</w>
air ing</w>
innoc ent</w>
in fo
sh ines</w>
gra d</w>
gra vy</w>
law are</w>
s ling</w>
av enger</w>
hard ly</w>
marshmal low</w>
d ment</w>
19 0</w>
in quir
mar ket
water loo</w>
exhib its</w>
achie vements</w>
mid way</w>
unfortun ately</w>
inter nationally</w>
op ted</w>
ja ws</w>
process ion</w>
lemon s</w>
chemic als</w>
g t
per cy</w>
sa ff
sub marines</w>
fle ming</w>
de laware</w>
ad dressed</w>
s ill</w>
ig ious</w>
hor e</w>
happ ily</w>
flas k</w>
8 8
g ill
ju mbo</w>
10 6</w>
la os</w>
t as</w>
sty list</w>
bor a</w>
demonstr ating</w>
che fs</w>
def ences</w>
pleas e</w>
expl ic
u tt
in c
ne e</w>
te quila</w>
out lined</w>
oklaho ma</w>
zim bab
acci dentally</w>
lex ington</w>
armen ia</w>
b ard</w>
re marked</w>
st aged</w>
co logne</w>
po stage</w>
war ran
10 9</w>
gett able</w>
unidenti fied</w>
re ds</w>
as set</w>
moun tain
chan ts</w>
ke ith</w>
customi z
vo ters</w>
aw ning</w>
kin son</w>
contr acts</w>
pa st
therap ist</w>
prest igious</w>
inje ction</w>
y ons</w>
un certain</w>
vi e</w>
pe mb
bas h</w>
ban king</w>
mis sion
cycl ist</w>
scoo ters</w>
moto cross</w>
reminis cent</w>
ur anium</w>
la fayette</w>
fle x</w>
citiz en
o la
de bu
care ers</w>
sp iced</w>
vi ć</w>
gold fish</w>
lady bug</w>
2 2nd</w>
cra ig</w>
any more</w>
come back</w>
mau i</w>
ent e</w>
ma ver
crit ically</w>
discipl ine</w>
adap tations</w>
democr acy</w>
santi ago</w>
mar c</w>
tax ono
w ound</w>
fra ser</w>
quest ioned</w>
honor ary</w>
elig ible</w>
d m</w>
sa c</w>
bar racks</w>
swa g</w>
leaf s</w>
upr ight</w>
tasse l</w>
do om</w>
requ iring</w>
app al
she ath</w>
t ate</w>
le mur</w>
advent u
pre tz
est ilo</w>
liber ation</w>
hunt ington</w>
nor theastern</w>
consum ers</w>
bar nes</w>
caes ar</w>
pall ad
speci alty</w>
gen es</w>
t su
bo keh</w>
the o
har m</w>
lan cash
portra yal</w>
lancash ire</w>
c g</w>
n ak
bor e</w>
hon ours</w>
psycho logical</w>
imple mented</w>
k at</w>
ch u</w>
nam ibi
hand y</w>
salt water</w>
l att
am e
clar ke</w>
chor d</w>
ad hesive</w>
fe es</w>
tal ity</w>
educ ated</w>
bla ir</w>
flan ked</w>
ic ut</w>
ish ers</w>
bron x</w>
che ek</w>
condition ing</w>
16 00</w>
189 4</w>
some body</w>
manufact ure</w>
santor ini</w>
hy p
super star</w>
stric t</w>
g and
chall enger</w>
ho we</w>
dra fted</w>
o kee</w>
r na</w>
prote ctor</w>
embar ked</w>
mu se</w>
hou r
w inter
shi fted</w>
harve sting</w>
lithu ania</w>
diag onal</w>
189 1</w>
8 68</w>
g ence</w>
i os</w>
re de
en lar
int ent</w>
bed ded</w>
k end
on e
im mer
suspe cted</w>
journ alists</w>
turn pike</w>
g p</w>
har m
augu sta</w>
neu r</w>
e quality</w>
h y</w>
i dae</w>
illu sions</w>
10 3</w>
shoo ter</w>
ex ile</w>
et c</w>
over look</w>
brea the</w>
jon athan</w>
bav aria</w>
9 5
rese mbles</w>
quant ity</w>
b agu
per pe
comp iled</w>
dri p</w>
upgra des</w>
win dy</w>
az er
reta iler</w>
digit ally</w>
ar range</w>
comp as
gri m</w>
gran ny</w>
explo red</w>
spel ls</w>
deteri or
ac o
che on</w>
oce an
par chment</w>
so pho
consul ting</w>
invent ory</w>
t is
y ton</w>
ste amed</w>
16 v</w>
bul garian</w>
lyn x</w>
shav ed</w>
s son</w>
ren ault</w>
k ach
ster eo</w>
sub merged</w>
sin ks</w>
remin ds</w>
group ed</w>
configur ation</w>
min ions</w>
war craft</w>
isol ate</w>
gal ap
neu tr
intelle ctual</w>
witch craft</w>
ham mad</w>
frag ments</w>
diplo matic</w>
tra ge
att a</w>
stra in</w>
constant ino
k ha
ar iel</w>
the od
foot print</w>
cli sts</w>
cat alogue</w>
semi final</w>
r ack
ten ure</w>
god father</w>
jas per</w>
impal a</w>
out come</w>
can u
sher lock</w>
con sist</w>
pro ven</w>
res ist</w>
ca yman</w>
alban ia</w>
to asted</w>
har sh</w>
achi eving</w>
h ak
sp len
the ft</w>
manit oba</w>
ver non</w>
tan ker</w>
com partment</w>
fer ris</w>
mccar tney</w>
frig ate</w>
lol li
ow ns</w>
twenti eth</w>
lu d
clo ak</w>
air ports</w>
cham ber
wrest ler</w>
short age</w>
ge ment</w>
mor t
g hosts</w>
pu ck</w>
bar ber
gran ts</w>
co p</w>
mo ons</w>
ci um</w>
fron tal</w>
fle a</w>
hab it</w>
mass acre</w>
gladi ator</w>
t less</w>
appreci ate</w>
le on</w>
is o</w>
su r</w>
por ches</w>
17 5</w>
loco motives</w>
galap agos</w>
o ber
tr acked</w>
cor p</w>
val id</w>
u b</w>
mu le</w>
cam pers</w>
dun geons</w>
raz or</w>
per mit</w>
ke lo
da wn</w>
serp ent</w>
z inc</w>
st alls</w>
mu zzle</w>
ever ett</w>
comman ders</w>
law suit</w>
sh ima</w>
we igh</w>
in as</w>
sc rub</w>
fla vo
fr ying</w>
snow board</w>
promis es</w>
7 28</w>
su pra</w>
pier ce</w>
h inges</w>
i w
in d
mo z
br yan</w>
speci fied</w>
demonstr ates</w>
h ack
defin ing</w>
ne wer</w>
manag ers</w>
vac ant</w>
barre ls</w>
lefto ver</w>
la z
bu enos</w>
sen sor</w>
80 x
prohib ited</w>
st aging</w>
int rig
scen ario</w>
const antine</w>
himal ayan</w>
drif twood</w>
b lake</w>
li z</w>
flor ist</w>
sustain ability</w>
in sight</w>
un clear</w>
cent ennial</w>
tru ste
sal ute</w>
counter tops</w>
nad u</w>
ra pun
ge ck
ade l</w>
fau cet</w>
repe ating</w>
sak ura</w>
hugh es</w>
o eu
mo or
cor ruption</w>
bar on</w>
swe et
nic kelo
metro polis</w>
targe ted</w>
u v</w>
car tier</w>
my ths</w>
ori entation</w>
stro m</w>
occur ring</w>
resol ved</w>
qu inn</w>
mb at</w>
188 6</w>
cow girl</w>
modi fy</w>
scrip tures</w>
stra it</w>
scrip tions</w>
gradu ating</w>
embo ssed</w>
moist ure</w>
ra ft</w>
bar row</w>
du ct</w>
mor tar</w>
re paired</w>
bor neo</w>
dete cted</w>
book shelf</w>
godde sses</w>
fin der</w>
compr ising</w>
orang es</w>
re cycle</w>
to fu</w>
promis ing</w>
petro l</w>
thermo meter</w>
interse cts</w>
tun dra</w>
tau pe</w>
flavo red</w>
p at</w>
tim er</w>
count down</w>
nickelo deon</w>
r ational</w>
com mod
nor d
eth ical</w>
grey hound</w>
constantino ple</w>
pre fe
tro ph
cher okee</w>
ad ena</w>
su dden</w>
qu ette</w>
pos sibilities</w>
stan ford</w>
per pendic
sal is
citizen ship</w>
re call</w>
hum our</w>
ell is</w>
deleg ates</w>
spiritu ality</w>
co ven
ch ia</w>
wed ges</w>
inter n
mas onry</w>
balcon ies</w>
compr ised</w>
en able</w>
war nings</w>
road way</w>
fat al</w>
ju an</w>
can als</w>
camp site</w>
vo ws</w>
tr acy</w>
sk illed</w>
can ned</w>
pil ates</w>
sap e
gre g</w>
azz o</w>
affili ate</w>
f endi</w>
g ases</w>
end game</w>
186 5</w>
recommend ations</w>
p d</w>
che wy</w>
bomb ay</w>
ro tary</w>
lu lar</w>
dis placed</w>
2 10</w>
w ished</w>
stru ctured</w>
non e
w int
il ly</w>
eu r</w>
anti qu
flu sh</w>
sax o
salv ador</w>
2 30</w>
m end
shel by</w>
polit icians</w>
neighbor hoods</w>
d ill</w>
te stim
di va</w>
accep tance</w>
mo le</w>
pe aches</w>
bon net</w>
salis bury</w>
dol ce</w>
rapun zel</w>
z y
gu t</w>
mas ked</w>
dam aging</w>
road side</w>
ro pes</w>
fu ll
brack et</w>
j av
woo ded</w>
scorp ion</w>
mo ment
moun ting</w>
em press</w>
i ya</w>
an tro</w>
sport swear</w>
sovere ign</w>
i ka</w>
in fused</w>
conne ct
recomm end</w>
cil antro</w>
m é
ol d
ne sts</w>
bur lap</w>
conveni ence</w>
dis pat
bur lington</w>
adv ancing</w>
10 24x
avi v</w>
m inton</w>
n r
i ums</w>
p seu
sett lements</w>
democr ats</w>
shel ters</w>
break down</w>
th en
cur io
auto graph</w>
en abled</w>
af ford</w>
dwar fs</w>
margar ita</w>
s men</w>
sh aw
dol l
presi dents</w>
nu pt
coo ks</w>
discu sses</w>
john ston</w>
pom pe
nupt se</w>
m ated</w>
ac ial</w>
pu p</w>
tim ing</w>
rein for
dispu ted</w>
ar istoc
qu int
cy rus</w>
neg le
montene gro</w>
lo fts</w>
se ab
ter ror</w>
sl ender</w>
m ound</w>
lau ren</w>
sar ato
groo ve</w>
lion aire</w>
inher ited</w>
imet res</w>
fee der</w>
q ing</w>
ar che
par sons</w>
screen play</w>
dynam ics</w>
pe eling</w>
fun gi</w>
avail ability</w>
sculp tor</w>
whit es</w>
100 th</w>
drac ula</w>
gro ssing</w>
purch asing</w>
ou x</w>
im plic
sc ar</w>
off set</w>
ko h</w>
sele cting</w>
28 th</w>
com positions</w>
can n
ul ars</w>
engine ered</w>
may an</w>
bankno tes</w>
war mer</w>
rac hel</w>
vir uses</w>
os aka</w>
connect icut</w>
n n</w>
fe a
euro pa</w>
wol f
d gment</w>
erup tion</w>
ana heim</w>
al ine</w>
che sape
scar ves</w>
yu kon</w>
s w</w>
bu r</w>
dar ling</w>
bra h
gy m
band ana</w>
check list</w>
recess ed</w>
loaf ers</w>
chesape ake</w>
in formal</w>
ti bet</w>
car lo</w>
fix ing</w>
judic ial</w>
mat tel</w>
war ships</w>
kar l</w>
dissi pated</w>
r ati
ac claimed</w>
part ition</w>
smo key</w>
ace ae</w>
po well</w>
sta ins</w>
emb le
186 1</w>
horse back</w>
passion ate</w>
6 50</w>
or acle</w>
bo d
bu lar</w>
ru sh
sa ig
var ies</w>
ble ach</w>
pilgri mage</w>
he brew</w>
cl ing</w>
bal d
ende av
t ically</w>
to tem</w>
advis ory</w>
b as</w>
wh er
ber ger</w>
spec s</w>
comfor ter</w>
ow en</w>
kir k
diagno sis</w>
olo red</w>
hender son</w>
cu dd
vis ually</w>
molecu le</w>
au ssie</w>
pit bull</w>
encoura ging</w>
weigh s</w>
reinfor cements</w>
d b</w>
ro ster</w>
con sequences</w>
ash ore</w>
bio grapher</w>
enthusi ast
his panic</w>
ro g
ex emp
eye wear</w>
incorpor ates</w>
ho i</w>
int act</w>
pin ned</w>
cath ol
dash board</w>
f 150</w>
er rors</w>
wa y
fair mont</w>
fr ater
salv ation</w>
c f</w>
re act</w>
sum ing</w>
sen ds</w>
extr atro
palest ine</w>
re forms</w>
j pg</w>
de pressed</w>
ha zel
ce ased</w>
extratro pical</w>
la e</w>
cap ti
cap ri</w>
pun isher</w>
regu lation</w>
sign atures</w>
neighb or</w>
delight ful</w>
su dan</w>
00 2</w>
ro tten</w>
no bel</w>
bl ame</w>
sy no
rep lied</w>
st allion</w>
sp urs</w>
comm enting</w>
blan c</w>
wild flowers</w>
v ina</w>
announ cing</w>
bu ster</w>
fire places</w>
chor ds</w>
tu cked</w>
ste tho
ed die</w>
gri ffin</w>
requi rement</w>
p added</w>
y or</w>
pun ta</w>
o u</w>
br ance</w>
sy rac
opin ions</w>
attribu tes</w>
bl ended</w>
ru dol
fol ds</w>
cit adel</w>
spel ling</w>
grizz ly</w>
im macul
s lime</w>
u ten
on ica</w>
dread nou
l ery</w>
ap ric
ti dal</w>
foot ball
re mem
pro men
rit uals</w>
gen res</w>
bed ford</w>
infr ared</w>
am g</w>
ju bil
bar ri
stun t</w>
il itation</w>
ta urus</w>
bar ley</w>
sal am
head board</w>
remem brance</w>
be ards</w>
che l</w>
sen ses</w>
6 9
co ating</w>
wh ir
ad iron
sle epy</w>
mun do</w>
awak ening</w>
point e</w>
unfor gettable</w>
none theless</w>
adiron d
pe dro</w>
per ception</w>
black berry</w>
eth y
clar a</w>
deman ding</w>
syrac use</w>
ro dr
wal dorf</w>
ze pp
cha ise</w>
phra ses</w>
st ills</w>
att ach</w>
journ als</w>
percu ssion</w>
2 7th</w>
colle gi
you ll</w>
gil ded</w>
immig rants</w>
ur u
ex cu
cou rier</w>
ja h</w>
municipal ity</w>
con fu
acti vely</w>
u ss
sum mar
mu ddy</w>
sy r
chan ces</w>
ment or</w>
commerci ally</w>
du plex</w>
plo ts</w>
s lim
car ton</w>
ev angel
sle igh</w>
fr action</w>
sur rendered</w>
18 50</w>
din a</w>
im it
ne v
ste al
pra ising</w>
azer bai
val encia</w>
argent ine</w>
stur dy</w>
amal fi</w>
p neu
su gar
arch ery</w>
tor tilla</w>
que en
exten sively</w>
troo per</w>
stu s</w>
ant enna</w>
symboli ze</w>
he ater</w>
dun geon</w>
surve ill
inte gra
he imer</w>
ter o
inst antly</w>
astronau ts</w>
brad man</w>
ad u
pre school
ru mors</w>
doc ked</w>
hear ty</w>
street wear</w>
prime time</w>
splen did</w>
u ality</w>
ad i</w>
pa ys</w>
chan g</w>
spee ches</w>
iv ity</w>
di vas</w>
hu mo
prin ces</w>
c rist
li vely</w>
pro v
ha i
cam els</w>
dan e</w>
bil t</w>
ol es</w>
sm iley</w>
sw ings</w>
oper ators</w>
explo res</w>
d j
ur ged</w>
ca in</w>
ori ent</w>
proph et</w>
namibi a</w>
surveill ance</w>
c roo
re ig
sarato ga</w>
ap r</w>
ath en
d is</w>
res on
pati os</w>
stetho scope</w>
no ti
mi ra
pal azzo</w>
relig ions</w>
g im
in hib
ad just</w>
em bedded</w>
upr ising</w>
civil ians</w>
thr u</w>
in car
al ize</w>
ch it
mas car
dic tionary</w>
re serves</w>
ll i</w>
plan etary</w>
lim bs</w>
ton ic</w>
conflic ts</w>
cler k</w>
fundra ising</w>
or dering</w>
imag inary</w>
tole do</w>
l ton</w>
init ials</w>
deci ding</w>
2 70</w>
fe ared</w>
pu ddle</w>
sa una</w>
accompl ished</w>
o kin
al ice</w>
ch an</w>
se llers</w>
me yer</w>
pr iced</w>
equ ations</w>
metho dist</w>
gas oline</w>
gli der</w>
sh rub</w>
par an
mb ar</w>
cas he
ki ev</w>
stra y</w>
bah rain</w>
physi ology</w>
lg bt</w>
l acking</w>
w it</w>
pl ating</w>
fun nel</w>
ket t</w>
tr action</w>
inv ention</w>
aberde en</w>
æ thel
ri m
mu gh
mas onic</w>
zimbab we</w>
g q</w>
ge mini</w>
ital ia</w>
proce eds</w>
mongo lia</w>
r é
fol kl
san it
ib n</w>
execu tives</w>
ibi za</w>
folkl ore</w>
ra iling</w>
le ap</w>
bo ilers</w>
fre sco</w>
mam moth</w>
faith ful</w>
w ere
ni k
promen ade</w>
v and
y in</w>
re viewing</w>
acti vists</w>
deser ts</w>
extra vag
spy der</w>
7 68</w>
li l</w>
pp a</w>
cho p</w>
18 60</w>
gam es
davi es</w>
smart phones</w>
grace ful</w>
an e
br ick
dan ny</w>
mit es</w>
george town</w>
chamele on</w>
gener ous</w>
egg plant</w>
sten cils</w>
49 ers</w>
steel ers</w>
00 7</w>
kar nat
lu mber</w>
exam ine</w>
commemor ative</w>
strugg les</w>
smi th
dis covering</w>
bra in
exhib ited</w>
distin ction</w>
plas ma</w>
manne quin</w>
ra ster</w>
bo ar</w>
sho vel</w>
ven dors</w>
differ enti
lun gs</w>
186 2</w>
i ki</w>
ill on</w>
fin s</w>
expe cting</w>
necess arily</w>
calcul ated</w>
need les</w>
nick name</w>
distur b
polyg on</w>
sciento logy</w>
pe u
geo logy</w>
fal cons</w>
residen cy</w>
b out</w>
n un
ge isha</w>
her e
cla ire</w>
sprou ts</w>
stap les</w>
re t</w>
se du
com promise</w>
by ron</w>
pul sion</w>
elim inate</w>
cu lar</w>
vo id</w>
buff y</w>
canu cks</w>
tr act</w>
mor pho
with drawn</w>
work shops</w>
lap tops</w>
invol ve</w>
patri ot</w>
multic olored</w>
ou tra
j al
x x
hi kers</w>
prev enting</w>
chro mo
6 4
cast le
posit ively</w>
sac ri
ros ary</w>
solit aire</w>
ti ous</w>
dis appeared</w>
land ers</w>
stam ford</w>
per u
br at
war wick</w>
desper ate</w>
mounta ine
sc outing</w>
mar ge</w>
activ ist</w>
nucle us</w>
bombar dment</w>
karnat aka</w>
b l</w>
ar gue</w>
commemor ate</w>
p int</w>
accep ts</w>
collabor ative</w>
u fo</w>
x in
youn g
suff er</w>
186 4</w>
h c</w>
part icle</w>
sent ences</w>
h ir
as m</w>
swim mer</w>
su e</w>
ven ding</w>
under world</w>
don ations</w>
sor ship</w>
60 th</w>
1920x 1200</w>
congreg ation</w>
st ables</w>
sun derland</w>
decim al</w>
integra l</w>
al gor
cer ta
sel ena</w>
express way</w>
to wing</w>
po se
sav oy</w>
c b</w>
m vp</w>
re alty</w>
mer maids</w>
skin care</w>
monte ss
tatto o
montess ori</w>
sec uring</w>
h ick
k art</w>
en ci
ste aling</w>
vic inity</w>
resurre ction</w>
y le</w>
bl ends</w>
algor ith
lo ans</w>
pro phe
bro th</w>
din o</w>
auto s</w>
sche matic</w>
entrepre neur</w>
op al</w>
cau l
trac es</w>
am ethy
incorpor ating</w>
flex ibility</w>
disturb ance</w>
pe di
ponti ac</w>
n igh
to ad</w>
chandeli ers</w>
le mur
pro u
ter races</w>
simul ator</w>
cut lery</w>
evalu ation</w>
wand ering</w>
ion ic</w>
wa ve
indi re
accor d</w>
proce eded</w>
six ty</w>
rehab ilitation</w>
saxo phone</w>
i res</w>
p b</w>
it ters</w>
en ligh
se em
187 6</w>
occup y</w>
2 6th</w>
wor cester</w>
mi k
syn dic
an ding</w>
sc aff
bar b</w>
fre el
vent us</w>
mahar ash
m gm</w>
je al
tas ked</w>
meteoro logical</w>
doll house</w>
mo des</w>
pro visions</w>
comm enced</w>
nit rogen</w>
joh anne
15 0
ad ditions</w>
midd leton</w>
te t</w>
gall on</w>
seas oning</w>
sham poo</w>
chill i</w>
m ph
s watch</w>
we lling</w>
belon ged</w>
acquis ition</w>
c p</w>
d are</w>
cent res</w>
phil lies</w>
rhine stone</w>
saig on</w>
zepp elin</w>
hu mble</w>
sto re
thro w
arb or</w>
er n
le le</w>
dis ability</w>
pi kach
ar th
cu ffs</w>
goo dies</w>
identi fying</w>
surf ers</w>
nine teenth</w>
f eld</w>
pre cise</w>
inter actions</w>
tax i
e missions</w>
ju dgment</w>
roy ale</w>
bal lot</w>
profe ssion</w>
alp aca</w>
cut out</w>
pikach u</w>
st akes</w>
hand shake</w>
insul ation</w>
decre ased</w>
7 37</w>
z ur
sh en
car mel</w>
ck les</w>
sun ken</w>
sand al</w>
ris ks</w>
whit ney</w>
arch er</w>
dr yer</w>
flu o
kat che
l ite</w>
bon fire</w>
impression ist</w>
nephe w</w>
g les</w>
to on</w>
fir ms</w>
extr act</w>
sas katche
pro portions</w>
ma de
tri pod</w>
figu red</w>
u ku
di or
tru cker</w>
exc ite
host ile</w>
horo scope</w>
igno red</w>
e dia</w>
on stage</w>
sh in
ba b</w>
aga wa</w>
high lighting</w>
tun ic</w>
snow fall</w>
yu an</w>
6 8
s r
ir ical</w>
im port</w>
gang ster</w>
glou cester</w>
cycl ones</w>
gno me</w>
in flic
ky le</w>
market place</w>
w and</w>
ic ism</w>
lan g</w>
may fair</w>
ostr ich</w>
z i</w>
le d
ant lers</w>
el led</w>
seas cape</w>
ch lo
ne au</w>
con n</w>
tri dge</w>
rel ating</w>
í a</w>
on er</w>
ge dly</w>
cap es</w>
victor ious</w>
jer ry</w>
st even</w>
sch nau
14 5</w>
mit age</w>
mid west</w>
con an</w>
har p</w>
saskatche wan</w>
inter continental</w>
ten ded</w>
vari ants</w>
188 7</w>
rap tors</w>
epide mic</w>
tint in</w>
ac ia</w>
popu lated</w>
tan ts</w>
tab lets</w>
announ ce</w>
wheel er</w>
heli um</w>
ter ro
mon soon</w>
super car</w>
indu cted</w>
chron ic</w>
succe ed</w>
respir atory</w>
unci ation</w>
h t
is a</w>
is sa</w>
poly ne
gon dol
n ol
fro sty</w>
spon sor</w>
orb ital</w>
decad ent</w>
amethy st</w>
inter rupted</w>
cont ing
ancho red</w>
se ater</w>
la hore</w>
contro lling</w>
clean ed</w>
recru it</w>
dais ies</w>
de partments</w>
bo b
gre ets</w>
bal t</w>
cess ion</w>
reve lation</w>
sp encer</w>
car vings</w>
jo ints</w>
fr is
pear son</w>
voc alist</w>
year book</w>
wet lands</w>
c rou
ic us</w>
shi elds</w>
pant one</w>
y ale</w>
ne ct
char i
indepen dently</w>
regim ents</w>
m ash
ro bin</w>
me cca</w>
cent ric</w>
new ly
modi fications</w>
believ able</w>
fluo resc
c cin
pre ppy</w>
out lets</w>
188 1</w>
tam ar
prosper ity</w>
r ations</w>
ar bit
el ves</w>
ent ries</w>
dec ent</w>
collegi ate</w>
de z</w>
loo ps</w>
mer i
pun ishment</w>
seem ingly</w>
min o
sil es</w>
appe als</w>
motor way</w>
bow ler</w>
tion ally</w>
craf ts
h g</w>
itu des</w>
astrono mical</w>
re bounds</w>
ch is
un ite</w>
du ll</w>
pres ley</w>
pin n
swit ched</w>
pat ric
cap tiv
cat walk</w>
be lar
bu mble
mis siles</w>
experi encing</w>
co ach
et to</w>
lim it
scra mbler</w>
accep ting</w>
chak ra</w>
syr inge</w>
y able</w>
lit er</w>
blur ry</w>
c co</w>
ad mission</w>
mac ar
exhau sted</w>
swal low</w>
perpendic ular</w>
i ens</w>
m ma</w>
absor bed</w>
fjor d</w>
ex cur
ge ot</w>
sco ts</w>
mag ician</w>
congre ssional</w>
is ans</w>
gr at
accep table</w>
sher aton</w>
consider ably</w>
ch lor
bungalo ws</w>
recon c
ar is</w>
lo mb
ti est</w>
he ir</w>
hu es</w>
exam ined</w>
troph ies</w>
ban ned</w>
rasp berries</w>
compla ined</w>
diagno sed</w>
depos its</w>
isoto pes</w>
w ski</w>
ra ma</w>
tal i
vine yards</w>
peu geot</w>
ro de</w>
fun k</w>
lim a</w>
diplo ma</w>
embell ished</w>
i u
lu lu</w>
di pping</w>
mon es</w>
m k
sh ear
ha waii</w>
dis continued</w>
gol fer</w>
c ena</w>
gra des</w>
pa vers</w>
dig est</w>
defin itive</w>
inve stors</w>
sor ts</w>
red dish</w>
certa inty</w>
du ras</w>
free zing</w>
spin al</w>
predomin antly</w>
irrig ation</w>
g ong</w>
jer e
ring bone</w>
r ina</w>
re sign
back up</w>
hi er
40 x
jas mine</w>
apocaly ptic</w>
recruit ment</w>
qu at
mu hammad</w>
af l</w>
can did</w>
ger man
mist ak
aston ishing</w>
si m</w>
ff man</w>
coyo te</w>
humo rous</w>
bu sters</w>
rock ies</w>
or angu
lo pe</w>
mer ic</w>
pan zer</w>
mag enta</w>
ly rical</w>
kash mir</w>
tyran no
sopho more</w>
ric k
her ringbone</w>
post ure</w>
v w</w>
lo tion</w>
te sti
suppor ter</w>
bang les</w>
whist ler</w>
pro por
multic olor</w>
pl ague</w>
suggest ion</w>
hu go</w>
ob serving</w>
hy drau
pemb ro
flav our</w>
semin ar</w>
psal m</w>
hydrau lic</w>
gi f</w>
acci dents</w>
tu tu</w>
18 75</w>
under cut</w>
ship yard</w>
avo ided</w>
h bo</w>
ch t</w>
un available</w>
ca therine</w>
sculp ted</w>
alle gedly</w>
uphol stered</w>
johanne sburg</w>
n gc</w>
re leg
re pairing</w>
st ake</w>
mil estone</w>
nick named</w>
frag ile</w>
dis cre
pi per</w>
weigh ed</w>
cro ws</w>
pau lo</w>
inhab ited</w>
boli via</w>
m ies</w>
af c</w>
spe ar</w>
mono poly</w>
philosoph er</w>
3 000</w>
o maha</w>
ca fe
over watch</w>
quali fication</w>
imple mentation</w>
doct rine</w>
c ades</w>
mo wer</w>
clo ses</w>
serv iced</w>
hon duras</w>
pas sive</w>
186 3</w>
accur acy</w>
poul try</w>
sc ep
ter ia</w>
ge tic</w>
eu ra
joh ns</w>
voy ager</w>
prov ence</w>
on gan</w>
tw c</w>
ka iser</w>
nas sau</w>
specul ation</w>
recipi ent</w>
im pris
membran e</w>
sn ap
evo lu
igu ana</w>
alas ka</w>
for ged</w>
pp et</w>
art icul
post p
cine mas</w>
cra dle</w>
hon oring</w>
legit imate</w>
pa m</w>
out lines</w>
ant art</w>
christ ians</w>
chocol ates</w>
od ds</w>
medic inal</w>
thor pe</w>
devi antart</w>
p oun
ic ation</w>
exerc ising</w>
monter ey</w>
or ion</w>
pen d
auth ent
wan na</w>
ib is</w>
lu de</w>
auto biography</w>
188 2</w>
sex uality</w>
c ay</w>
c low
no m</w>
pe tal</w>
ty re</w>
under estimate</w>
binoc ulars</w>
n ac
bi as</w>
jo gging</w>
log ically</w>
stra ined</w>
embar ra
st art
te ar
str and
flav or
u l</w>
po ps
ju ana</w>
off er
bas sist</w>
optim us</w>
no ctur
gra ves</w>
den ed</w>
trans l
andre ws</w>
7 47</w>
ab sent</w>
mar y
okin awa</w>
we ar
sur realism</w>
4 2
col m</w>
swi vel</w>
ak h</w>
die cast</w>
dal mat
m ick</w>
ã o</w>
pre fab</w>
he avier</w>
nor ton</w>
collabor ated</w>
gra ded</w>
har dest</w>
aff e</w>
ver ing</w>
dig it</w>
tic ul
hear th</w>
touch downs</w>
republic ans</w>
vitam ins</w>
bli zzard</w>
speci fications</w>
70 th</w>
r iley</w>
th i</w>
rit is</w>
sal oon</w>
188 4</w>
perman ently</w>
obvi ously</w>
eyel iner</w>
i fication</w>
st op
fu ji</w>
mar ty
ris en</w>
det achment</w>
assass ination</w>
club house</w>
te h
so mal
man ages</w>
tal ked</w>
cit ation</w>
jac qu
leon ard</w>
1 12</w>
f ren
er land</w>
no ah</w>
pal at
aci ds</w>
w rench</w>
bat sman</w>
supp lier</w>
inspe ctor</w>
recru ited</w>
refurb ished</w>
4 0s</w>
wi fi</w>
expen se</w>
ra g</w>
sa o</w>
exhib itions</w>
depic t</w>
civil izations</w>
pursu ed</w>
inquir y</w>
th ood</w>
man t
fel low
evi dent</w>
as sume</w>
te amed</w>
cu mber
win ston</w>
188 3</w>
maharash tra</w>
j twc</w>
wi red</w>
sti que</w>
decis ive</w>
bald win</w>
de ities</w>
be tra
ne wark</w>
tra fford</w>
min a</w>
ka i
187 7</w>
shepher ds</w>
pist achi
fre est
lap el</w>
gla d</w>
r ying</w>
ar gy
mer chants</w>
swe ll</w>
cli p
con ge
cham p</w>
kra ft</w>
un used</w>
so phia</w>
clam ation</w>
car ne
land ings</w>
phil lips</w>
inci dents</w>
immacul ate</w>
uku lele</w>
ra ke
compla ints</w>
timber land</w>
inter act</w>
fin dings</w>
hor ned</w>
val ence</w>
sub scription</w>
mac book</w>
v ue</w>
re mind</w>
consist ently</w>
hast ings</w>
impris oned</w>
fe at</w>
fe ud</w>
free hand</w>
found ations</w>
coven ant</w>
w ander</w>
ve ins</w>
col ts</w>
mar ched</w>
war time</w>
id an</w>
gabri el</w>
de m</w>
ex t
so pr
ser ene</w>
dis cover
mac arthur</w>
theore m</w>
val leys</w>
sat chel</w>
o wing</w>
ic he</w>
ster ing</w>
monit ors</w>
o w</w>
tr it
ben ding</w>
wait er</w>
z ion</w>
re fin
ho o</w>
our selves</w>
mi rage</w>
ant ag
bel grade</w>
lat itude</w>
bad minton</w>
half way</w>
music als</w>
ve g</w>
back er</w>
fol der</w>
zomb ies</w>
to ol
che aper</w>
cho ker</w>
cau se
pack et</w>
ai ded</w>
s ash</w>
cu m
vis ibility</w>
ster ia</w>
compos ers</w>
obse ssed</w>
i z</w>
mor ton</w>
h ale</w>
re a</w>
mon archy</w>
hol den</w>
convin ce</w>
t ice</w>
v all
gro ves</w>
1 13</w>
he ed</w>
and o</w>
fl ared</w>
shu tter</w>
bol ton</w>
freest anding</w>
im an</w>
mo ds</w>
hal ter</w>
clim ber</w>
honey comb</w>
proxim ity</w>
le mb
li e
med ley</w>
man du</w>
dr ills</w>
grand parents</w>
sent enced</w>
encoura gement</w>
eigh teen</w>
aux ili
pa stor</w>
der dale</w>
ssi vely</w>
k nu
plan ks</w>
pen ding</w>
story telling</w>
entrepre ne
c am</w>
en field</w>
di oxide</w>
techno logical</w>
probab ility</w>
dead line</w>
tranqu il</w>
dioc ese</w>
ra fting</w>
10 7</w>
latt ice</w>
mugh al</w>
arth ritis</w>
c ist</w>
al monds</w>
lu cy</w>
ter r
ad ier</w>
cont acts</w>
body builder</w>
cotsw olds</w>
ho s</w>
up ward</w>
trave llers</w>
f x</w>
do berman</w>
v ander
end ale</w>
luf tw
freel ance</w>
pro fits</w>
ste in
warran ty</w>
ter ry</w>
har lem</w>
read iness</w>
though tful</w>
event ual</w>
re v</w>
for ts</w>
so s</w>
fash ions</w>
dic tat
fau l
roc ke
he al</w>
week night</w>
pa tho
cy clists</w>
inv aded</w>
argu ments</w>
o se</w>
in to
an alog</w>
ag na</w>
surroun ds</w>
li tho
max well</w>
propel ler</w>
an zac</w>
pro fit
ber kshire</w>
sal u
bour g</w>
aband on</w>
ac s</w>
cal cium</w>
maced onia</w>
e je
y u</w>
co balt</w>
se an</w>
du cat
dis ast
fi ery</w>
ket ch
sent im
seven teen</w>
ye ast</w>
ju ventus</w>
mac her</w>
in do</w>
st ard</w>
is ingly</w>
am ish</w>
te aser</w>
str ate</w>
lin king</w>
ell ations</w>
eyebro w</w>
compu ting</w>
imag in
gur u</w>
pian ist</w>
d able</w>
ic ans</w>
eg al</w>
pun s</w>
day care</w>
vene er</w>
cav ali
oli via</w>
amid st</w>
geck o</w>
cra fting</w>
curio sity</w>
strand ed</w>
adv ances</w>
reg ina</w>
patro ls</w>
how ling</w>
accent ed</w>
3 0s</w>
over alls</w>
ever ton</w>
tram po
juris diction</w>
mp ing</w>
stric tly</w>
sting ray</w>
cla u
luftw affe</w>
1 27</w>
flavor ful</w>
stri ker</w>
cel lo</w>
em por
throw back</w>
c ated</w>
sle eve
ambit ious</w>
in cen
sal ads</w>
in cl
un official</w>
bac he
glaci ers</w>
ance stors</w>
r hu
ira qi</w>
sole ly</w>
municipal ities</w>
obst acle</w>
chip mun
sleeve less</w>
it an</w>
illustr ating</w>
pati ence</w>
bu sch</w>
lau derdale</w>
s gt</w>
no tch</w>
gi g</w>
fil tr
mer it</w>
inten sive</w>
13 0
m ap
am ese</w>
pol i</w>
cli fton</w>
k c</w>
s b</w>
si k
sho cking</w>
pu ccin
ju l</w>
geo logical</w>
posse ssed</w>
out back</w>
sle eper</w>
dan ts</w>
surpr isingly</w>
yugosla via</w>
mountain ous</w>
ar mad
sp ans</w>
ab or
pe w
he st</w>
e in
o ath</w>
sne ak</w>
syn ago
trage dy</w>
mal te
ed ging</w>
5 9
inter viewed</w>
fl anders</w>
coun ters</w>
mou sse</w>
compar able</w>
furn ace</w>
d ing
t son</w>
re war
com be</w>
sig ni
far go</w>
cla use</w>
individu ally</w>
im posing</w>
du ous</w>
pu n</w>
dri pping</w>
install ations</w>
brig adier</w>
po l</w>
down hill</w>
ton neau</w>
brand on</w>
o g</w>
we e</w>
ter restrial</w>
inve st</w>
o at</w>
dis solved</w>
butter nut</w>
skele tal</w>
s é</w>
ta m</w>
bur j</w>
no where</w>
pre season</w>
he eled</w>
cap t</w>
info graphics</w>
e c</w>
ex pressing</w>
mat ur
bar gain</w>
pal lets</w>
const ellations</w>
dior ama</w>
lemb ongan</w>
le ak</w>
sil s</w>
valu ed</w>
pol len</w>
ay as</w>
list ens</w>
n most</w>
at own</w>
con junction</w>
ab lo</w>
elect oral</w>
j acu
be ck
star tup</w>
lim b</w>
persi st
2 80</w>
se tte</w>
sk ier</w>
dan a</w>
mur dered</w>
discu ssions</w>
there by</w>
witne ssed</w>
it as</w>
el lo</w>
enjo yable</w>
imag ined</w>
nation als</w>
re cap</w>
gar ment</w>
blue prints</w>
lo ses</w>
mar rake
cra yon</w>
wel comes</w>
radi al</w>
avi ator</w>
robo tic</w>
grin ding</w>
strength ening</w>
zur ich</w>
bron co</w>
blue tooth</w>
reluct ant</w>
resign ation</w>
mon ia</w>
ger ald</w>
cru s
super inten
ro vers</w>
stor ia</w>
mal colm</w>
zz o</w>
butter y</w>
exce ssive</w>
pl atoon</w>
ing les</w>
gre nad
uni fied</w>
ten sions</w>
pun jab</w>
lun a</w>
c nc</w>
appreci ated</w>
3 1st</w>
i van</w>
fe u
fron ts</w>
cour t
mob iles</w>
deal ers</w>
persu aded</w>
te e
ve ston</w>
pro tons</w>
pre t
cor set</w>
sa vi
ch s</w>
gre et</w>
mor tality</w>
fl aming</w>
nar nia</w>
c ac
si eg
hoo dies</w>
infe ct
re z</w>
re born</w>
per ennial</w>
bur rit
sil ky</w>
bru ins</w>
cric ke
pitch ing</w>
k oo
colle ague</w>
pix els</w>
book let</w>
renew able</w>
abra ham</w>
r pg</w>
po o
di stances</w>
lin a</w>
ten ding</w>
stil etto</w>
d n
un es</w>
un usually</w>
post al</w>
ext ingu
a ur
a ve
re efs</w>
nic ely</w>
bay ern</w>
gree ted</w>
excite ment</w>
tex t
2 9th</w>
re c</w>
pe tition</w>
sun dance</w>
ham a</w>
home town</w>
process ed</w>
acqu ire</w>
o logist</w>
de lays</w>
sh aving</w>
ste als</w>
rou ting</w>
186 6</w>
diff er</w>
o res</w>
x x</w>
over time</w>
trans forming</w>
red wood</w>
marshmal lows</w>
stag ger
d ons</w>
k hu
be ware</w>
ach able</w>
request s</w>
garn ered</w>
preschool ers</w>
a we</w>
cru el
commu ter</w>
clas p</w>
vent ilation</w>
u el</w>
oun ces</w>
bor rowed</w>
ko v
cigare ttes</w>
fox es</w>
ro bust</w>
par rots</w>
anch e</w>
gang es</w>
barre tt</w>
di vers</w>
sco re
dol ly</w>
13 1</w>
jacu zzi</w>
weak ening</w>
all an</w>
pat ina</w>
pal ais</w>
jubil ee</w>
car los</w>
gu y
gu jar
sit h</w>
bau haus</w>
o g
stu cco</w>
et ched</w>
foun ders</w>
sculp tural</w>
sor cer
lic ence</w>
cause way</w>
re do</w>
per sia</w>
se awe
con sequence</w>
publ ish</w>
deleg ation</w>
[...]
